0x00101000 0xfe3ae49d
0x00101004 0xfaa8ed9b
0x00101008 0x01240442
0x0010100c 0xe8eee169
0x00101010 0xf3faf17e
0x00101014 0xdadbde2e
0x00101018 0xe5c91e7e
0x0010101c 0xf0a2d650
0x00101020 0x2272dcec
0x00101024 0x1a78f91f
0x00101028 0x00000000
0x0010102c 0x00000000
0x00016000 0x00000000
0x00016004 0x00000000
0x00016008 0x00000000
0x0001600c 0x00000000
0x00016010 0x00000000
0x00016014 0x00000000
0x00100000 0x6e1d37b3
0x00100004 0x531ded3b
0x00016018 0x00000000
0x0001601c 0x00000000
0x00100008 0x41a613cf
0x0010000c 0xad95c8da
0x00016020 0x00000000
0x00016024 0x00000000
0x00100010 0x26d15953
0x00100014 0x4c03ee8e
0x00016028 0x00000000
0x0001602c 0x00000000
0x00100018 0xceab0914
0x0010001c 0x2350c2d0
0x00016030 0x00000000
0x00016034 0x00000000
0x00100020 0xf2ae1be0
0x00100024 0xcd102393
0x00016038 0x00000000
0x0001603c 0x00000000
0x00100028 0x43356103
0x0010002c 0xc106a1be
0x00016040 0x00000000
0x00016044 0x00000000
0x00100030 0xb3e1a4ab
0x00100034 0x41a0f1a7
0x00016048 0x00000007
0x0001604c 0x00000000
0x00100038 0xc55aa76b
0x0010003c 0xa5d4b790
0x00016050 0x00000000
0x00016054 0x00000000
0x00100040 0x00930c6e
0x00100044 0x5c0809d1
0x00016058 0x00000001
0x0001605c 0x00000000
0x00100048 0xa714062a
0x0010004c 0x5e68b8eb
0x00016060 0x00000000
0x00016064 0x00000000
0x00100050 0x282cd901
0x00100054 0x3b3ff640
0x00102000 0xfb200631
0x00102004 0x037ae90f
0x00016068 0x00000003
0x0001606c 0x00000000
0x00100058 0x1e602440
0x0010005c 0xfed224c3
0x00102008 0xf6dbfb9b
0x0010200c 0xed73fe2b
0x00016070 0x00000000
0x00016074 0x00000000
0x00100060 0xfebe9b27
0x00100064 0x2b9eeae6
0x00102010 0xe934ee33
0x00102014 0xedf3f6c4
0x00016078 0x00000004
0x0001607c 0x00000000
0x00100068 0x181c18f2
0x0010006c 0xbd6fb81f
0x00102018 0x0252f66d
0x0010201c 0x05e0fcfa
0x00016080 0x00000002
0x00016084 0x00000000
0x00100070 0xaea1b336
0x00100074 0x9356e9f3
0x00102020 0xf68202da
0x00102024 0x0054fe07
0x00016088 0x00000000
0x0001608c 0x00000000
0x00100078 0xac174a2b
0x0010007c 0x4f3aebd0
0x00102028 0xfc0bf6fa
0x0010202c 0xfbc8f865
0x00016090 0x00000001
0x00016094 0x00000000
0x00100080 0x4ecb4451
0x00100084 0x22fc144a
0x00102030 0xfb58ebf9
0x00102034 0xf165fb1b
0x00016098 0x00000000
0x0001609c 0x00000000
0x00100088 0x2f243746
0x0010008c 0xa2fc6156
0x00102038 0x0ab2f064
0x0010203c 0xf621f0c1
0x000160a0 0x00000000
0x000160a4 0x00000000
0x00100090 0xb875091a
0x00100094 0xf81f1e0c
0x00102040 0xf57e0362
0x00102044 0xe739faa4
0x000160a8 0x00000000
0x000160ac 0x00000000
0x00100098 0xcf55d84a
0x0010009c 0x12ec49c8
0x00102048 0xfb4afa6b
0x0010204c 0xfa64f767
0x000160b0 0x00000000
0x000160b4 0x00000000
0x001000a0 0xf327d5a5
0x001000a4 0x4206df17
0x00102050 0x033ae98d
0x00102054 0xf01ff0a5
0x000160b8 0x00000001
0x000160bc 0x00000000
0x001000a8 0xb7455a21
0x001000ac 0x43504433
0x00102058 0x0736fc85
0x0010205c 0xecc7f48e
0x000160c0 0x00000000
0x000160c4 0x00000000
0x001000b0 0xf8e206ce
0x001000b4 0x2bc1606d
0x00102060 0xf39b01ad
0x00102064 0x00000000
0x000160c8 0x00000000
0x000160cc 0x00000000
0x001000b8 0x6352b10f
0x001000bc 0x1d5dbe7f
0x00102068 0x00000000
0x0010206c 0x00000000
0x000160d0 0x00000000
0x000160d4 0x00000000
0x001000c0 0xd167ed1b
0x001000c4 0x1153dd23
0x000160d8 0x00000000
0x000160dc 0x00000000
0x001000c8 0xd3dd67a1
0x001000cc 0x1102c2b4
0x000160e0 0x00000000
0x000160e4 0x00000000
0x001000d0 0xcd4a2c94
0x001000d4 0x0c496beb
0x000160e8 0x00000000
0x000160ec 0x00000000
0x001000d8 0xeecf2559
0x001000dc 0x375a5322
0x000160f0 0x00000000
0x000160f4 0x00000000
0x001000e0 0xd23cf9f4
0x001000e4 0xdc0b05ea
0x000160f8 0x00000000
0x000160fc 0x00000000
0x001000e8 0x172cbe39
0x001000ec 0xceae6756
0x00016100 0x00000000
0x00016104 0x00000000
0x001000f0 0x5b02aeca
0x001000f4 0xc6e5c4a1
0x00016108 0x00000000
0x0001610c 0x00000000
0x001000f8 0x3cca633d
0x001000fc 0x5f7053fe
0x00016110 0x00000000
0x00016114 0x00000000
0x00100100 0xf1023f0b
0x00100104 0x52697419
0x00016118 0x00000000
0x0001611c 0x00000000
0x00100108 0x670cce15
0x0010010c 0xcfbc05b9
0x00016120 0x00000000
0x00016124 0x00000000
0x00100110 0x3e291224
0x00100114 0x9210f721
0x00016128 0x00000000
0x0001612c 0x00000000
0x00100118 0x1e19d832
0x0010011c 0x0ef930ae
0x00016130 0x00000000
0x00016134 0x00000000
0x00100120 0x523f1335
0x00100124 0x61f5e787
0x00016138 0x00000000
0x0001613c 0x00000000
0x00100128 0x1632f80f
0x0010012c 0xd6753d9b
0x00016140 0x00000002
0x00016144 0x00000000
0x00100130 0x6605bb4a
0x00100134 0xaf3f4b42
0x00016148 0x00000000
0x0001614c 0x00000000
0x00100138 0x5825c2c6
0x0010013c 0xa7ac1fca
0x00016150 0x00000006
0x00016154 0x00000000
0x00100140 0xe6eb55ce
0x00100144 0x2eb954c0
0x00016158 0x00000000
0x0001615c 0x00000000
0x00100148 0x1e6110cd
0x0010014c 0x3ef394bd
0x00016160 0x00000000
0x00016164 0x00000000
0x00100150 0x51de369e
0x00100154 0xcff98a8c
0x00016168 0x00000000
0x0001616c 0x00000000
0x00100158 0xc1141eb4
0x0010015c 0x1a4db50e
0x00016170 0x00000005
0x00016174 0x00000000
0x00100160 0x48c8a80e
0x00100164 0x5a272caf
0x00016178 0x00000001
0x0001617c 0x00000000
0x00100168 0xe52901d4
0x0010016c 0x4c2ed30b
0x00016180 0x00000000
0x00016184 0x00000000
0x00100170 0xb695b4d9
0x00100174 0x29058a5a
0x00016188 0x00000001
0x0001618c 0x00000000
0x00100178 0x954bbf2a
0x0010017c 0x13f5a1df
0x00016190 0x00000000
0x00016194 0x00000000
0x00100180 0x0ae3563b
0x00100184 0x2e3cb9d5
0x00016198 0x00000000
0x0001619c 0x00000000
0x00100188 0x095700c6
0x0010018c 0xb153215d
0x000161a0 0x00000000
0x000161a4 0x00000000
0x00100190 0x669e41e4
0x00100194 0xcf9cbe91
0x000161a8 0x00000000
0x000161ac 0x00000000
0x00100198 0x3bd23cfd
0x0010019c 0x330551ba
0x000161b0 0x00000000
0x000161b4 0x00000000
0x001001a0 0xee9fad4d
0x001001a4 0x44b8f5a3
0x000161b8 0x00000000
0x000161bc 0x00000000
0x001001a8 0xe233a7fe
0x001001ac 0x6199d3e4
0x000161c0 0x00000000
0x000161c4 0x00000000
0x001001b0 0xa8cdf53f
0x001001b4 0x9fc19942
0x000161c8 0x00000000
0x000161cc 0x00000000
0x001001b8 0x3d59ea4c
0x001001bc 0xd4babc68
0x000161d0 0x00000000
0x000161d4 0x00000000
0x001001c0 0xcbf5fc3d
0x001001c4 0x01ca912c
0x000161d8 0x00000000
0x000161dc 0x00000000
0x001001c8 0x330d4e2c
0x001001cc 0xdf16d02b
0x000161e0 0x00000000
0x000161e4 0x00000000
0x001001d0 0xfd103d56
0x001001d4 0xa025397d
0x000161e8 0x00000000
0x000161ec 0x00000000
0x001001d8 0xc03de6fb
0x001001dc 0xaf690126
0x000161f0 0x00000000
0x000161f4 0x00000000
0x001001e0 0x05f7cfd2
0x001001e4 0xd472c306
0x000161f8 0x00000000
0x000161fc 0x00000000
0x001001e8 0x3f4ba466
0x001001ec 0xacf0c6b0
0x00016200 0x00000004
0x00016204 0x00000000
0x001001f0 0xb0286ee2
0x001001f4 0x00000000
0x00016208 0x00000002
0x0001620c 0x00000000
0x00016210 0x00000003
0x00016214 0x00000000
0x00016218 0x00000000
0x0001621c 0x00000000
0x00016220 0x00000000
0x00016224 0x00000000
0x00016228 0x00000000
0x0001622c 0x00000000
0x00016230 0x00000003
0x00016234 0x00000000
0x00016238 0x00000000
0x0001623c 0x00000000
0x00016240 0x00000007
0x00016244 0x00000000
0x00016248 0x00000000
0x0001624c 0x00000000
0x00016250 0x00000000
0x00016254 0x00000000
0x00016258 0x00000001
0x0001625c 0x00000000
0x00016260 0x00000000
0x00016264 0x00000000
0x00016268 0x00000001
0x0001626c 0x00000000
0x00016270 0x00000000
0x00016274 0x00000000
0x00016278 0x00000000
0x0001627c 0x00000000
0x00016280 0x00000000
0x00016284 0x00000000
0x00016288 0x00000000
0x0001628c 0x00000000
0x00016290 0x00000000
0x00016294 0x00000000
0x00016298 0x00000000
0x0001629c 0x00000000
0x000162a0 0x00000000
0x000162a4 0x00000000
0x000162a8 0x00000000
0x000162ac 0x00000000
0x000162b0 0x00000000
0x000162b4 0x00000000
0x000162b8 0x00000000
0x000162bc 0x00000000
0x000162c0 0x00000000
0x000162c4 0x00000000
0x000162c8 0x00000000
0x000162cc 0x00000000
0x000162d0 0x00000000
0x000162d4 0x00000000
0x000162d8 0x00000000
0x000162dc 0x00000000
0x000162e0 0x00000000
0x000162e4 0x00000000
0x000162e8 0x00000000
0x000162ec 0x00000000
0x000162f0 0x00000000
0x000162f4 0x00000000
0x000162f8 0x00000004
0x000162fc 0x00000000
0x00016300 0x00000000
0x00016304 0x00000000
0x00016308 0x00000008
0x0001630c 0x00000000
0x00016310 0x00000000
0x00016314 0x00000000
0x00016318 0x00000000
0x0001631c 0x00000000
0x00016320 0x00000000
0x00016324 0x00000000
0x00016328 0x00000000
0x0001632c 0x00000000
0x00016330 0x00000004
0x00016334 0x00000000
0x00016338 0x00000003
0x0001633c 0x00000000
0x00016340 0x00000000
0x00016344 0x00000000
0x00016348 0x00000003
0x0001634c 0x00000000
0x00016350 0x00000001
0x00016354 0x00000000
0x00016358 0x00000002
0x0001635c 0x00000000
0x00016360 0x00000000
0x00016364 0x00000000
0x00016368 0x00000000
0x0001636c 0x00000000
0x00016370 0x00000000
0x00016374 0x00000000
0x00016378 0x00000000
0x0001637c 0x00000000
0x00016380 0x00000000
0x00016384 0x00000000
0x00016388 0x00000000
0x0001638c 0x00000000
0x00016390 0x00000000
0x00016394 0x00000000
0x00016398 0x00000000
0x0001639c 0x00000000
0x000163a0 0x00000000
0x000163a4 0x00000000
0x000163a8 0x00000000
0x000163ac 0x00000000
0x000163b0 0x00000000
0x000163b4 0x00000000
0x000163b8 0x00000000
0x000163bc 0x00000000
0x000163c0 0x00000000
0x000163c4 0x00000000
0x000163c8 0x00000009
0x000163cc 0x00000000
0x000163d0 0x00000000
0x000163d4 0x00000000
0x000163d8 0x00000007
0x000163dc 0x00000000
0x000163e0 0x00000001
0x000163e4 0x00000000
0x000163e8 0x00000000
0x000163ec 0x00000000
0x000163f0 0x00000007
0x000163f4 0x00000000
0x000163f8 0x00000000
0x000163fc 0x00000000
0x00016400 0x00000005
0x00016404 0x00000000
0x00016408 0x00000000
0x0001640c 0x00000000
0x00016410 0x00000000
0x00016414 0x00000000
0x00016418 0x00000000
0x0001641c 0x00000000
0x00016420 0x00000000
0x00016424 0x00000000
0x00016428 0x00000000
0x0001642c 0x00000000
0x00016430 0x00000000
0x00016434 0x00000000
0x00016438 0x00000002
0x0001643c 0x00000000
0x00016440 0x00000000
0x00016444 0x00000000
0x00016448 0x00000000
0x0001644c 0x00000000
0x00016450 0x00000000
0x00016454 0x00000000
0x00016458 0x00000000
0x0001645c 0x00000000
0x00016460 0x00000000
0x00016464 0x00000000
0x00016468 0x00000000
0x0001646c 0x00000000
0x00016470 0x00000000
0x00016474 0x00000000
0x00016478 0x00000000
0x0001647c 0x00000000
0x00016480 0x00000000
0x00016484 0x00000000
0x00016488 0x00000000
0x0001648c 0x00000000
0x00016490 0x00000000
0x00016494 0x00000000
0x00016498 0x00000000
0x0001649c 0x00000000
0x000164a0 0x0000000a
0x000164a4 0x00000000
0x000164a8 0x00000000
0x000164ac 0x00000000
0x000164b0 0x00000000
0x000164b4 0x00000000
0x000164b8 0x00000001
0x000164bc 0x00000000
0x000164c0 0x00000000
0x000164c4 0x00000000
0x000164c8 0x00000002
0x000164cc 0x00000000
0x000164d0 0x0000007b
0x000164d4 0x00000000
0x000164d8 0x0000007d
0x000164dc 0x00000000
0x000164e0 0x0000007e
0x000164e4 0x00000000
0x000164e8 0x0000007f
0x000164ec 0x00000000
0x000164f0 0x00000076
0x000164f4 0x00000000
0x000164f8 0x0000002e
0x000164fc 0x00000000
0x00016500 0x00000000
0x00016504 0x00000000
0x00016508 0x00000001
0x0001650c 0x00000000
0x00016510 0x00000005
0x00016514 0x00000000
0x00016518 0x00000000
0x0001651c 0x00000000
0x00016520 0x00000000
0x00016524 0x00000000
0x00016528 0x00000000
0x0001652c 0x00000000
0x00016530 0x00000000
0x00016534 0x00000000
0x00016538 0x00000000
0x0001653c 0x00000000
0x00016540 0x00000000
0x00016544 0x00000000
0x00016548 0x00000000
0x0001654c 0x00000000
0x00016550 0x00000000
0x00016554 0x00000000
0x00016558 0x00000000
0x0001655c 0x00000000
0x00016560 0x00000000
0x00016564 0x00000000
0x00016568 0x00000000
0x0001656c 0x00000000
0x00016570 0x00000000
0x00016574 0x00000000
0x00016578 0x00000000
0x0001657c 0x00000000
0x00016580 0x00000000
0x00016584 0x00000000
0x00016588 0x00000000
0x0001658c 0x00000000
0x00016590 0x00000004
0x00016594 0x00000000
0x00016598 0x00000012
0x0001659c 0x00000000
0x000165a0 0x0000007f
0x000165a4 0x00000000
0x000165a8 0x0000007e
0x000165ac 0x00000000
0x000165b0 0x0000007a
0x000165b4 0x00000000
0x000165b8 0x0000007f
0x000165bc 0x00000000
0x000165c0 0x00000056
0x000165c4 0x00000000
0x000165c8 0x0000001c
0x000165cc 0x00000000
0x000165d0 0x00000000
0x000165d4 0x00000000
0x000165d8 0x00000003
0x000165dc 0x00000000
0x000165e0 0x00000005
0x000165e4 0x00000000
0x000165e8 0x00000000
0x000165ec 0x00000000
0x000165f0 0x00000000
0x000165f4 0x00000000
0x000165f8 0x00000007
0x000165fc 0x00000000
0x00016600 0x00000000
0x00016604 0x00000000
0x00016608 0x00000000
0x0001660c 0x00000000
0x00016610 0x00000000
0x00016614 0x00000000
0x00016618 0x00000000
0x0001661c 0x00000000
0x00016620 0x00000000
0x00016624 0x00000000
0x00016628 0x00000000
0x0001662c 0x00000000
0x00016630 0x00000000
0x00016634 0x00000000
0x00016638 0x00000000
0x0001663c 0x00000000
0x00016640 0x00000000
0x00016644 0x00000000
0x00016648 0x00000000
0x0001664c 0x00000000
0x00016650 0x00000000
0x00016654 0x00000000
0x00016658 0x00000000
0x0001665c 0x00000000
0x00016660 0x00000001
0x00016664 0x00000000
0x00016668 0x00000000
0x0001666c 0x00000000
0x00016670 0x0000007f
0x00016674 0x00000000
0x00016678 0x0000007f
0x0001667c 0x00000000
0x00016680 0x0000007d
0x00016684 0x00000000
0x00016688 0x00000054
0x0001668c 0x00000000
0x00016690 0x00000003
0x00016694 0x00000000
0x00016698 0x00000000
0x0001669c 0x00000000
0x000166a0 0x00000003
0x000166a4 0x00000000
0x000166a8 0x00000000
0x000166ac 0x00000000
0x000166b0 0x00000002
0x000166b4 0x00000000
0x000166b8 0x00000000
0x000166bc 0x00000000
0x000166c0 0x00000000
0x000166c4 0x00000000
0x000166c8 0x00000004
0x000166cc 0x00000000
0x000166d0 0x00000001
0x000166d4 0x00000000
0x000166d8 0x00000000
0x000166dc 0x00000000
0x000166e0 0x00000000
0x000166e4 0x00000000
0x000166e8 0x00000000
0x000166ec 0x00000000
0x000166f0 0x00000000
0x000166f4 0x00000000
0x000166f8 0x00000000
0x000166fc 0x00000000
0x00016700 0x00000000
0x00016704 0x00000000
0x00016708 0x00000000
0x0001670c 0x00000000
0x00016710 0x00000000
0x00016714 0x00000000
0x00016718 0x00000000
0x0001671c 0x00000000
0x00016720 0x00000000
0x00016724 0x00000000
0x00016728 0x00000000
0x0001672c 0x00000000
0x00016730 0x00000000
0x00016734 0x00000000
0x00016738 0x00000000
0x0001673c 0x00000000
0x00016740 0x00000000
0x00016744 0x00000000
0x00016748 0x0000007f
0x0001674c 0x00000000
0x00016750 0x0000007f
0x00016754 0x00000000
0x00016758 0x00000038
0x0001675c 0x00000000
0x00016760 0x00000000
0x00016764 0x00000000
0x00016768 0x00000000
0x0001676c 0x00000000
0x00016770 0x00000000
0x00016774 0x00000000
0x00016778 0x00000007
0x0001677c 0x00000000
0x00016780 0x00000005
0x00016784 0x00000000
0x00016788 0x00000000
0x0001678c 0x00000000
0x00016790 0x00000003
0x00016794 0x00000000
0x00016798 0x00000006
0x0001679c 0x00000000
0x000167a0 0x00000000
0x000167a4 0x00000000
0x000167a8 0x00000003
0x000167ac 0x00000000
0x000167b0 0x00000000
0x000167b4 0x00000000
0x000167b8 0x00000001
0x000167bc 0x00000000
0x000167c0 0x00000000
0x000167c4 0x00000000
0x000167c8 0x00000000
0x000167cc 0x00000000
0x000167d0 0x00000000
0x000167d4 0x00000000
0x000167d8 0x00000000
0x000167dc 0x00000000
0x000167e0 0x00000000
0x000167e4 0x00000000
0x000167e8 0x00000000
0x000167ec 0x00000000
0x000167f0 0x00000000
0x000167f4 0x00000000
0x000167f8 0x00000000
0x000167fc 0x00000000
0x00016800 0x00000000
0x00016804 0x00000000
0x00016808 0x00000000
0x0001680c 0x00000000
0x00016810 0x00000000
0x00016814 0x00000000
0x00016818 0x00000000
0x0001681c 0x00000000
0x00016820 0x00000003
0x00016824 0x00000000
0x00016828 0x0000007e
0x0001682c 0x00000000
0x00016830 0x0000007b
0x00016834 0x00000000
0x00016838 0x0000000c
0x0001683c 0x00000000
0x00016840 0x00000002
0x00016844 0x00000000
0x00016848 0x00000000
0x0001684c 0x00000000
0x00016850 0x00000001
0x00016854 0x00000000
0x00016858 0x00000000
0x0001685c 0x00000000
0x00016860 0x00000000
0x00016864 0x00000000
0x00016868 0x0000000e
0x0001686c 0x00000000
0x00016870 0x00000000
0x00016874 0x00000000
0x00016878 0x00000000
0x0001687c 0x00000000
0x00016880 0x00000004
0x00016884 0x00000000
0x00016888 0x00000000
0x0001688c 0x00000000
0x00016890 0x00000000
0x00016894 0x00000000
0x00016898 0x00000000
0x0001689c 0x00000000
0x000168a0 0x00000000
0x000168a4 0x00000000
0x000168a8 0x00000000
0x000168ac 0x00000000
0x000168b0 0x00000000
0x000168b4 0x00000000
0x000168b8 0x00000000
0x000168bc 0x00000000
0x000168c0 0x00000000
0x000168c4 0x00000000
0x000168c8 0x00000000
0x000168cc 0x00000000
0x000168d0 0x00000000
0x000168d4 0x00000000
0x000168d8 0x00000000
0x000168dc 0x00000000
0x000168e0 0x00000000
0x000168e4 0x00000000
0x000168e8 0x00000000
0x000168ec 0x00000000
0x000168f0 0x00000000
0x000168f4 0x00000000
0x000168f8 0x00000000
0x000168fc 0x00000000
0x00016900 0x00000000
0x00016904 0x00000000
0x00016908 0x0000007f
0x0001690c 0x00000000
0x00016910 0x0000007a
0x00016914 0x00000000
0x00016918 0x00000000
0x0001691c 0x00000000
0x00016920 0x00000000
0x00016924 0x00000000
0x00016928 0x00000000
0x0001692c 0x00000000
0x00016930 0x00000007
0x00016934 0x00000000
0x00016938 0x00000000
0x0001693c 0x00000000
0x00016940 0x00000002
0x00016944 0x00000000
0x00016948 0x00000000
0x0001694c 0x00000000
0x00016950 0x00000000
0x00016954 0x00000000
0x00016958 0x00000001
0x0001695c 0x00000000
0x00016960 0x00000001
0x00016964 0x00000000
0x00016968 0x00000000
0x0001696c 0x00000000
0x00016970 0x00000008
0x00016974 0x00000000
0x00016978 0x00000004
0x0001697c 0x00000000
0x00016980 0x00000000
0x00016984 0x00000000
0x00016988 0x00000000
0x0001698c 0x00000000
0x00016990 0x00000000
0x00016994 0x00000000
0x00016998 0x00000000
0x0001699c 0x00000000
0x000169a0 0x00000000
0x000169a4 0x00000000
0x000169a8 0x00000000
0x000169ac 0x00000000
0x000169b0 0x00000000
0x000169b4 0x00000000
0x000169b8 0x00000000
0x000169bc 0x00000000
0x000169c0 0x00000000
0x000169c4 0x00000000
0x000169c8 0x00000000
0x000169cc 0x00000000
0x000169d0 0x00000000
0x000169d4 0x00000000
0x000169d8 0x00000000
0x000169dc 0x00000000
0x000169e0 0x00000000
0x000169e4 0x00000000
0x000169e8 0x0000007b
0x000169ec 0x00000000
0x000169f0 0x0000007f
0x000169f4 0x00000000
0x000169f8 0x00000008
0x000169fc 0x00000000
0x00016a00 0x00000001
0x00016a04 0x00000000
0x00016a08 0x00000000
0x00016a0c 0x00000000
0x00016a10 0x00000000
0x00016a14 0x00000000
0x00016a18 0x00000000
0x00016a1c 0x00000000
0x00016a20 0x00000000
0x00016a24 0x00000000
0x00016a28 0x00000003
0x00016a2c 0x00000000
0x00016a30 0x0000000c
0x00016a34 0x00000000
0x00016a38 0x00000002
0x00016a3c 0x00000000
0x00016a40 0x00000000
0x00016a44 0x00000000
0x00016a48 0x00000003
0x00016a4c 0x00000000
0x00016a50 0x00000000
0x00016a54 0x00000000
0x00016a58 0x00000000
0x00016a5c 0x00000000
0x00016a60 0x00000000
0x00016a64 0x00000000
0x00016a68 0x00000000
0x00016a6c 0x00000000
0x00016a70 0x00000000
0x00016a74 0x00000000
0x00016a78 0x00000000
0x00016a7c 0x00000000
0x00016a80 0x00000000
0x00016a84 0x00000000
0x00016a88 0x00000000
0x00016a8c 0x00000000
0x00016a90 0x00000000
0x00016a94 0x00000000
0x00016a98 0x00000000
0x00016a9c 0x00000000
0x00016aa0 0x00000000
0x00016aa4 0x00000000
0x00016aa8 0x00000000
0x00016aac 0x00000000
0x00016ab0 0x00000000
0x00016ab4 0x00000000
0x00016ab8 0x00000000
0x00016abc 0x00000000
0x00016ac0 0x0000000a
0x00016ac4 0x00000000
0x00016ac8 0x00000079
0x00016acc 0x00000000
0x00016ad0 0x00000075
0x00016ad4 0x00000000
0x00016ad8 0x00000000
0x00016adc 0x00000000
0x00016ae0 0x00000000
0x00016ae4 0x00000000
0x00016ae8 0x00000000
0x00016aec 0x00000000
0x00016af0 0x0000007f
0x00016af4 0x00000000
0x00016af8 0x00000079
0x00016afc 0x00000000
0x00016b00 0x0000007f
0x00016b04 0x00000000
0x00016b08 0x00000022
0x00016b0c 0x00000000
0x00016b10 0x00000000
0x00016b14 0x00000000
0x00016b18 0x00000006
0x00016b1c 0x00000000
0x00016b20 0x00000000
0x00016b24 0x00000000
0x00016b28 0x00000000
0x00016b2c 0x00000000
0x00016b30 0x00000000
0x00016b34 0x00000000
0x00016b38 0x00000003
0x00016b3c 0x00000000
0x00016b40 0x00000000
0x00016b44 0x00000000
0x00016b48 0x00000000
0x00016b4c 0x00000000
0x00016b50 0x00000000
0x00016b54 0x00000000
0x00016b58 0x00000000
0x00016b5c 0x00000000
0x00016b60 0x00000000
0x00016b64 0x00000000
0x00016b68 0x00000000
0x00016b6c 0x00000000
0x00016b70 0x00000000
0x00016b74 0x00000000
0x00016b78 0x00000000
0x00016b7c 0x00000000
0x00016b80 0x00000000
0x00016b84 0x00000000
0x00016b88 0x00000000
0x00016b8c 0x00000000
0x00016b90 0x00000000
0x00016b94 0x00000000
0x00016b98 0x00000000
0x00016b9c 0x00000000
0x00016ba0 0x00000000
0x00016ba4 0x00000000
0x00016ba8 0x00000051
0x00016bac 0x00000000
0x00016bb0 0x0000007f
0x00016bb4 0x00000000
0x00016bb8 0x00000000
0x00016bbc 0x00000000
0x00016bc0 0x0000007f
0x00016bc4 0x00000000
0x00016bc8 0x0000007c
0x00016bcc 0x00000000
0x00016bd0 0x0000007f
0x00016bd4 0x00000000
0x00016bd8 0x0000004f
0x00016bdc 0x00000000
0x00016be0 0x0000007e
0x00016be4 0x00000000
0x00016be8 0x0000007f
0x00016bec 0x00000000
0x00016bf0 0x00000007
0x00016bf4 0x00000000
0x00016bf8 0x00000000
0x00016bfc 0x00000000
0x00016c00 0x00000009
0x00016c04 0x00000000
0x00016c08 0x00000002
0x00016c0c 0x00000000
0x00016c10 0x00000000
0x00016c14 0x00000000
0x00016c18 0x00000001
0x00016c1c 0x00000000
0x00016c20 0x00000000
0x00016c24 0x00000000
0x00016c28 0x00000000
0x00016c2c 0x00000000
0x00016c30 0x00000000
0x00016c34 0x00000000
0x00016c38 0x00000000
0x00016c3c 0x00000000
0x00016c40 0x00000000
0x00016c44 0x00000000
0x00016c48 0x00000000
0x00016c4c 0x00000000
0x00016c50 0x00000000
0x00016c54 0x00000000
0x00016c58 0x00000000
0x00016c5c 0x00000000
0x00016c60 0x00000000
0x00016c64 0x00000000
0x00016c68 0x00000000
0x00016c6c 0x00000000
0x00016c70 0x00000000
0x00016c74 0x00000000
0x00016c78 0x00000000
0x00016c7c 0x00000000
0x00016c80 0x00000000
0x00016c84 0x00000000
0x00016c88 0x00000000
0x00016c8c 0x00000000
0x00016c90 0x0000007f
0x00016c94 0x00000000
0x00016c98 0x0000007b
0x00016c9c 0x00000000
0x00016ca0 0x0000007f
0x00016ca4 0x00000000
0x00016ca8 0x00000008
0x00016cac 0x00000000
0x00016cb0 0x00000000
0x00016cb4 0x00000000
0x00016cb8 0x00000000
0x00016cbc 0x00000000
0x00016cc0 0x0000007f
0x00016cc4 0x00000000
0x00016cc8 0x0000007f
0x00016ccc 0x00000000
0x00016cd0 0x00000000
0x00016cd4 0x00000000
0x00016cd8 0x00000000
0x00016cdc 0x00000000
0x00016ce0 0x00000000
0x00016ce4 0x00000000
0x00016ce8 0x00000000
0x00016cec 0x00000000
0x00016cf0 0x00000008
0x00016cf4 0x00000000
0x00016cf8 0x00000000
0x00016cfc 0x00000000
0x00016d00 0x00000000
0x00016d04 0x00000000
0x00016d08 0x00000000
0x00016d0c 0x00000000
0x00016d10 0x00000000
0x00016d14 0x00000000
0x00016d18 0x00000000
0x00016d1c 0x00000000
0x00016d20 0x00000000
0x00016d24 0x00000000
0x00016d28 0x00000000
0x00016d2c 0x00000000
0x00016d30 0x00000000
0x00016d34 0x00000000
0x00016d38 0x00000000
0x00016d3c 0x00000000
0x00016d40 0x00000000
0x00016d44 0x00000000
0x00016d48 0x00000000
0x00016d4c 0x00000000
0x00016d50 0x00000000
0x00016d54 0x00000000
0x00016d58 0x00000000
0x00016d5c 0x00000000
0x00016d60 0x00000003
0x00016d64 0x00000000
0x00016d68 0x00000000
0x00016d6c 0x00000000
0x00016d70 0x00000000
0x00016d74 0x00000000
0x00016d78 0x00000005
0x00016d7c 0x00000000
0x00016d80 0x00000000
0x00016d84 0x00000000
0x00016d88 0x00000000
0x00016d8c 0x00000000
0x00016d90 0x00000005
0x00016d94 0x00000000
0x00016d98 0x00000000
0x00016d9c 0x00000000
0x00016da0 0x0000007d
0x00016da4 0x00000000
0x00016da8 0x0000007f
0x00016dac 0x00000000
0x00016db0 0x00000000
0x00016db4 0x00000000
0x00016db8 0x00000008
0x00016dbc 0x00000000
0x00016dc0 0x00000000
0x00016dc4 0x00000000
0x00016dc8 0x00000002
0x00016dcc 0x00000000
0x00016dd0 0x00000000
0x00016dd4 0x00000000
0x00016dd8 0x00000000
0x00016ddc 0x00000000
0x00016de0 0x00000000
0x00016de4 0x00000000
0x00016de8 0x00000000
0x00016dec 0x00000000
0x00016df0 0x00000000
0x00016df4 0x00000000
0x00016df8 0x00000000
0x00016dfc 0x00000000
0x00016e00 0x00000000
0x00016e04 0x00000000
0x00016e08 0x00000000
0x00016e0c 0x00000000
0x00016e10 0x00000000
0x00016e14 0x00000000
0x00016e18 0x00000000
0x00016e1c 0x00000000
0x00016e20 0x00000000
0x00016e24 0x00000000
0x00016e28 0x00000000
0x00016e2c 0x00000000
0x00016e30 0x00000000
0x00016e34 0x00000000
0x00016e38 0x00000000
0x00016e3c 0x00000000
0x00016e40 0x00000000
0x00016e44 0x00000000
0x00016e48 0x00000008
0x00016e4c 0x00000000
0x00016e50 0x00000000
0x00016e54 0x00000000
0x00016e58 0x00000000
0x00016e5c 0x00000000
0x00016e60 0x00000000
0x00016e64 0x00000000
0x00016e68 0x00000001
0x00016e6c 0x00000000
0x00016e70 0x00000000
0x00016e74 0x00000000
0x00016e78 0x00000001
0x00016e7c 0x00000000
0x00016e80 0x0000007f
0x00016e84 0x00000000
0x00016e88 0x00000077
0x00016e8c 0x00000000
0x00016e90 0x00000000
0x00016e94 0x00000000
0x00016e98 0x00000005
0x00016e9c 0x00000000
0x00016ea0 0x00000000
0x00016ea4 0x00000000
0x00016ea8 0x00000006
0x00016eac 0x00000000
0x00016eb0 0x00000002
0x00016eb4 0x00000000
0x00016eb8 0x00000000
0x00016ebc 0x00000000
0x00016ec0 0x00000000
0x00016ec4 0x00000000
0x00016ec8 0x00000000
0x00016ecc 0x00000000
0x00016ed0 0x00000000
0x00016ed4 0x00000000
0x00016ed8 0x00000000
0x00016edc 0x00000000
0x00016ee0 0x00000000
0x00016ee4 0x00000000
0x00016ee8 0x00000000
0x00016eec 0x00000000
0x00016ef0 0x00000000
0x00016ef4 0x00000000
0x00016ef8 0x00000000
0x00016efc 0x00000000
0x00016f00 0x00000000
0x00016f04 0x00000000
0x00016f08 0x00000000
0x00016f0c 0x00000000
0x00016f10 0x00000000
0x00016f14 0x00000000
0x00016f18 0x00000000
0x00016f1c 0x00000000
0x00016f20 0x00000000
0x00016f24 0x00000000
0x00016f28 0x00000000
0x00016f2c 0x00000000
0x00016f30 0x00000001
0x00016f34 0x00000000
0x00016f38 0x00000000
0x00016f3c 0x00000000
0x00016f40 0x00000003
0x00016f44 0x00000000
0x00016f48 0x00000003
0x00016f4c 0x00000000
0x00016f50 0x00000000
0x00016f54 0x00000000
0x00016f58 0x00000003
0x00016f5c 0x00000000
0x00016f60 0x00000072
0x00016f64 0x00000000
0x00016f68 0x0000007f
0x00016f6c 0x00000000
0x00016f70 0x00000000
0x00016f74 0x00000000
0x00016f78 0x00000000
0x00016f7c 0x00000000
0x00016f80 0x00000003
0x00016f84 0x00000000
0x00016f88 0x00000000
0x00016f8c 0x00000000
0x00016f90 0x00000000
0x00016f94 0x00000000
0x00016f98 0x00000003
0x00016f9c 0x00000000
0x00016fa0 0x00000000
0x00016fa4 0x00000000
0x00016fa8 0x00000000
0x00016fac 0x00000000
0x00016fb0 0x00000000
0x00016fb4 0x00000000
0x00016fb8 0x00000000
0x00016fbc 0x00000000
0x00016fc0 0x00000000
0x00016fc4 0x00000000
0x00016fc8 0x00000000
0x00016fcc 0x00000000
0x00016fd0 0x00000000
0x00016fd4 0x00000000
0x00016fd8 0x00000000
0x00016fdc 0x00000000
0x00016fe0 0x00000000
0x00016fe4 0x00000000
0x00016fe8 0x00000000
0x00016fec 0x00000000
0x00016ff0 0x00000000
0x00016ff4 0x00000000
0x00016ff8 0x00000000
0x00016ffc 0x00000000
0x00017000 0x00000000
0x00017004 0x00000000
0x00017008 0x00000010
0x0001700c 0x00000000
0x00017010 0x00000000
0x00017014 0x00000000
0x00017018 0x00000004
0x0001701c 0x00000000
0x00017020 0x00000000
0x00017024 0x00000000
0x00017028 0x00000000
0x0001702c 0x00000000
0x00017030 0x00000005
0x00017034 0x00000000
0x00017038 0x00000000
0x0001703c 0x00000000
0x00017040 0x0000007f
0x00017044 0x00000000
0x00017048 0x0000007f
0x0001704c 0x00000000
0x00017050 0x00000005
0x00017054 0x00000000
0x00017058 0x00000000
0x0001705c 0x00000000
0x00017060 0x00000000
0x00017064 0x00000000
0x00017068 0x00000000
0x0001706c 0x00000000
0x00017070 0x00000000
0x00017074 0x00000000
0x00017078 0x00000000
0x0001707c 0x00000000
0x00017080 0x00000000
0x00017084 0x00000000
0x00017088 0x00000000
0x0001708c 0x00000000
0x00017090 0x00000000
0x00017094 0x00000000
0x00017098 0x00000000
0x0001709c 0x00000000
0x000170a0 0x00000000
0x000170a4 0x00000000
0x000170a8 0x00000000
0x000170ac 0x00000000
0x000170b0 0x00000000
0x000170b4 0x00000000
0x000170b8 0x00000000
0x000170bc 0x00000000
0x000170c0 0x00000000
0x000170c4 0x00000000
0x000170c8 0x00000000
0x000170cc 0x00000000
0x000170d0 0x00000000
0x000170d4 0x00000000
0x000170d8 0x00000000
0x000170dc 0x00000000
0x000170e0 0x00000002
0x000170e4 0x00000000
0x000170e8 0x00000000
0x000170ec 0x00000000
0x000170f0 0x00000009
0x000170f4 0x00000000
0x000170f8 0x00000000
0x000170fc 0x00000000
0x00017100 0x00000003
0x00017104 0x00000000
0x00017108 0x00000000
0x0001710c 0x00000000
0x00017110 0x00000001
0x00017114 0x00000000
0x00017118 0x00000066
0x0001711c 0x00000000
0x00017120 0x0000007d
0x00017124 0x00000000
0x00017128 0x0000006d
0x0001712c 0x00000000
0x00017130 0x00000000
0x00017134 0x00000000
0x00017138 0x00000000
0x0001713c 0x00000000
0x00017140 0x0000000a
0x00017144 0x00000000
0x00017148 0x00000000
0x0001714c 0x00000000
0x00017150 0x00000004
0x00017154 0x00000000
0x00017158 0x00000000
0x0001715c 0x00000000
0x00017160 0x00000000
0x00017164 0x00000000
0x00017168 0x00000000
0x0001716c 0x00000000
0x00017170 0x00000000
0x00017174 0x00000000
0x00017178 0x00000000
0x0001717c 0x00000000
0x00017180 0x00000000
0x00017184 0x00000000
0x00017188 0x00000000
0x0001718c 0x00000000
0x00017190 0x00000000
0x00017194 0x00000000
0x00017198 0x00000000
0x0001719c 0x00000000
0x000171a0 0x00000000
0x000171a4 0x00000000
0x000171a8 0x00000000
0x000171ac 0x00000000
0x000171b0 0x00000000
0x000171b4 0x00000000
0x000171b8 0x00000000
0x000171bc 0x00000000
0x000171c0 0x00000000
0x000171c4 0x00000000
0x000171c8 0x00000000
0x000171cc 0x00000000
0x000171d0 0x00000004
0x000171d4 0x00000000
0x000171d8 0x00000005
0x000171dc 0x00000000
0x000171e0 0x00000000
0x000171e4 0x00000000
0x000171e8 0x00000002
0x000171ec 0x00000000
0x000171f0 0x00000000
0x000171f4 0x00000000
0x000171f8 0x0000007f
0x000171fc 0x00000000
0x00017200 0x0000007c
0x00017204 0x00000000
0x00017208 0x00000005
0x0001720c 0x00000000
0x00017210 0x00000009
0x00017214 0x00000000
0x00017218 0x00000000
0x0001721c 0x00000000
0x00017220 0x00000000
0x00017224 0x00000000
0x00017228 0x00000003
0x0001722c 0x00000000
0x00017230 0x00000001
0x00017234 0x00000000
0x00017238 0x00000000
0x0001723c 0x00000000
0x00017240 0x00000000
0x00017244 0x00000000
0x00017248 0x00000000
0x0001724c 0x00000000
0x00017250 0x00000000
0x00017254 0x00000000
0x00017258 0x00000000
0x0001725c 0x00000000
0x00017260 0x00000000
0x00017264 0x00000000
0x00017268 0x00000000
0x0001726c 0x00000000
0x00017270 0x00000000
0x00017274 0x00000000
0x00017278 0x00000000
0x0001727c 0x00000000
0x00017280 0x00000000
0x00017284 0x00000000
0x00017288 0x00000000
0x0001728c 0x00000000
0x00017290 0x00000000
0x00017294 0x00000000
0x00017298 0x00000000
0x0001729c 0x00000000
0x000172a0 0x00000006
0x000172a4 0x00000000
0x000172a8 0x00000002
0x000172ac 0x00000000
0x000172b0 0x00000001
0x000172b4 0x00000000
0x000172b8 0x00000000
0x000172bc 0x00000000
0x000172c0 0x00000006
0x000172c4 0x00000000
0x000172c8 0x00000007
0x000172cc 0x00000000
0x000172d0 0x00000007
0x000172d4 0x00000000
0x000172d8 0x0000007f
0x000172dc 0x00000000
0x000172e0 0x0000007f
0x000172e4 0x00000000
0x000172e8 0x00000000
0x000172ec 0x00000000
0x000172f0 0x00000000
0x000172f4 0x00000000
0x000172f8 0x00000000
0x000172fc 0x00000000
0x00017300 0x00000008
0x00017304 0x00000000
0x00017308 0x00000000
0x0001730c 0x00000000
0x00017310 0x00000000
0x00017314 0x00000000
0x00017318 0x00000002
0x0001731c 0x00000000
0x00017320 0x00000000
0x00017324 0x00000000
0x00017328 0x00000000
0x0001732c 0x00000000
0x00017330 0x00000000
0x00017334 0x00000000
0x00017338 0x00000000
0x0001733c 0x00000000
0x00017340 0x00000000
0x00017344 0x00000000
0x00017348 0x00000000
0x0001734c 0x00000000
0x00017350 0x00000000
0x00017354 0x00000000
0x00017358 0x00000000
0x0001735c 0x00000000
0x00017360 0x00000000
0x00017364 0x00000000
0x00017368 0x00000000
0x0001736c 0x00000000
0x00017370 0x00000000
0x00017374 0x00000000
0x00017378 0x00000000
0x0001737c 0x00000000
0x00017380 0x00000022
0x00017384 0x00000000
0x00017388 0x00000000
0x0001738c 0x00000000
0x00017390 0x00000000
0x00017394 0x00000000
0x00017398 0x00000000
0x0001739c 0x00000000
0x000173a0 0x0000000e
0x000173a4 0x00000000
0x000173a8 0x00000000
0x000173ac 0x00000000
0x000173b0 0x00000075
0x000173b4 0x00000000
0x000173b8 0x0000007f
0x000173bc 0x00000000
0x000173c0 0x0000006b
0x000173c4 0x00000000
0x000173c8 0x00000000
0x000173cc 0x00000000
0x000173d0 0x00000004
0x000173d4 0x00000000
0x000173d8 0x00000002
0x000173dc 0x00000000
0x000173e0 0x00000000
0x000173e4 0x00000000
0x000173e8 0x00000002
0x000173ec 0x00000000
0x000173f0 0x00000000
0x000173f4 0x00000000
0x000173f8 0x00000000
0x000173fc 0x00000000
0x00017400 0x00000000
0x00017404 0x00000000
0x00017408 0x00000000
0x0001740c 0x00000000
0x00017410 0x00000000
0x00017414 0x00000000
0x00017418 0x00000000
0x0001741c 0x00000000
0x00017420 0x00000000
0x00017424 0x00000000
0x00017428 0x00000000
0x0001742c 0x00000000
0x00017430 0x00000000
0x00017434 0x00000000
0x00017438 0x00000000
0x0001743c 0x00000000
0x00017440 0x00000000
0x00017444 0x00000000
0x00017448 0x00000000
0x0001744c 0x00000000
0x00017450 0x00000000
0x00017454 0x00000000
0x00017458 0x00000000
0x0001745c 0x00000000
0x00017460 0x00000057
0x00017464 0x00000000
0x00017468 0x0000007f
0x0001746c 0x00000000
0x00017470 0x0000003d
0x00017474 0x00000000
0x00017478 0x00000003
0x0001747c 0x00000000
0x00017480 0x0000003c
0x00017484 0x00000000
0x00017488 0x0000007f
0x0001748c 0x00000000
0x00017490 0x0000007f
0x00017494 0x00000000
0x00017498 0x0000007d
0x0001749c 0x00000000
0x000174a0 0x00000001
0x000174a4 0x00000000
0x000174a8 0x00000002
0x000174ac 0x00000000
0x000174b0 0x00000000
0x000174b4 0x00000000
0x000174b8 0x00000000
0x000174bc 0x00000000
0x000174c0 0x00000000
0x000174c4 0x00000000
0x000174c8 0x00000000
0x000174cc 0x00000000
0x000174d0 0x00000004
0x000174d4 0x00000000
0x000174d8 0x00000001
0x000174dc 0x00000000
0x000174e0 0x00000000
0x000174e4 0x00000000
0x000174e8 0x00000000
0x000174ec 0x00000000
0x000174f0 0x00000000
0x000174f4 0x00000000
0x000174f8 0x00000000
0x000174fc 0x00000000
0x00017500 0x00000000
0x00017504 0x00000000
0x00017508 0x00000000
0x0001750c 0x00000000
0x00017510 0x00000000
0x00017514 0x00000000
0x00017518 0x00000000
0x0001751c 0x00000000
0x00017520 0x00000000
0x00017524 0x00000000
0x00017528 0x00000000
0x0001752c 0x00000000
0x00017530 0x00000000
0x00017534 0x00000000
0x00017538 0x00000000
0x0001753c 0x00000000
0x00017540 0x00000000
0x00017544 0x00000000
0x00017548 0x00000040
0x0001754c 0x00000000
0x00017550 0x0000007f
0x00017554 0x00000000
0x00017558 0x0000007f
0x0001755c 0x00000000
0x00017560 0x00000079
0x00017564 0x00000000
0x00017568 0x0000007f
0x0001756c 0x00000000
0x00017570 0x0000005b
0x00017574 0x00000000
0x00017578 0x00000002
0x0001757c 0x00000000
0x00017580 0x00000000
0x00017584 0x00000000
0x00017588 0x00000000
0x0001758c 0x00000000
0x00017590 0x00000000
0x00017594 0x00000000
0x00017598 0x00000000
0x0001759c 0x00000000
0x000175a0 0x00000000
0x000175a4 0x00000000
0x000175a8 0x00000000
0x000175ac 0x00000000
0x000175b0 0x00000000
0x000175b4 0x00000000
0x000175b8 0x00000000
0x000175bc 0x00000000
0x000175c0 0x00000000
0x000175c4 0x00000000
0x000175c8 0x00000000
0x000175cc 0x00000000
0x000175d0 0x00000000
0x000175d4 0x00000000
0x000175d8 0x00000000
0x000175dc 0x00000000
0x000175e0 0x00000000
0x000175e4 0x00000000
0x000175e8 0x00000000
0x000175ec 0x00000000
0x000175f0 0x00000000
0x000175f4 0x00000000
0x000175f8 0x00000000
0x000175fc 0x00000000
0x00017600 0x00000000
0x00017604 0x00000000
0x00017608 0x00000000
0x0001760c 0x00000000
0x00017610 0x00000000
0x00017614 0x00000000
0x00017618 0x00000000
0x0001761c 0x00000000
0x00017620 0x00000000
0x00017624 0x00000000
0x00017628 0x00000000
0x0001762c 0x00000000
0x00017630 0x00000001
0x00017634 0x00000000
0x00017638 0x00000002
0x0001763c 0x00000000
0x00017640 0x00000000
0x00017644 0x00000000
0x00017648 0x00000000
0x0001764c 0x00000000
0x00017650 0x00000009
0x00017654 0x00000000
0x00017658 0x00000000
0x0001765c 0x00000000
0x00017660 0x00000000
0x00017664 0x00000000
0x00017668 0x00000000
0x0001766c 0x00000000
0x00017670 0x00000000
0x00017674 0x00000000
0x00017678 0x00000000
0x0001767c 0x00000000
0x00017680 0x00000000
0x00017684 0x00000000
0x00017688 0x00000000
0x0001768c 0x00000000
0x00017690 0x00000000
0x00017694 0x00000000
0x00017698 0x00000000
0x0001769c 0x00000000
0x000176a0 0x00000000
0x000176a4 0x00000000
0x000176a8 0x00000000
0x000176ac 0x00000000
0x000176b0 0x00000000
0x000176b4 0x00000000
0x000176b8 0x00000000
0x000176bc 0x00000000
0x000176c0 0x00000000
0x000176c4 0x00000000
0x000176c8 0x00000000
0x000176cc 0x00000000
0x000176d0 0x00000000
0x000176d4 0x00000000
0x000176d8 0x00000000
0x000176dc 0x00000000
0x000176e0 0x00000000
0x000176e4 0x00000000
0x000176e8 0x00000000
0x000176ec 0x00000000
0x000176f0 0x00000000
0x000176f4 0x00000000
0x000176f8 0x00000000
0x000176fc 0x00000000
0x00017700 0x00000004
0x00017704 0x00000000
0x00017708 0x00000000
0x0001770c 0x00000000
0x00017710 0x00000000
0x00017714 0x00000000
0x00017718 0x00000006
0x0001771c 0x00000000
0x00017720 0x00000002
0x00017724 0x00000000
0x00017728 0x00000000
0x0001772c 0x00000000
0x00017730 0x00000000
0x00017734 0x00000000
0x00017738 0x00000000
0x0001773c 0x00000000
0x00017740 0x00000000
0x00017744 0x00000000
0x00017748 0x00000000
0x0001774c 0x00000000
0x00017750 0x00000000
0x00017754 0x00000000
0x00017758 0x00000000
0x0001775c 0x00000000
0x00017760 0x00000000
0x00017764 0x00000000
0x00017768 0x00000000
0x0001776c 0x00000000
0x00017770 0x00000000
0x00017774 0x00000000
0x00017778 0x00000000
0x0001777c 0x00000000
0x00017780 0x00000000
0x00017784 0x00000000
0x00017788 0x00000000
0x0001778c 0x00000000
0x00017790 0x00000000
0x00017794 0x00000000
0x00017798 0x00000000
0x0001779c 0x00000000
0x000177a0 0x00000000
0x000177a4 0x00000000
0x000177a8 0x00000000
0x000177ac 0x00000000
0x000177b0 0x00000000
0x000177b4 0x00000000
0x000177b8 0x00000000
0x000177bc 0x00000000
0x000177c0 0x00000000
0x000177c4 0x00000000
0x000177c8 0x00000000
0x000177cc 0x00000000
0x000177d0 0x00000000
0x000177d4 0x00000000
0x000177d8 0x00000000
0x000177dc 0x00000000
0x000177e0 0x00000001
0x000177e4 0x00000000
0x000177e8 0x00000003
0x000177ec 0x00000000
0x000177f0 0x00000001
0x000177f4 0x00000000
0x000177f8 0x00000000
0x000177fc 0x00000000
0x00017800 0x00000000
0x00017804 0x00000000
0x00017808 0x00000001
0x0001780c 0x00000000
0x00017810 0x00000001
0x00017814 0x00000000
0x00017818 0x00000002
0x0001781c 0x00000000
0x00017820 0x00000000
0x00017824 0x00000000
0x00017828 0x00000000
0x0001782c 0x00000000
0x00017830 0x00000000
0x00017834 0x00000000
0x00017838 0x00000000
0x0001783c 0x00000000
0x00017840 0x00000000
0x00017844 0x00000000
0x00017848 0x00000000
0x0001784c 0x00000000
0x00017850 0x00000000
0x00017854 0x00000000
0x00017858 0x00000000
0x0001785c 0x00000000
0x00017860 0x00000000
0x00017864 0x00000000
0x00017868 0x00000000
0x0001786c 0x00000000
0x00017870 0x00000000
0x00017874 0x00000000
0x00017878 0x00000000
0x0001787c 0x00000000
0x00008000 0xfdf7fff2
0x00008004 0xf4f10102
0x00008008 0xfdf7fff2
0x0000800c 0xf4f10102
0x00008010 0xfdf7fff2
0x00008014 0xf4f10102
0x00008018 0xfdf7fff2
0x0000801c 0xf4f10102
0x00008020 0xfdf6fef3
0x00008024 0xf3f10002
0x00008028 0xfcf7fff2
0x0000802c 0xf3f30001
0x00008030 0xfef6fdf3
0x00008034 0xf5f3fe04
0x00008038 0xfdf800f4
0x0000803c 0xf6f00202
0x00008040 0xfef9fff3
0x00008044 0xf6f20004
0x00008048 0xfff9fff1
0x0000804c 0xf7f00304
0x00008050 0xf9fa00f5
0x00008054 0xf6f50004
0x00008058 0xfff700f4
0x0000805c 0xf6f30003
0x00008060 0xfcf5fef5
0x00008064 0xf3f1ff02
0x00008068 0xfcf901f3
0x0000806c 0xf8f4ff02
0x00008070 0xfdf7fef2
0x00008074 0xf6efff01
0x00008078 0xfdf901f5
0x0000807c 0xf6f10201
0x00008080 0xfef9fef3
0x00008084 0xf5f20003
0x00008088 0xfdf6fef3
0x0000808c 0xf5ef0102
0x00008090 0xfdf801f3
0x00008094 0xf5f10001
0x00008098 0xfdf8fff4
0x0000809c 0xf4f10102
0x000080a0 0xfef7fff3
0x000080a4 0xf5f10103
0x000080a8 0xfdf700f3
0x000080ac 0xf5f10103
0x000080b0 0xfdf700f3
0x000080b4 0xf5f10102
0x000080b8 0xfdf7fff2
0x000080bc 0xf5f10002
0x000080c0 0xfdf7fff2
0x000080c4 0xf4f10102
0x000080c8 0xfdf7fff2
0x000080cc 0xf4f10102
0x00103000 0xff8afec3
0x00103004 0x01180071
0x000080d0 0xfdf7fff2
0x000080d4 0xf4f10102
0x00103008 0x0012005a
0x0010300c 0x00600024
0x000080d8 0xfdf7fff2
0x000080dc 0xf4f10102
0x00103010 0x0050ff28
0x00103014 0x002a0030
0x000080e0 0xfcf9fff3
0x000080e4 0xf5f3ff03
0x00103018 0x000effca
0x0010301c 0xffb80056
0x000080e8 0xfef9fdf5
0x000080ec 0xf6f20003
0x00103020 0x0023fffd
0x00103024 0x0060ff8f
0x000080f0 0xfbf9fff3
0x000080f4 0xf5f00203
0x00103028 0x000a0061
0x0010302c 0x00170045
0x000080f8 0xfaf900f6
0x000080fc 0xf4f20402
0x00103030 0x002cff9b
0x00103034 0xffb00102
0x00008100 0xfef900f2
0x00008104 0xf5f2ff03
0x00103038 0xffd70092
0x0010303c 0x0102008c
0x00008108 0xfaf6fff5
0x0000810c 0xf3f20001
0x00103040 0x009f003f
0x00103044 0x004eff71
0x00008110 0xf311fdfc
0x00008114 0xf807f809
0x00103048 0xffac0003
0x0010304c 0x0091ff73
0x00008118 0x0823e7ff
0x0000811c 0x031ce729
0x00103050 0x00f00004
0x00103054 0xffa2ffdb
0x00008120 0x0821ebf5
0x00008124 0x0b0e0042
0x00103058 0x0071ffb9
0x0010305c 0x007bfff2
0x00008128 0xf82dfefa
0x0000812c 0x1d200f52
0x00103060 0x005affad
0x00103064 0xff820049
0x00008130 0xf337f5e4
0x00008134 0x29220855
0x00103068 0x0070fff5
0x0010306c 0xfffaffce
0x00008138 0xf724f8dd
0x0000813c 0x29140d50
0x00103070 0x00fe006a
0x00103074 0xff27ff65
0x00008140 0xef1208db
0x00008144 0x23011737
0x00103078 0xff3f0021
0x0010307c 0x0059007c
0x00008148 0xe80d09e0
0x0000814c 0x17fe101c
0x00103080 0x00cb006d
0x00103084 0x00c7fffe
0x00008150 0xf508fde0
0x00008154 0x0bfbfe0d
0x00103088 0x008cffb5
0x0010308c 0x00c5ffe0
0x00008158 0xfdfbf9eb
0x0000815c 0xfbf2fd05
0x00103090 0xffda001e
0x00103094 0x0037015e
0x00008160 0xfdf7fff2
0x00008164 0xf5f00203
0x00103098 0x00a9fffe
0x0010309c 0xff8e0042
0x00008168 0xfdf800f3
0x0000816c 0xf5f10103
0x001030a0 0x00480091
0x001030a4 0xff690039
0x00008170 0xfef7fff2
0x00008174 0xf5f10003
0x001030a8 0x00deffaa
0x001030ac 0xffc6ffa2
0x00008178 0xfdf7fff2
0x0000817c 0xf5f10002
0x001030b0 0x0045ffbd
0x001030b4 0x00800052
0x00008180 0xfdf7fff2
0x00008184 0xf4f10102
0x001030b8 0xff45ff99
0x001030bc 0xff01ffc5
0x00008188 0xfdf7fff2
0x0000818c 0xf4f10102
0x001030c0 0xffba003a
0x001030c4 0x003b00be
0x00008190 0xfdf7fff2
0x00008194 0xf4f10102
0x001030c8 0x0019ffe5
0x001030cc 0x00d0ffdd
0x00008198 0xfdf7fff2
0x0000819c 0xf4f10102
0x001030d0 0xffa50163
0x001030d4 0xffe5fff5
0x000081a0 0xfcf8fff3
0x000081a4 0xf4f00200
0x001030d8 0x004f0058
0x001030dc 0x00210039
0x000081a8 0xfaf6fef4
0x000081ac 0xf2f30001
0x001030e0 0x0013ffa3
0x001030e4 0xffa5ffcd
0x000081b0 0xfef801f4
0x000081b4 0xf2f40103
0x001030e8 0x0082ffda
0x001030ec 0x000fffdc
0x000081b8 0xfcf6fdf7
0x000081bc 0xf6f4fd04
0x001030f0 0xffa4ffbf
0x001030f4 0x001f003d
0x000081c0 0xf515fbfc
0x000081c4 0xfc0af50e
0x001030f8 0xffb9003b
0x001030fc 0x00c7ffae
0x000081c8 0x0925e5fd
0x000081cc 0x041ce92f
0x00103100 0x0074ffdc
0x00103104 0x00170038
0x000081d0 0xf932e105
0x000081d4 0x120a1437
0x00103108 0xff9d0044
0x0010310c 0xfff7004c
0x000081d8 0xd764f610
0x000081dc 0x1e252646
0x00103110 0x00c800d3
0x00103114 0x0004000d
0x000081e0 0xe367f80a
0x000081e4 0x161c3b5b
0x00103118 0xffeeffdb
0x0010311c 0xff1fffab
0x000081e8 0xf64c161a
0x000081ec 0x180c4760
0x00103120 0x00c5ffce
0x00103124 0xfff0ffb9
0x000081f0 0xda433126
0x000081f4 0x2811463f
0x00103128 0x0049ffdf
0x0010312c 0xff6100b3
0x000081f8 0xe32e341c
0x000081fc 0x170d2e2f
0x00103130 0xffa2ff85
0x00103134 0xff520046
0x00008200 0xfc0f2d17
0x00008204 0x0b081626
0x00103138 0x006d00fa
0x0010313c 0x004b0052
0x00008208 0xfdf72211
0x0000820c 0x0cfe0610
0x00103140 0xff48fff9
0x00103144 0x00590016
0x00008210 0xf0f81704
0x00008214 0x0bfdfefd
0x00103148 0xff98002e
0x0010314c 0x0028ff7e
0x00008218 0xf3fd06f8
0x0000821c 0xfcf9fefe
0x00103150 0x0041009a
0x00103154 0x000600df
0x00008220 0xfff8fef2
0x00008224 0xf5f10004
0x00103158 0xff91006d
0x0010315c 0x002effc4
0x00008228 0xfef600f3
0x0000822c 0xf5ef0103
0x00103160 0x0052005f
0x00103164 0xff2f00b5
0x00008230 0xfbf801f3
0x00008234 0xf6f20102
0x00103168 0x0009ff48
0x0010316c 0x0034ff90
0x00008238 0xfef8fff1
0x0000823c 0xf5f10002
0x00103170 0x00a4006d
0x00103174 0xff5c0062
0x00008240 0xfdf7fff2
0x00008244 0xf4f10102
0x00103178 0x015b0019
0x0010317c 0xffea00da
0x00008248 0xfdf7fff2
0x0000824c 0xf4f10102
0x00103180 0x00760029
0x00103184 0x00bc0072
0x00008250 0xfdf7fff2
0x00008254 0xf4f10102
0x00103188 0xffedffbb
0x0010318c 0x005aff92
0x00008258 0xfdf7fff2
0x0000825c 0xf4f10102
0x00103190 0x0054ff77
0x00103194 0x00da0088
0x00008260 0xfcf5fef3
0x00008264 0xf2f20002
0x00103198 0x00bf0010
0x0010319c 0x000effe2
0x00008268 0xfcf800f3
0x0000826c 0xf5f5fe03
0x001031a0 0xff0f00dc
0x001031a4 0x00acffe0
0x00008270 0xf10ef8fc
0x00008274 0xfb03f809
0x001031a8 0x0002ff6d
0x001031ac 0xffa00019
0x00008278 0x062ce503
0x0000827c 0x001ce925
0x001031b0 0xff9f00be
0x001031b4 0x001fff7b
0x00008280 0xf935dd04
0x00008284 0x12091238
0x001031b8 0xffa2009a
0x001031bc 0x00c4ffa8
0x00008288 0xde59fc14
0x0000828c 0x171c2e43
0x001031c0 0x0038fff2
0x001031c4 0xffa7ffc2
0x00008290 0xd039f514
0x00008294 0xf91e3f4c
0x001031c8 0x004400f6
0x001031cc 0xff96ffbd
0x00008298 0xda291a28
0x0000829c 0xeb2f3644
0x001031d0 0xfff7ffdf
0x001031d4 0xfffcff21
0x000082a0 0xce190939
0x000082a4 0xf4281021
0x001031d8 0x001efff5
0x001031dc 0x00ee006a
0x000082a8 0xef0e0a3e
0x000082ac 0xe5100710
0x001031e0 0x00290014
0x001031e4 0x011affef
0x000082b0 0x04000741
0x000082b4 0xec1afb15
0x001031e8 0xfffbff7d
0x001031ec 0x00e40143
0x000082b8 0x0505042a
0x000082bc 0x090cf206
0x001031f0 0x001dfff4
0x001031f4 0x0063ff65
0x000082c0 0x060ffb17
0x000082c4 0x17f2f9fa
0x001031f8 0xff96ffd7
0x001031fc 0x00f40038
0x000082c8 0x0914fa08
0x000082cc 0x0af104fe
0x00103200 0xffe6005c
0x00103204 0x00b8ffc7
0x000082d0 0x0b09f9f9
0x000082d4 0x01fd010e
0x00103208 0xffe40021
0x0010320c 0x001aff6a
0x000082d8 0x01fbfdf4
0x000082dc 0xfcf80008
0x00103210 0xfff50046
0x00103214 0xffaf004a
0x000082e0 0xfbf700f4
0x000082e4 0xf6f10101
0x00103218 0x0041ff07
0x0010321c 0x0084001e
0x000082e8 0xfff900f3
0x000082ec 0xf4f00203
0x00103220 0xffd7fff3
0x00103224 0x00b0ffd6
0x000082f0 0xfff6fff2
0x000082f4 0xf6f00003
0x00103228 0xffd0ffde
0x0010322c 0x0047002a
0x000082f8 0xfdf701f2
0x000082fc 0xf6f10001
0x00103230 0xffa50002
0x00103234 0x002e0101
0x00008300 0xfdf7fff2
0x00008304 0xf4f10102
0x00103238 0x004b007a
0x0010323c 0xff8e004c
0x00008308 0xfdf7fff2
0x0000830c 0xf4f10102
0x00103240 0xffc00043
0x00103244 0xffa8ff70
0x00008310 0xfdf7fff2
0x00008314 0xf4f10102
0x00103248 0xffa7ff66
0x0010324c 0x0091ff57
0x00008318 0xfdf7fff2
0x0000831c 0xf4f10102
0x00103250 0x00750039
0x00103254 0xffcb0011
0x00008320 0xfbf7fff3
0x00008324 0xf6f3ff02
0x00103258 0xff5f0027
0x0010325c 0x001fffd7
0x00008328 0xf10dfbfb
0x0000832c 0xf906f908
0x00103260 0xff98ff43
0x00103264 0xffcc006b
0x00008330 0xfb3ada12
0x00008334 0x0219f71a
0x00103268 0x009aff99
0x0010326c 0x00240037
0x00008338 0xed3ce107
0x0000833c 0x09071c31
0x00103270 0x00230014
0x00103274 0x00400054
0x00008340 0xcf2b0427
0x00008344 0xdf19483e
0x00103278 0xffd4fffe
0x0010327c 0xfff5ffe0
0x00008348 0xe0231823
0x0000834c 0xe5302b45
0x00103280 0x0036ff52
0x00103284 0xfeffff6f
0x00008350 0xce030e33
0x00008354 0x063bef20
0x00103288 0xffbeff9d
0x0010328c 0xfff1ff6a
0x00008358 0xe5de0d5c
0x0000835c 0x182be7f9
0x00103290 0xff89ff30
0x00103294 0x0064fedb
0x00008360 0xdbffeb6b
0x00008364 0x1c28c8d6
0x00103298 0x0011ffbc
0x0010329c 0xffe2ff7e
0x00008368 0xca03ca3f
0x0000836c 0x31f7cab9
0x001032a0 0xff0dfff3
0x001032a4 0x003d0068
0x00008370 0xe917e135
0x00008374 0x20e4c6af
0x001032a8 0x0020fffb
0x001032ac 0xffc0003c
0x00008378 0xf214e423
0x0000837c 0x0edfd0b9
0x001032b0 0xffa90095
0x001032b4 0xffbeffe1
0x00008380 0xf615e703
0x00008384 0xf3dcd4c8
0x001032b8 0xffd2ffe4
0x001032bc 0xff6efff4
0x00008388 0xf808f8ea
0x0000838c 0xf0dcdfd8
0x001032c0 0x0015ff98
0x001032c4 0xff6f006e
0x00008390 0x04030ded
0x00008394 0xefebe9eb
0x001032c8 0x006300cf
0x001032cc 0xffb4fffe
0x00008398 0x03fb07f4
0x0000839c 0xeef2f9fc
0x001032d0 0x002200ea
0x001032d4 0xffc8ffd0
0x000083a0 0xfef8fff4
0x000083a4 0xf4f3ff03
0x001032d8 0x008600cb
0x001032dc 0xff9d0044
0x000083a8 0xfcf6fef2
0x000083ac 0xf7ef0000
0x001032e0 0x0087002a
0x001032e4 0x000fffb3
0x000083b0 0xfef801f3
0x000083b4 0xf4f00001
0x001032e8 0xffe40024
0x001032ec 0xffe8006a
0x000083b8 0xfef8fff2
0x000083bc 0xf6f20003
0x001032f0 0xff7a0077
0x001032f4 0x001eff96
0x000083c0 0xfdf7fff2
0x000083c4 0xf4f10102
0x001032f8 0xffb50016
0x001032fc 0x0083003e
0x000083c8 0xfdf7fff2
0x000083cc 0xf4f10102
0x00103300 0xffaeffde
0x00103304 0x0082ffb5
0x000083d0 0xfdf7fff2
0x000083d4 0xf4f10102
0x00103308 0xffc700e4
0x0010330c 0xff8f0018
0x000083d8 0xfdf7fff2
0x000083dc 0xf4f10102
0x00103310 0x001dff7d
0x00103314 0xff99fffe
0x000083e0 0xfdf6fff2
0x000083e4 0xf3f20100
0x00103318 0xffec0014
0x0010331c 0xffb1ffcc
0x000083e8 0xe524f00c
0x000083ec 0xfe0308fd
0x00103320 0xff82ff4f
0x00103324 0xff4bffb0
0x000083f0 0xd83ecd25
0x000083f4 0xe934fb1a
0x00103328 0xff49ffe1
0x0010332c 0x01090007
0x000083f8 0xf623ed16
0x000083fc 0xc6311552
0x00103330 0x00d9006f
0x00103334 0xff7a005c
0x00008400 0xdfed1138
0x00008404 0xfc2c174d
0x00103338 0x005effa3
0x0010333c 0x0082ffec
0x00008408 0xd3f81e52
0x0000840c 0x3b31f101
0x00103340 0xffe9003b
0x00103344 0xffc00029
0x00008410 0xd704ed3e
0x00008414 0x3712d2ba
0x00103348 0xff390063
0x0010334c 0x0036ffe4
0x00008418 0xbfe6d834
0x0000841c 0x36fdd18e
0x00103350 0xfff60034
0x00103354 0xff950122
0x00008420 0xe4e10937
0x00008424 0x2203c380
0x00103358 0xff1dffc0
0x0010335c 0x0026002a
0x00008428 0xf7c30b16
0x0000842c 0xf6e3b780
0x00103360 0xffdbff38
0x00103364 0xfff300e7
0x00008430 0x18c420ec
0x00008434 0xfbdbbb8f
0x00103368 0xff6fffa4
0x0010336c 0x00860030
0x00008438 0x24cf32e3
0x0000843c 0x04e0c3b2
0x00103370 0x004e0052
0x00103374 0x000bff84
0x00008440 0x30e035e7
0x00008444 0x06e5d5da
0x00103378 0xffbfffec
0x0010337c 0x011affe3
0x00008448 0x2fe91ddd
0x0000844c 0xfae1e8fb
0x00103380 0x002a00ba
0x00103384 0x006c008a
0x00008450 0x1cf50edd
0x00008454 0x00eef70c
0x00103388 0x00b20018
0x0010338c 0x00d9ff62
0x00008458 0x04f905ed
0x0000845c 0xfff5fd05
0x00103390 0xfffeffc4
0x00103394 0xff730085
0x00008460 0xfff601f5
0x00008464 0xf6f00000
0x00103398 0xffeaffae
0x0010339c 0x00bfffdc
0x00008468 0xfdf8fef4
0x0000846c 0xf3f0ff01
0x001033a0 0x006fff9f
0x001033a4 0x006900c3
0x00008470 0xfef7fef0
0x00008474 0xf6f00002
0x001033a8 0x001cfff4
0x001033ac 0xffc9ff5a
0x00008478 0xfef701f2
0x0000847c 0xf4f1ff01
0x001033b0 0x005cffa1
0x001033b4 0x004700a3
0x00008480 0xfdf7fff2
0x00008484 0xf4f10102
0x001033b8 0x00500022
0x001033bc 0xff940049
0x00008488 0xfdf7fff2
0x0000848c 0xf4f10102
0x001033c0 0x00c70093
0x001033c4 0xff96008d
0x00008490 0xfdf7fff2
0x00008494 0xf4f10102
0x001033c8 0x00480057
0x001033cc 0xff060071
0x00008498 0xfdf7fff2
0x0000849c 0xf4f10102
0x001033d0 0xffc8ffe9
0x001033d4 0x00cc0180
0x000084a0 0xfdf7fff3
0x000084a4 0xf5f10102
0x001033d8 0x000400a9
0x001033dc 0xffe9ff85
0x000084a8 0xd00edd19
0x000084ac 0xe21604fa
0x001033e0 0x004dfe73
0x001033e4 0x001e00c7
0x000084b0 0xc84ad42a
0x000084b4 0xec6ad81e
0x001033e8 0x00000000
0x001033ec 0x00000000
0x000084b8 0xf2fce634
0x000084bc 0x0927013e
0x000084c0 0xe6f31e67
0x000084c4 0x11f426f3
0x000084c8 0xbaf2053f
0x000084cc 0x6014e7ad
0x000084d0 0xe0ee1019
0x000084d4 0x2e01bb80
0x000084d8 0x02c613f5
0x000084dc 0xeadcbd86
0x000084e0 0x25c136da
0x000084e4 0x01e9c5b0
0x000084e8 0x32d439ed
0x000084ec 0x03eed3d1
0x000084f0 0x29df20e4
0x000084f4 0x03e2e7f0
0x000084f8 0x26ed16de
0x000084fc 0xfde8f406
0x00008500 0x16f60be5
0x00008504 0xfef2f90b
0x00008508 0xfff803f1
0x0000850c 0xfdf4fe02
0x00008510 0xfef901f5
0x00008514 0xf5f20002
0x00008518 0x00f7fdf3
0x0000851c 0xf5f2fe03
0x00008520 0xfdf7fff1
0x00008524 0xf7f10003
0x00008528 0xfdf702f3
0x0000852c 0xf7f10102
0x00008530 0xfef700f0
0x00008534 0xf5f00002
0x00008538 0xfff8fff0
0x0000853c 0xf6f10003
0x00008540 0xfdf7fff2
0x00008544 0xf4f10102
0x00008548 0xfdf7fff2
0x0000854c 0xf4f10102
0x00008550 0xfdf7fff2
0x00008554 0xf4f10102
0x00008558 0xfdf7fff2
0x0000855c 0xf4f10102
0x00008560 0xfdf6fff2
0x00008564 0xf4f10102
0x00008568 0xbb12df23
0x0000856c 0xf930f2f4
0x00008570 0xc41bde3d
0x00008574 0xf96fe2f7
0x00008578 0xe9f3de42
0x0000857c 0xeb1ff004
0x00008580 0xe9d31750
0x00008584 0x1dcb26c4
0x00008588 0xf9f64412
0x0000858c 0x36f6d0a6
0x00008590 0x23f536d9
0x00008594 0x3700b9d1
0x00008598 0x35e92ae1
0x0000859c 0xfee3dfef
0x000085a0 0x23ee11da
0x000085a4 0xfde7f409
0x000085a8 0x0df906eb
0x000085ac 0xfff8fb0a
0x000085b0 0xfbfbfff3
0x000085b4 0xf5f6fc01
0x000085b8 0xfff6fbf4
0x000085bc 0xf8f0fc03
0x000085c0 0xfef901f6
0x000085c4 0xf6f00202
0x000085c8 0xfbfbfff3
0x000085cc 0xf7f50003
0x000085d0 0xfcf8fdf1
0x000085d4 0xf8f00001
0x000085d8 0xfcfb01f5
0x000085dc 0xf5f00000
0x000085e0 0xfdf800f3
0x000085e4 0xf4f00203
0x000085e8 0x00f701f3
0x000085ec 0xf4f00004
0x000085f0 0xfdf701f3
0x000085f4 0xf6f10002
0x000085f8 0xfdf700f3
0x000085fc 0xf5f10002
0x00008600 0xfdf7fff2
0x00008604 0xf4f10102
0x00008608 0xfdf7fff2
0x0000860c 0xf4f10102
0x00008610 0xfdf7fff2
0x00008614 0xf4f10102
0x00008618 0xfdf7fff2
0x0000861c 0xf4f10102
0x00008620 0xfcf9fff3
0x00008624 0xf5f3ff03
0x00008628 0xbafee41b
0x0000862c 0xed35fadb
0x00008630 0xb804e141
0x00008634 0x017fd6eb
0x00008638 0xf9f4f356
0x0000863c 0x0111f1f6
0x00008640 0x01e8153e
0x00008644 0x089d18dc
0x00008648 0x271e49ec
0x0000864c 0x43ecdeed
0x00008650 0x14321fd8
0x00008654 0x2620c60d
0x00008658 0x1727f1f4
0x0000865c 0x0721e22d
0x00008660 0x061ae8f1
0x00008664 0x0a0cff42
0x00008668 0xfc1d04f8
0x0000866c 0x1c161347
0x00008670 0xee0d06dd
0x00008674 0x25fb1d34
0x00008678 0xe5150be4
0x0000867c 0x15020f18
0x00008680 0xf605fade
0x00008684 0x0cf9fc0c
0x00008688 0x00f702f0
0x0000868c 0xf9f0fe02
0x00008690 0xfaf601f5
0x00008694 0xf4f3ff00
0x00008698 0xfef8fff1
0x0000869c 0xf5f3ff02
0x000086a0 0xfff6fef3
0x000086a4 0xf4f0fe02
0x000086a8 0xfef800f3
0x000086ac 0xf6ef0101
0x000086b0 0xfef8fff3
0x000086b4 0xf5f10103
0x000086b8 0xfef7fff1
0x000086bc 0xf5f10003
0x000086c0 0xfdf7fff2
0x000086c4 0xf4f10102
0x000086c8 0xfdf7fff2
0x000086cc 0xf4f10102
0x000086d0 0xfdf7fff2
0x000086d4 0xf4f10102
0x000086d8 0xfdf7fff2
0x000086dc 0xf4f10102
0x000086e0 0xfcf8fef3
0x000086e4 0xf4f00200
0x000086e8 0xbbf7e818
0x000086ec 0xec2dfed7
0x000086f0 0xb2fde842
0x000086f4 0xfd7adae3
0x000086f8 0x04f8ef5b
0x000086fc 0xfc14e3fb
0x00008700 0xfe01073c
0x00008704 0x04a50ee7
0x00008708 0x304d2cf3
0x0000870c 0x4619cb1d
0x00008710 0x1b5f01e5
0x00008714 0x452de53e
0x00008718 0xe056fa0e
0x0000871c 0x201e2b46
0x00008720 0xd86c000c
0x00008724 0x141a3e55
0x00008728 0xfb561116
0x0000872c 0x182c2870
0x00008730 0x0720210c
0x00008734 0x221b1f65
0x00008738 0xeb023706
0x0000873c 0x31062839
0x00008740 0xd81321f4
0x00008744 0x2b11040d
0x00008748 0xf907fbe0
0x0000874c 0x0dfaf709
0x00008750 0xfef8fff3
0x00008754 0xfaf30006
0x00008758 0xfbf601f5
0x0000875c 0xf9f20101
0x00008760 0xfdfafef3
0x00008764 0xf6f1ff01
0x00008768 0xfcf7fdf2
0x0000876c 0xf5ef0001
0x00008770 0xfef700f2
0x00008774 0xf4f0ff01
0x00008778 0xfdf700f2
0x0000877c 0xf4f10001
0x00008780 0xfdf7fff2
0x00008784 0xf4f10102
0x00008788 0xfdf7fff2
0x0000878c 0xf4f10102
0x00008790 0xfdf7fff2
0x00008794 0xf4f10102
0x00008798 0xfdf7fff2
0x0000879c 0xf4f10102
0x000087a0 0xfcf5fef3
0x000087a4 0xf2f20002
0x000087a8 0xc9deef0d
0x000087ac 0xe621fdd6
0x000087b0 0xa6e9f13c
0x000087b4 0xfe66e1cc
0x000087b8 0xf41be665
0x000087bc 0x0731c5ec
0x000087c0 0x1327d649
0x000087c4 0x00a909ee
0x000087c8 0x21582904
0x000087cc 0x3df40b29
0x000087d0 0xdf512b07
0x000087d4 0x16322836
0x000087d8 0xe0271b25
0x000087dc 0xdd39213b
0x000087e0 0xd122f43e
0x000087e4 0xf22c031d
0x000087e8 0xfa5efc57
0x000087ec 0x022afe25
0x000087f0 0x163c0233
0x000087f4 0x1f032051
0x000087f8 0x0a1c3931
0x000087fc 0x1efa4847
0x00008800 0xf11f250b
0x00008804 0x3e200924
0x00008808 0xe50a02e7
0x0000880c 0x1f02f1fe
0x00008810 0xfefa04f5
0x00008814 0xf2f200ff
0x00008818 0x00f6fff5
0x0000881c 0xf4f4ff04
0x00008820 0xfcf502f3
0x00008824 0xf8f10101
0x00008828 0xfef602f3
0x0000882c 0xf5f00001
0x00008830 0x00f800f0
0x00008834 0xf6f00003
0x00008838 0xfef7fff2
0x0000883c 0xf6f10003
0x00008840 0xfdf7fff2
0x00008844 0xf4f10102
0x00008848 0xfdf7fff2
0x0000884c 0xf4f10102
0x00008850 0xfdf7fff2
0x00008854 0xf4f10102
0x00008858 0xfdf7fff2
0x0000885c 0xf4f10102
0x00008860 0xfbf8fff3
0x00008864 0xf6f3ff02
0x00008868 0xd8d7fbff
0x0000886c 0xef1cf4e0
0x00008870 0xbbbcf133
0x00008874 0xf943ecbd
0x00008878 0xd100f258
0x0000887c 0x090be1ab
0x00008880 0xd605d04b
0x00008884 0xc8b003a3
0x00008888 0x33142b08
0x0000888c 0xc3fde90b
0x00008890 0x15fd262f
0x00008894 0x0448cc26
0x00008898 0xebdb1154
0x0000889c 0x261fe0ec
0x000088a0 0xad2ac97b
0x000088a4 0x1c32d4c3
0x000088a8 0xc5539b5a
0x000088ac 0x042dd6e1
0x000088b0 0x104dd220
0x000088b4 0xe2ede615
0x000088b8 0x0c151a22
0x000088bc 0x11c52517
0x000088c0 0x05343f13
0x000088c4 0x3614f403
0x000088c8 0xf51504e7
0x000088cc 0x200fe806
0x000088d0 0xfef8fef2
0x000088d4 0xfaf10103
0x000088d8 0xfdfb01f3
0x000088dc 0xf6f10001
0x000088e0 0xfff800f4
0x000088e4 0xf4f10204
0x000088e8 0xfff7fff3
0x000088ec 0xf5f00003
0x000088f0 0xfcf700f2
0x000088f4 0xf6f10001
0x000088f8 0xfef700f2
0x000088fc 0xf4f10002
0x00008900 0xfdf7fff2
0x00008904 0xf4f10102
0x00008908 0xfdf7fff2
0x0000890c 0xf4f10102
0x00008910 0xfdf7fff2
0x00008914 0xf4f10102
0x00008918 0xfdf7fff2
0x0000891c 0xf4f10102
0x00008920 0xfdf6fff2
0x00008924 0xf3f10200
0x00008928 0xeae706f2
0x0000892c 0xf808fce4
0x00008930 0xc6acf81b
0x00008934 0xfd3ae3ce
0x00008938 0xe5b9ff40
0x0000893c 0xeb2ccec4
0x00008940 0xd5ced125
0x00008944 0xdff2acaf
0x00008948 0x14e203fc
0x0000894c 0x21ddbec9
0x00008950 0x110aff34
0x00008954 0x1bfccbb3
0x00008958 0xcde7de28
0x0000895c 0x20fbe19b
0x00008960 0xaff6e34f
0x00008964 0x0d37ba80
0x00008968 0xc906e74c
0x0000896c 0xfb4a94a5
0x00008970 0x37040c29
0x00008974 0xfae0cbf4
0x00008978 0x23091f1d
0x0000897c 0xff9b12f9
0x00008980 0x13363aea
0x00008984 0x5004e800
0x00008988 0x061f1ae7
0x0000898c 0x1f13dafe
0x00008990 0xfef8fff7
0x00008994 0xf1f2fd02
0x00008998 0xfcf8ffef
0x0000899c 0xf7f2ff02
0x000089a0 0xfdf600f3
0x000089a4 0xf6f0ff01
0x000089a8 0xfdf901f3
0x000089ac 0xf6f00000
0x000089b0 0xfef7fef1
0x000089b4 0xf5f10003
0x000089b8 0xfef700f2
0x000089bc 0xf5f10002
0x000089c0 0xfdf7fff2
0x000089c4 0xf4f10102
0x000089c8 0xfdf7fff2
0x000089cc 0xf4f10102
0x000089d0 0xfdf7fff2
0x000089d4 0xf4f10102
0x000089d8 0xfdf7fff2
0x000089dc 0xf4f10102
0x000089e0 0xfdf6fff2
0x000089e4 0xf4f10002
0x000089e8 0xfaeb03ee
0x000089ec 0xecf307f0
0x000089f0 0xdadb08f9
0x000089f4 0x051beeda
0x000089f8 0xe2c4142c
0x000089fc 0x3521e0d4
0x00008a00 0xeac90e38
0x00008a04 0x05f7d99a
0x00008a08 0xebb0ecf9
0x00008a0c 0xfed4d39e
0x00008a10 0x02e417fa
0x00008a14 0x02f0c48b
0x00008a18 0x04bb20e8
0x00008a1c 0xf3d8c89a
0x00008a20 0xf5e22613
0x00008a24 0xf82cc3a9
0x00008a28 0xe8ef042f
0x00008a2c 0x0b6ebedc
0x00008a30 0x28f3003d
0x00008a34 0x0a07dd0c
0x00008a38 0x16f1172f
0x00008a3c 0x0f971bea
0x00008a40 0x202344e1
0x00008a44 0x3df0e1f6
0x00008a48 0x1d2320d5
0x00008a4c 0x2a17d40a
0x00008a50 0xfef903f5
0x00008a54 0xf9f30001
0x00008a58 0xfef601f5
0x00008a5c 0xf6f10102
0x00008a60 0x00f9fff3
0x00008a64 0xf5f0ff03
0x00008a68 0xfcf6fff1
0x00008a6c 0xf7f00101
0x00008a70 0xfef801f2
0x00008a74 0xf4f1ff01
0x00008a78 0xfdf7fff1
0x00008a7c 0xf5f10002
0x00008a80 0xfdf7fff2
0x00008a84 0xf4f10102
0x00008a88 0xfdf7fff2
0x00008a8c 0xf4f10102
0x00008a90 0xfdf7fff2
0x00008a94 0xf4f10102
0x00008a98 0xfdf7fff2
0x00008a9c 0xf4f10102
0x00008aa0 0xfdf7fff2
0x00008aa4 0xf5f10002
0x00008aa8 0xfbf8fdf5
0x00008aac 0xf4f5ff03
0x00008ab0 0xfde603eb
0x00008ab4 0xe7f906eb
0x00008ab8 0xebcd06ef
0x00008abc 0xf406fbde
0x00008ac0 0xf6c62208
0x00008ac4 0x060bf8bf
0x00008ac8 0x09c219fd
0x00008acc 0xfcebdfd1
0x00008ad0 0x2edd28e9
0x00008ad4 0x0ae2e9eb
0x00008ad8 0x2be713d7
0x00008adc 0xf6deed06
0x00008ae0 0xd403f507
0x00008ae4 0xff39f4e9
0x00008ae8 0xba07e140
0x00008aec 0x057fd3ed
0x00008af0 0x01fbee56
0x00008af4 0x070dea05
0x00008af8 0x04f3133b
0x00008afc 0x029720e4
0x00008b00 0x22203fde
0x00008b04 0x40ede2fd
0x00008b08 0x172621d7
0x00008b0c 0x2a19d307
0x00008b10 0xfcf6fef1
0x00008b14 0xf4f101ff
0x00008b18 0xfef7fff4
0x00008b1c 0xf5f1fe00
0x00008b20 0xfdf801f4
0x00008b24 0xf6f001ff
0x00008b28 0xfff700f2
0x00008b2c 0xf3ef0002
0x00008b30 0x00f700f1
0x00008b34 0xf6f10004
0x00008b38 0xfdf700f2
0x00008b3c 0xf5f10002
0x00008b40 0xfdf7fff2
0x00008b44 0xf4f10102
0x00008b48 0xfdf7fff2
0x00008b4c 0xf4f10102
0x00008b50 0xfdf7fff2
0x00008b54 0xf4f10102
0x00008b58 0xfdf7fff2
0x00008b5c 0xf4f10102
0x00008b60 0xfdf7fff2
0x00008b64 0xf4f10102
0x00008b68 0xfafafef5
0x00008b6c 0xf7f20100
0x00008b70 0xfafa00f6
0x00008b74 0xf6f30102
0x00008b78 0xfffafef6
0x00008b7c 0xf0f10204
0x00008b80 0xfdf4fff3
0x00008b84 0xf8f00205
0x00008b88 0xfbfa05f6
0x00008b8c 0xf6f6ff01
0x00008b90 0xfef6fef1
0x00008b94 0xf5f00102
0x00008b98 0xf20dfcf9
0x00008b9c 0xfa04f909
0x00008ba0 0xce12d81e
0x00008ba4 0xf645eff3
0x00008ba8 0xb9fbe138
0x00008bac 0x096fea00
0x00008bb0 0xef0b075c
0x00008bb4 0x0e1efd0d
0x00008bb8 0x03f60b28
0x00008bbc 0x109918e7
0x00008bc0 0x222041e3
0x00008bc4 0x3ceedff8
0x00008bc8 0x1d2523db
0x00008bcc 0x2d1cd30a
0x00008bd0 0xfcf3fff2
0x00008bd4 0xf7ee0002
0x00008bd8 0xfefa01f4
0x00008bdc 0xf6f3ff02
0x00008be0 0xfcf7fdef
0x00008be4 0xf6ef0002
0x00008be8 0xfef700f2
0x00008bec 0xf5f00002
0x00008bf0 0xfef8fff2
0x00008bf4 0xf5f00002
0x00008bf8 0xfef7fff2
0x00008bfc 0xf5f10103
0x00008c00 0xfdf7fff2
0x00008c04 0xf4f10102
0x00008c08 0xfdf7fff2
0x00008c0c 0xf4f10102
0x00008c10 0xfdf7fff2
0x00008c14 0xf4f10102
0x00008c18 0xfdf7fff2
0x00008c1c 0xf4f10102
0x00008c20 0xfdf7fff2
0x00008c24 0xf4f00102
0x00008c28 0xfaf3fdf3
0x00008c2c 0xf0f40100
0x00008c30 0xfcf9fff4
0x00008c34 0xf3f6ff02
0x00008c38 0xfdf6fcf7
0x00008c3c 0xf7f0ff01
0x00008c40 0x00fb01f5
0x00008c44 0xf2ef0203
0x00008c48 0x00f800f3
0x00008c4c 0xfbf30107
0x00008c50 0xfbf800f6
0x00008c54 0xf5f30001
0x00008c58 0xe723f108
0x00008c5c 0xfd030500
0x00008c60 0xc328d324
0x00008c64 0xf14ef2fa
0x00008c68 0xccf0f23a
0x00008c6c 0xf25f0313
0x00008c70 0xeaea2669
0x00008c74 0x160c1106
0x00008c78 0xf7071437
0x00008c7c 0x18b3f9c8
0x00008c80 0x2b1425d7
0x00008c84 0x34dbd6ee
0x00008c88 0x1d1e2dec
0x00008c8c 0x1a18df03
0x00008c90 0xfef8fef3
0x00008c94 0xf3f10003
0x00008c98 0xfff602f4
0x00008c9c 0xf8f10003
0x00008ca0 0xfdf603f4
0x00008ca4 0xf5f10001
0x00008ca8 0xfff700f2
0x00008cac 0xf5f00003
0x00008cb0 0xfdf7fff2
0x00008cb4 0xf6f10002
0x00008cb8 0xfef700f2
0x00008cbc 0xf4f10002
0x00008cc0 0xfdf7fff2
0x00008cc4 0xf4f10102
0x00008cc8 0xfdf7fff2
0x00008ccc 0xf4f10102
0x00008cd0 0xfdf7fff2
0x00008cd4 0xf4f10102
0x00008cd8 0xfdf7fff2
0x00008cdc 0xf4f10102
0x00008ce0 0xfcf8fff3
0x00008ce4 0xf4f20003
0x00008ce8 0xfcf9fef4
0x00008cec 0xf7f6fd03
0x00008cf0 0xfcf2fdf7
0x00008cf4 0xf6f20202
0x00008cf8 0xf9fdfef7
0x00008cfc 0xf2f3feff
0x00008d00 0xf9f6faf1
0x00008d04 0xf8ee0000
0x00008d08 0x01fd02f6
0x00008d0c 0xf1f3fd01
0x00008d10 0xfdf9fef4
0x00008d14 0xfaf4ff05
0x00008d18 0xd613e418
0x00008d1c 0xe91306fb
0x00008d20 0xc339d923
0x00008d24 0xe869e307
0x00008d28 0xdbd3ec33
0x00008d2c 0xfb4bf81d
0x00008d30 0xfee42c75
0x00008d34 0x18f614f7
0x00008d38 0xeb0d082c
0x00008d3c 0x41c6e5bc
0x00008d40 0x1b1b16c6
0x00008d44 0x20decbdd
0x00008d48 0x34161de1
0x00008d4c 0x080adf10
0x00008d50 0xfbf6fff4
0x00008d54 0xf6f00001
0x00008d58 0xfdfa02f4
0x00008d5c 0xf4f20202
0x00008d60 0xfff7fdf1
0x00008d64 0xf8f2ff05
0x00008d68 0xfdf701f3
0x00008d6c 0xf5f00101
0x00008d70 0xfef7fff2
0x00008d74 0xf5f10003
0x00008d78 0xfef7fff1
0x00008d7c 0xf5f10003
0x00008d80 0xfdf7fff2
0x00008d84 0xf4f10102
0x00008d88 0xfdf7fff2
0x00008d8c 0xf4f10102
0x00008d90 0xfdf7fff2
0x00008d94 0xf4f10102
0x00008d98 0xfdf7fff2
0x00008d9c 0xf4f10102
0x00008da0 0xf9fffdf5
0x00008da4 0xf6f6ff04
0x00008da8 0x02fbfbf3
0x00008dac 0xf5f8fe07
0x00008db0 0xf9f300f2
0x00008db4 0xf8f10508
0x00008db8 0xfaf608fa
0x00008dbc 0xfbf80501
0x00008dc0 0xfbfbfbf0
0x00008dc4 0xf6f1f900
0x00008dc8 0x01fbfdf3
0x00008dcc 0xfbf2ff03
0x00008dd0 0xf312fdfa
0x00008dd4 0xf602fb0a
0x00008dd8 0xd428cf28
0x00008ddc 0xff44e916
0x00008de0 0xc618e22d
0x00008de4 0xff5ef912
0x00008de8 0xcffdfe47
0x00008dec 0x0a380010
0x00008df0 0xeae51056
0x00008df4 0x3ed016dd
0x00008df8 0x031e2e1d
0x00008dfc 0x2cded1ba
0x00008e00 0x1a0814bd
0x00008e04 0x27e8c4ea
0x00008e08 0x260b23e3
0x00008e0c 0xfdfae902
0x00008e10 0xfefbfef4
0x00008e14 0xf4f3ff04
0x00008e18 0xfdf4fef3
0x00008e1c 0xf8ee0101
0x00008e20 0xfcfa02f4
0x00008e24 0xf4f1feff
0x00008e28 0xfdf7fef2
0x00008e2c 0xf5f00102
0x00008e30 0xfef700f3
0x00008e34 0xf4f10002
0x00008e38 0xfdf7fff2
0x00008e3c 0xf5f10002
0x00008e40 0xfdf7fff2
0x00008e44 0xf4f10102
0x00008e48 0xfdf7fff2
0x00008e4c 0xf4f10102
0x00008e50 0xfdf7fff2
0x00008e54 0xf4f10102
0x00008e58 0xfdf7fff2
0x00008e5c 0xf4f10102
0x00008e60 0xf10df8fc
0x00008e64 0xf7ffff04
0x00008e68 0xfd26edfd
0x00008e6c 0xfc19ed22
0x00008e70 0x1113edf6
0x00008e74 0xff07023c
0x00008e78 0xff000bf5
0x00008e7c 0x12fb1c38
0x00008e80 0xdc1a10f1
0x00008e84 0x1f0d131d
0x00008e88 0xee2defe9
0x00008e8c 0x111cee24
0x00008e90 0xff39daff
0x00008e94 0x0f13002f
0x00008e98 0xb932e021
0x00008e9c 0x074a0e22
0x00008ea0 0xbb06063b
0x00008ea4 0x0c701724
0x00008ea8 0xe4e51f4d
0x00008eac 0x170f10f8
0x00008eb0 0xe2f81640
0x00008eb4 0x2ecaeeb9
0x00008eb8 0x320939ed
0x00008ebc 0x3cdacdce
0x00008ec0 0x2c072ce1
0x00008ec4 0x03ffd2fa
0x00008ec8 0x14fc0be1
0x00008ecc 0x07f9f90d
0x00008ed0 0xfef602f6
0x00008ed4 0xf7f1fefd
0x00008ed8 0xfff7fff4
0x00008edc 0xf2f0ff00
0x00008ee0 0x00f700f1
0x00008ee4 0xf8f20004
0x00008ee8 0xfdf700f2
0x00008eec 0xf5f00002
0x00008ef0 0xfef800f1
0x00008ef4 0xf6f10003
0x00008ef8 0xfdf7fff2
0x00008efc 0xf5f10002
0x00008f00 0xfdf7fff2
0x00008f04 0xf4f10102
0x00008f08 0xfdf7fff2
0x00008f0c 0xf4f10102
0x00008f10 0xfdf7fff2
0x00008f14 0xf4f10102
0x00008f18 0xfdf7fff2
0x00008f1c 0xf4f10102
0x00008f20 0xeefff303
0x00008f24 0xf1f40bf7
0x00008f28 0xe02ef60d
0x00008f2c 0xf7030ffc
0x00008f30 0xed44f01a
0x00008f34 0xee0f0e22
0x00008f38 0x1a35031d
0x00008f3c 0xf3131555
0x00008f40 0x042b1024
0x00008f44 0x22251a5b
0x00008f48 0xd3540e19
0x00008f4c 0x3f311d43
0x00008f50 0xc052e917
0x00008f54 0x15382448
0x00008f58 0xc62f061e
0x00008f5c 0xf6532938
0x00008f60 0xb9ce1f42
0x00008f64 0x22520813
0x00008f68 0xf1f42f76
0x00008f6c 0x2e0beccc
0x00008f70 0x00f6f427
0x00008f74 0x28b3d3ac
0x00008f78 0x221124d8
0x00008f7c 0x18ded1d7
0x00008f80 0x32121ee3
0x00008f84 0x0807e00b
0x00008f88 0xfff300f3
0x00008f8c 0xf5ef0000
0x00008f90 0xfef9fef3
0x00008f94 0xf5f1ff01
0x00008f98 0xfbf7fef2
0x00008f9c 0xf7f00000
0x00008fa0 0xfff702f3
0x00008fa4 0xf3f00001
0x00008fa8 0xfff700f3
0x00008fac 0xf5f10003
0x00008fb0 0xfdf700f2
0x00008fb4 0xf5f10002
0x00008fb8 0xfdf700f2
0x00008fbc 0xf4f10002
0x00008fc0 0xfdf7fff2
0x00008fc4 0xf4f10102
0x00008fc8 0xfdf7fff2
0x00008fcc 0xf4f10102
0x00008fd0 0xfdf7fff2
0x00008fd4 0xf4f10102
0x00008fd8 0xfdf7fff2
0x00008fdc 0xf4f10102
0x00008fe0 0xe9e7f3fe
0x00008fe4 0xe706f8fd
0x00008fe8 0xe6e6ec0e
0x00008fec 0xd618f8f9
0x00008ff0 0xe010dd1a
0x00008ff4 0xdc02f9ee
0x00008ff8 0xe82ee822
0x00008ffc 0xf1d91cee
0x00009000 0xfe3b0341
0x00009004 0xe4f42d09
0x00009008 0xf0230a4d
0x0000900c 0xe026281f
0x00009010 0xcb180e53
0x00009014 0xf048fd14
0x00009018 0xd5ce175c
0x0000901c 0xfa35fae8
0x00009020 0xeadc1a6d
0x00009024 0x1120dcbf
0x00009028 0xe5ddf65d
0x0000902c 0x4fe1d89c
0x00009030 0x0a141312
0x00009034 0x01c7c699
0x00009038 0x33f80dc3
0x0000903c 0x02dad0f3
0x00009040 0x270921e1
0x00009044 0xfbf9e800
0x00009048 0xfbf6fef2
0x0000904c 0xf6f2ff00
0x00009050 0xfdf500f4
0x00009054 0xf5f1ffff
0x00009058 0xfef600f2
0x0000905c 0xf1f0ff01
0x00009060 0xfff6fff1
0x00009064 0xf6f00002
0x00009068 0xfef700f3
0x0000906c 0xf4f00001
0x00009070 0xfef7fff2
0x00009074 0xf4f10002
0x00009078 0xfef7fff2
0x0000907c 0xf5f10003
0x00009080 0xfdf7fff2
0x00009084 0xf4f10102
0x00009088 0xfdf7fff2
0x0000908c 0xf4f10102
0x00009090 0xfdf7fff2
0x00009094 0xf4f10102
0x00009098 0xfdf7fff2
0x0000909c 0xf4f10102
0x000090a0 0xedf502f7
0x000090a4 0x0104f6f8
0x000090a8 0xdad8f918
0x000090ac 0x111de8f1
0x000090b0 0xd9d6e936
0x000090b4 0xe91bdeda
0x000090b8 0xd5dec218
0x000090bc 0xc9f6ced0
0x000090c0 0xe1f2d105
0x000090c4 0xdff7c2ca
0x000090c8 0xebf3ec25
0x000090cc 0xf617c0d3
0x000090d0 0xece8ed41
0x000090d4 0xfd24d2bf
0x000090d8 0xd5e2d63b
0x000090dc 0x1a0bc9a4
0x000090e0 0xf1d8ed3b
0x000090e4 0x23dcd980
0x000090e8 0x0bfb0513
0x000090ec 0xf5d0b896
0x000090f0 0x32ea20d3
0x000090f4 0x0fd3cdd1
0x000090f8 0x36f828d6
0x000090fc 0xe8e3d8f7
0x00009100 0x14fc0be2
0x00009104 0x07f7fc0d
0x00009108 0xfef600f2
0x0000910c 0xf4f00001
0x00009110 0xfef600f2
0x00009114 0xf6f1ff02
0x00009118 0xfef600f3
0x0000911c 0xf6f10002
0x00009120 0xfdf7fef3
0x00009124 0xf3f00001
0x00009128 0xfdf7fef1
0x0000912c 0xf5f00001
0x00009130 0xfef700f2
0x00009134 0xf4f00001
0x00009138 0xfdf7fff2
0x0000913c 0xf4f10002
0x00009140 0xfdf7fff2
0x00009144 0xf4f10102
0x00009148 0xfdf7fff2
0x0000914c 0xf4f10102
0x00009150 0xfdf7fff2
0x00009154 0xf4f10102
0x00009158 0xfdf7fff2
0x0000915c 0xf4f10102
0x00009160 0xfae903ed
0x00009164 0xecf307ef
0x00009168 0xe5d808f3
0x0000916c 0xfa10f6dc
0x00009170 0xe0c7171b
0x00009174 0x2723e2cc
0x00009178 0xeec61336
0x0000917c 0x21ffd4ba
0x00009180 0xf3d4ff16
0x00009184 0x11e2ceb0
0x00009188 0xe8d6fbff
0x0000918c 0x16f2c6a1
0x00009190 0xdfcc091a
0x00009194 0x1401bd84
0x00009198 0xeec1101a
0x0000919c 0xf4e1c080
0x000091a0 0x0ad712f6
0x000091a4 0xf8ceb59d
0x000091a8 0x35e530da
0x000091ac 0x03cdd0c9
0x000091b0 0x35f222d3
0x000091b4 0xebe0ddfc
0x000091b8 0x19fe0ddf
0x000091bc 0x09f8fb10
0x000091c0 0xfef6fff2
0x000091c4 0xf4f00002
0x000091c8 0xfef7fff2
0x000091cc 0xf5f10102
0x000091d0 0xfdf6fff2
0x000091d4 0xf4f10101
0x000091d8 0xfdf6fff2
0x000091dc 0xf5f10002
0x000091e0 0xfef600f3
0x000091e4 0xf5f10001
0x000091e8 0xfef6fff2
0x000091ec 0xf4f00002
0x000091f0 0xfef700f1
0x000091f4 0xf5f10003
0x000091f8 0xfef7fff2
0x000091fc 0xf5f10102
0x00009200 0xedeffaf9
0x00009204 0xf8ebf30f
0x00009208 0xedeffaf9
0x0000920c 0xf8ebf30f
0x00009210 0xedeffaf9
0x00009214 0xf8ebf30f
0x00009218 0xedeffaf9
0x0000921c 0xf8ebf30f
0x00009220 0xeeeff9f8
0x00009224 0xf8eaf30f
0x00009228 0xeff1f8f9
0x0000922c 0xf5ebf513
0x00009230 0xeef0fbfa
0x00009234 0xf7edf30d
0x00009238 0xedf1f8fb
0x0000923c 0xf9eef40f
0x00009240 0xeceffaf7
0x00009244 0xfaeef10f
0x00009248 0xeef0f9f8
0x0000924c 0xfbecf00b
0x00009250 0xecf1f9f6
0x00009254 0xf7eef011
0x00009258 0xf0eefcf9
0x0000925c 0xf9ecf20d
0x00009260 0xedf4f9f6
0x00009264 0xf8ecf30d
0x00009268 0xeeecfcfa
0x0000926c 0xfbedf40f
0x00009270 0xeef2f8f8
0x00009274 0xf8eef30c
0x00009278 0xeeeffaf7
0x0000927c 0xfaebf10d
0x00009280 0xeeeffbf8
0x00009284 0xfaedf30e
0x00009288 0xefeffbf8
0x0000928c 0xfaedf30d
0x00009290 0xeeeffaf7
0x00009294 0xf9ebf20d
0x00009298 0xeeeffaf8
0x0000929c 0xf8ebf30e
0x000092a0 0xeef0fbf8
0x000092a4 0xf9ecf10e
0x000092a8 0xedeffaf8
0x000092ac 0xf9ebf20e
0x000092b0 0xedeffaf8
0x000092b4 0xf9ebf20f
0x000092b8 0xedeffaf8
0x000092bc 0xf9ebf30f
0x000092c0 0xedeffaf9
0x000092c4 0xf8ebf30f
0x000092c8 0xedeffaf9
0x000092cc 0xf8ebf30f
0x000092d0 0xedeffaf9
0x000092d4 0xf8ebf30f
0x000092d8 0xedeffaf9
0x000092dc 0xf8ebf30f
0x000092e0 0xeef1faf8
0x000092e4 0xf6edf312
0x000092e8 0xf0eefafa
0x000092ec 0xfaecf20d
0x000092f0 0xebf1faf9
0x000092f4 0xf9edf00f
0x000092f8 0xf0ecf8f6
0x000092fc 0xf9ecf00d
0x00009300 0xeef2faf7
0x00009304 0xfbeef00f
0x00009308 0xf0f0fbf5
0x0000930c 0xf7eaf40b
0x00009310 0xf405f7ed
0x00009314 0xe500fb25
0x00009318 0xf10010f7
0x0000931c 0xf010eb18
0x00009320 0xdb0f0104
0x00009324 0xf60ed211
0x00009328 0xc7f9edf8
0x0000932c 0x000eb526
0x00009330 0xc0feefed
0x00009334 0x1316ab28
0x00009338 0xbff4ebf8
0x0000933c 0x1e0ca61e
0x00009340 0xbeeddff3
0x00009344 0x1dfcaf1b
0x00009348 0xcce9e3e8
0x0000934c 0x16f8c523
0x00009350 0xe2f0f4ea
0x00009354 0x0df7de19
0x00009358 0xecf3faf6
0x0000935c 0xfff1ef0e
0x00009360 0xedf0f9f9
0x00009364 0xf9ecf20f
0x00009368 0xedeef9f8
0x0000936c 0xf9ebf10e
0x00009370 0xedf0faf8
0x00009374 0xfaebf20f
0x00009378 0xedeffaf9
0x0000937c 0xf8ebf30f
0x00009380 0xedeffaf9
0x00009384 0xf8ebf30f
0x00009388 0xedeffaf9
0x0000938c 0xf8ebf30f
0x00009390 0xedeffaf9
0x00009394 0xf8ebf30f
0x00009398 0xedeffaf9
0x0000939c 0xf8ebf30f
0x000093a0 0xefeef8f9
0x000093a4 0xfaebf40e
0x000093a8 0xedf1f9f6
0x000093ac 0xf7ebf20f
0x000093b0 0xf1effaf9
0x000093b4 0xf5edf310
0x000093b8 0xf0f6faf5
0x000093bc 0xf4f0f40e
0x000093c0 0xf205feed
0x000093c4 0xe801fa21
0x000093c8 0xef010dfb
0x000093cc 0xf012e818
0x000093d0 0xea00e706
0x000093d4 0x0d14d8ff
0x000093d8 0xc9efdce9
0x000093dc 0x1e2daf19
0x000093e0 0xd7e8ecce
0x000093e4 0x292f87f8
0x000093e8 0xdcfae8c1
0x000093ec 0x3d1c80dc
0x000093f0 0xd9ecfbb0
0x000093f4 0x44018cd3
0x000093f8 0xe3f810a7
0x000093fc 0x30f69fdd
0x00009400 0xf3fe20b7
0x00009404 0x19e5bdda
0x00009408 0xf4ff19d7
0x0000940c 0x13dae2e6
0x00009410 0xebf30de8
0x00009414 0x09dafbf9
0x00009418 0xebee01f1
0x0000941c 0xfce7f90b
0x00009420 0xefeffcf9
0x00009424 0xf9edf10e
0x00009428 0xedf1f9f8
0x0000942c 0xf9ebf10d
0x00009430 0xededfaf8
0x00009434 0xfaebf20f
0x00009438 0xedf0f9f8
0x0000943c 0xf9ebf20f
0x00009440 0xedeffaf9
0x00009444 0xf8ebf30f
0x00009448 0xedeffaf9
0x0000944c 0xf8ebf30f
0x00009450 0xedeffaf9
0x00009454 0xf8ebf30f
0x00009458 0xedeffaf9
0x0000945c 0xf8ebf30f
0x00009460 0xeff0f9f7
0x00009464 0xf6e9f30f
0x00009468 0xf0f0f9fb
0x0000946c 0xf5edf411
0x00009470 0xf206f8eb
0x00009474 0xe301fc23
0x00009478 0xf6fe0efb
0x0000947c 0xf512ec18
0x00009480 0xeb03eb06
0x00009484 0x0d19dbfc
0x00009488 0xcbe5deec
0x0000948c 0x2023a70d
0x00009490 0xe9e9d9c0
0x00009494 0x1e0888dd
0x00009498 0x11fbc2ba
0x0000949c 0x110698e2
0x000094a0 0x1f07ebac
0x000094a4 0x0314d2c5
0x000094a8 0x412405c8
0x000094ac 0x0101e19d
0x000094b0 0x482bf5ed
0x000094b4 0xf4ef0395
0x000094b8 0x321ef808
0x000094bc 0x03f819ad
0x000094c0 0x1513fa11
0x000094c4 0x0ffc15bb
0x000094c8 0x0808f90e
0x000094cc 0x11ef04d3
0x000094d0 0xfdfcf406
0x000094d4 0x04e9faef
0x000094d8 0xf1f2f5fe
0x000094dc 0xfbebf806
0x000094e0 0xecf0fbf7
0x000094e4 0xf9edf30e
0x000094e8 0xeeeffcf7
0x000094ec 0xfaecf10c
0x000094f0 0xeef1fbf8
0x000094f4 0xfaecf20d
0x000094f8 0xedeefbf7
0x000094fc 0xf9eaf30e
0x00009500 0xedeffaf9
0x00009504 0xf8ebf30f
0x00009508 0xedeffaf9
0x0000950c 0xf8ebf30f
0x00009510 0xedeffaf9
0x00009514 0xf8ebf30f
0x00009518 0xedeffaf9
0x0000951c 0xf8ebf30f
0x00009520 0xeff0faf9
0x00009524 0xf6ebf310
0x00009528 0xf206f8eb
0x0000952c 0xe3fdfd27
0x00009530 0x04f1fafc
0x00009534 0x071af707
0x00009538 0xddfbf0fe
0x0000953c 0x1b1ecbf6
0x00009540 0xf2deccc9
0x00009544 0x02fa9cdd
0x00009548 0x10feccb7
0x0000954c 0x060b98eb
0x00009550 0x3020ffbe
0x00009554 0xd809d5ce
0x00009558 0x6937f7eb
0x0000955c 0xd0e4f89c
0x00009560 0x5c30f71c
0x00009564 0xe9003fae
0x00009568 0x51141235
0x0000956c 0x022852bc
0x00009570 0x5a0cfc29
0x00009574 0x022126b4
0x00009578 0x42fffd18
0x0000957c 0x131120c3
0x00009580 0x23eb0409
0x00009584 0x181119e0
0x00009588 0x13e6fdfe
0x0000958c 0x080904f5
0x00009590 0x08ebf0f1
0x00009594 0xf4f1eaf8
0x00009598 0xf8f2f1f3
0x0000959c 0xf3e7ec03
0x000095a0 0xefeff9fa
0x000095a4 0xf9edf40f
0x000095a8 0xeeeffbf9
0x000095ac 0xfaeef50d
0x000095b0 0xeff0faf8
0x000095b4 0xf9ebf20d
0x000095b8 0xedeffaf9
0x000095bc 0xf9ebf30e
0x000095c0 0xedeffaf9
0x000095c4 0xf8ebf30f
0x000095c8 0xedeffaf9
0x000095cc 0xf8ebf30f
0x000095d0 0xedeffaf9
0x000095d4 0xf8ebf30f
0x000095d8 0xedeffaf9
0x000095dc 0xf8ebf30f
0x000095e0 0xeef0f8f9
0x000095e4 0xf7eaf512
0x000095e8 0x01f8e4ee
0x000095ec 0xfb0a0612
0x000095f0 0x0afdf2de
0x000095f4 0xf818eafd
0x000095f8 0x1300eae9
0x000095fc 0xdc0bbbe0
0x00009600 0x1d1ad1dc
0x00009604 0xbd0aa3df
0x00009608 0x4721e8eb
0x0000960c 0xf2f5dac1
0x00009610 0x4136f724
0x00009614 0x060347cc
0x00009618 0x3c240738
0x0000961c 0x030c55ce
0x00009620 0x3f0cf33d
0x00009624 0x030e4bdf
0x00009628 0x130d020e
0x0000962c 0x022765fa
0x00009630 0xf6fa25ed
0x00009634 0x0f2943f3
0x00009638 0xe7f91edd
0x0000963c 0x092120e8
0x00009640 0xdfef1dd1
0x00009644 0x041609ee
0x00009648 0xdcf51dcb
0x0000964c 0x0304fef2
0x00009650 0xdff016d9
0x00009654 0xfff3f0fc
0x00009658 0xebeb04f0
0x0000965c 0xf9edee07
0x00009660 0xf0f0f9f9
0x00009664 0xf9ebf20c
0x00009668 0xedf0fcf8
0x0000966c 0xfaedf60e
0x00009670 0xeeeefcf9
0x00009674 0xfaecf30e
0x00009678 0xeeeff9f8
0x0000967c 0xf8eaf20e
0x00009680 0xedeffaf9
0x00009684 0xf8ebf30f
0x00009688 0xedeffaf9
0x0000968c 0xf8ebf30f
0x00009690 0xedeffaf9
0x00009694 0xf8ebf30f
0x00009698 0xedeffaf9
0x0000969c 0xf8ebf30f
0x000096a0 0xeeeff9f9
0x000096a4 0xf9ebf30f
0x000096a8 0x1700d5df
0x000096ac 0xe5f50d05
0x000096b0 0x3409e5f7
0x000096b4 0xc629fa16
0x000096b8 0x2e17ed07
0x000096bc 0xb21dc3cc
0x000096c0 0x2a2ddb0b
0x000096c4 0xf001ced2
0x000096c8 0x1e220b0f
0x000096cc 0x40061fd2
0x000096d0 0x19090d17
0x000096d4 0x320f58d8
0x000096d8 0xfd040c03
0x000096dc 0x0d255aff
0x000096e0 0xebfd15e0
0x000096e4 0xfb1524f1
0x000096e8 0xddf611d7
0x000096ec 0xfd1010ef
0x000096f0 0xd0f724d3
0x000096f4 0x09110bf9
0x000096f8 0xdef01dd2
0x000096fc 0x00fcf9f6
0x00009700 0xe6f10ce3
0x00009704 0xfdf1eeff
0x00009708 0xebee03f3
0x0000970c 0xfaecf207
0x00009710 0xf0f1faf9
0x00009714 0xf7edf40e
0x00009718 0xeef2fbf8
0x0000971c 0xf9edf50e
0x00009720 0xebf0fcf9
0x00009724 0xfaecf20c
0x00009728 0xecedf8fa
0x0000972c 0xfaecf110
0x00009730 0xecf0faf6
0x00009734 0xfaedf210
0x00009738 0xeceffbf7
0x0000973c 0xf9ebf20e
0x00009740 0xedeffaf9
0x00009744 0xf8ebf30f
0x00009748 0xedeffaf9
0x0000974c 0xf8ebf30f
0x00009750 0xedeffaf9
0x00009754 0xf8ebf30f
0x00009758 0xedeffaf9
0x0000975c 0xf8ebf30f
0x00009760 0xeeeff9f8
0x00009764 0xf8eaf30f
0x00009768 0x270ad9e9
0x0000976c 0xc9f80c0d
0x00009770 0x5118c80a
0x00009774 0xae06151b
0x00009778 0x1329f312
0x0000977c 0xc82df5e1
0x00009780 0x0516051e
0x00009784 0x3634f2d0
0x00009788 0xfb180ceb
0x0000978c 0x5b2020ca
0x00009790 0xe3fc25c9
0x00009794 0x281421c1
0x00009798 0xddf31bcf
0x0000979c 0x030b04f1
0x000097a0 0xddf31ad0
0x000097a4 0xfcf7f5f7
0x000097a8 0xe9ed0ae6
0x000097ac 0xfaebea00
0x000097b0 0xf1f0fdfa
0x000097b4 0xf7f1f912
0x000097b8 0xf0f1fbfa
0x000097bc 0xf7f1f30a
0x000097c0 0xeff2f8fa
0x000097c4 0xfbeaef09
0x000097c8 0xedeff7fa
0x000097cc 0xfaeef411
0x000097d0 0xefeff9f8
0x000097d4 0xfceff20c
0x000097d8 0xeef0f9f8
0x000097dc 0xfbedf20d
0x000097e0 0xeeeefbf6
0x000097e4 0xf9edf20d
0x000097e8 0xeef0fbf6
0x000097ec 0xf9ebef0c
0x000097f0 0xedeffcf7
0x000097f4 0xfaeaf30e
0x000097f8 0xedeffaf8
0x000097fc 0xf8eaf30f
0x00009800 0xedeffaf9
0x00009804 0xf8ebf30f
0x00009808 0xedeffaf9
0x0000980c 0xf8ebf30f
0x00009810 0xedeffaf9
0x00009814 0xf8ebf30f
0x00009818 0xedeffaf9
0x0000981c 0xf8ebf30f
0x00009820 0xeef1faf8
0x00009824 0xf6edf311
0x00009828 0x2d14caf8
0x0000982c 0xbee32321
0x00009830 0x4426c409
0x00009834 0xa9061513
0x00009838 0x010d021d
0x0000983c 0xec50fcde
0x00009840 0xef1327ef
0x00009844 0x505ef0be
0x00009848 0xff002bbd
0x0000984c 0x6012e7a7
0x00009850 0xf21013ae
0x00009854 0xfefb00d7
0x00009858 0xf1f919ef
0x0000985c 0xf10ce411
0x00009860 0xd813fd03
0x00009864 0xf20cd413
0x00009868 0xc7e6ee07
0x0000986c 0x0c01b019
0x00009870 0xbff1daf4
0x00009874 0x1efab318
0x00009878 0xcbe5e6e3
0x0000987c 0x18fcc727
0x00009880 0xe5f1fbea
0x00009884 0x0ffbde14
0x00009888 0xeff5f7f4
0x0000988c 0xfeeded0a
0x00009890 0xeceffcf4
0x00009894 0xfaeaf50d
0x00009898 0xf0effbf8
0x0000989c 0xf8edf40f
0x000098a0 0xeff1f9f9
0x000098a4 0xf7eef40d
0x000098a8 0xeef0fbf9
0x000098ac 0xfaebf30c
0x000098b0 0xeeeff9f9
0x000098b4 0xf9ebf30e
0x000098b8 0xedeffaf9
0x000098bc 0xf9ebf30f
0x000098c0 0xedeffaf9
0x000098c4 0xf8ebf30f
0x000098c8 0xedeffaf9
0x000098cc 0xf8ebf30f
0x000098d0 0xedeffaf9
0x000098d4 0xf8ebf30f
0x000098d8 0xedeffaf9
0x000098dc 0xf8ebf30f
0x000098e0 0xefeef8f9
0x000098e4 0xfaebf40e
0x000098e8 0x290ecbfa
0x000098ec 0xc4de201c
0x000098f0 0x4628c2ff
0x000098f4 0xa0011916
0x000098f8 0x0a070f15
0x000098fc 0xef54fbd7
0x00009900 0xf72c2de8
0x00009904 0x3b7007d3
0x00009908 0x050d38bc
0x0000990c 0x4c29d7b2
0x00009910 0xf009f9d8
0x00009914 0x230bd6b4
0x00009918 0xc7e5e0ee
0x0000991c 0x2321a90d
0x00009920 0xd5f1e5c2
0x00009924 0x1f2f8d02
0x00009928 0xda0b04b6
0x0000992c 0x1f298003
0x00009930 0xd6021ac7
0x00009934 0x2df286cf
0x00009938 0xc6fdf2d9
0x0000993c 0x2be2acf8
0x00009940 0xcee6fdd1
0x00009944 0x23ebdb12
0x00009948 0xe6f704e8
0x0000994c 0x11f3e807
0x00009950 0xeef3f9fc
0x00009954 0xfaedf10d
0x00009958 0xeeeef8f8
0x0000995c 0xf8ebf30e
0x00009960 0xedf0fbf7
0x00009964 0xfbedf20e
0x00009968 0xeeeefcf9
0x0000996c 0xfbeef40e
0x00009970 0xefeff9f8
0x00009974 0xf9ebf20e
0x00009978 0xeeeffaf8
0x0000997c 0xf8eaf30e
0x00009980 0xedeffaf9
0x00009984 0xf8ebf30f
0x00009988 0xedeffaf9
0x0000998c 0xf8ebf30f
0x00009990 0xedeffaf9
0x00009994 0xf8ebf30f
0x00009998 0xedeffaf9
0x0000999c 0xf8ebf30f
0x000099a0 0xeff0f9f8
0x000099a4 0xf6e9f30e
0x000099a8 0x2504d006
0x000099ac 0xc9ce1a14
0x000099b0 0x472bb0ff
0x000099b4 0x9af62d1c
0x000099b8 0x15111908
0x000099bc 0xdf6c16f9
0x000099c0 0x171f3503
0x000099c4 0x517f17aa
0x000099c8 0xf0fd15cb
0x000099cc 0x712daf8a
0x000099d0 0xf4e2d996
0x000099d4 0x1ae39a98
0x000099d8 0x19f6d0b3
0x000099dc 0x03079ef4
0x000099e0 0x3923edad
0x000099e4 0xed23f5c5
0x000099e8 0x3a2410df
0x000099ec 0x153be7af
0x000099f0 0x012320f4
0x000099f4 0x2213b781
0x000099f8 0xf70eefe5
0x000099fc 0x29dc9cac
0x00009a00 0xe6faf8db
0x00009a04 0x3de4d1e9
0x00009a08 0xe4f70fe4
0x00009a0c 0x1bea00fa
0x00009a10 0xf2f1faf6
0x00009a14 0xf6eaf30b
0x00009a18 0xeff2faf8
0x00009a1c 0xf9ebf20c
0x00009a20 0xebeffbfa
0x00009a24 0xfaecf40e
0x00009a28 0xeceefaf6
0x00009a2c 0xf9edf30f
0x00009a30 0xecf0fcf6
0x00009a34 0xfaecf20d
0x00009a38 0xedeffbf8
0x00009a3c 0xf9ebf30e
0x00009a40 0xedeffaf9
0x00009a44 0xf8ebf30f
0x00009a48 0xedeffaf9
0x00009a4c 0xf8ebf30f
0x00009a50 0xedeffaf9
0x00009a54 0xf8ebf30f
0x00009a58 0xedeffaf9
0x00009a5c 0xf8ebf30f
0x00009a60 0xeff0faf9
0x00009a64 0xf6ecf311
0x00009a68 0x1209e407
0x00009a6c 0xc3cc0e22
0x00009a70 0x4611b013
0x00009a74 0xb3cd2dff
0x00009a78 0x12f6e519
0x00009a7c 0x074e3cfb
0x00009a80 0x28f723db
0x00009a84 0x31683dae
0x00009a88 0x4d1f16ac
0x00009a8c 0x0419d68e
0x00009a90 0x551900bc
0x00009a94 0xb1ece688
0x00009a98 0x5931f605
0x00009a9c 0xd9e708b3
0x00009aa0 0x662de00c
0x00009aa4 0xe3135daf
0x00009aa8 0x6b14f622
0x00009aac 0x10583dc2
0x00009ab0 0x370c0717
0x00009ab4 0x0e59e89d
0x00009ab8 0x200eedf1
0x00009abc 0x251da699
0x00009ac0 0x0e05eedd
0x00009ac4 0x43e2c3ba
0x00009ac8 0xeeff00ea
0x00009acc 0x17e509e6
0x00009ad0 0xeeedfaf8
0x00009ad4 0xfbf0f30b
0x00009ad8 0xeef1faf8
0x00009adc 0xfaedf00c
0x00009ae0 0xf0effaf8
0x00009ae4 0xf8ebf20c
0x00009ae8 0xedf1fbf7
0x00009aec 0xfaecf20e
0x00009af0 0xedeefcf8
0x00009af4 0xfaeaf50e
0x00009af8 0xeeeff9f8
0x00009afc 0xf8ebf20f
0x00009b00 0xedeffaf9
0x00009b04 0xf8ebf30f
0x00009b08 0xedeffaf9
0x00009b0c 0xf8ebf30f
0x00009b10 0xedeffaf9
0x00009b14 0xf8ebf30f
0x00009b18 0xedeffaf9
0x00009b1c 0xf8ebf30f
0x00009b20 0xeeeff8fa
0x00009b24 0xf8eaf511
0x00009b28 0xfb03ed0a
0x00009b2c 0xd9dc0a2a
0x00009b30 0x1e1bd803
0x00009b34 0xacc1120d
0x00009b38 0x2301dd15
0x00009b3c 0xd6003606
0x00009b40 0x240c100d
0x00009b44 0xdd596e09
0x00009b48 0x531611ff
0x00009b4c 0xdf3021b7
0x00009b50 0x4823ec12
0x00009b54 0xdff821ad
0x00009b58 0x311c0339
0x00009b5c 0x0dff44e3
0x00009b60 0x5814d31e
0x00009b64 0xdc1f68f2
0x00009b68 0x5618f4fc
0x00009b6c 0xd76349f1
0x00009b70 0x10022be4
0x00009b74 0xfd71f8a6
0x00009b78 0xfb0c2bc3
0x00009b7c 0x454acc9a
0x00009b80 0x09fa20c8
0x00009b84 0x5afdc8a8
0x00009b88 0xfff8f9db
0x00009b8c 0x0bdef6ce
0x00009b90 0xeff1faf5
0x00009b94 0xf9edf20d
0x00009b98 0xeeeffdf9
0x00009b9c 0xfaedf50e
0x00009ba0 0xeeeff7f8
0x00009ba4 0xf7edf10d
0x00009ba8 0xeef0faf9
0x00009bac 0xfbecf20e
0x00009bb0 0xedf0faf9
0x00009bb4 0xf9ecf40e
0x00009bb8 0xedeffaf8
0x00009bbc 0xf8ebf20f
0x00009bc0 0xedeffaf9
0x00009bc4 0xf8ebf30f
0x00009bc8 0xedeffaf9
0x00009bcc 0xf8ebf30f
0x00009bd0 0xedeffaf9
0x00009bd4 0xf8ebf30f
0x00009bd8 0xedeffaf9
0x00009bdc 0xf8ebf30f
0x00009be0 0xeeeffaf8
0x00009be4 0xf8eaf30f
0x00009be8 0xf3f5ee02
0x00009bec 0xf1df041c
0x00009bf0 0xfa0fed0d
0x00009bf4 0xcade0a2a
0x00009bf8 0x0a03f610
0x00009bfc 0xd0eefe02
0x00009c00 0x0d0a011d
0x00009c04 0xe8074e27
0x00009c08 0xf90c21f0
0x00009c0c 0x07125200
0x00009c10 0xfce91d07
0x00009c14 0x121d3400
0x00009c18 0xfaff06fc
0x00009c1c 0x02213b04
0x00009c20 0x2019e3cd
0x00009c24 0xc20a36f5
0x00009c28 0x2d2beee0
0x00009c2c 0xb3262d01
0x00009c30 0xef0c2cf0
0x00009c34 0xf662f5bd
0x00009c38 0xea0b37e5
0x00009c3c 0x575eebb3
0x00009c40 0x000323b7
0x00009c44 0x5807e1a9
0x00009c48 0xf4f409c7
0x00009c4c 0x0ee1ebbf
0x00009c50 0xeef1fcf9
0x00009c54 0xfaeef10d
0x00009c58 0xeff0faf6
0x00009c5c 0xf8ecf50c
0x00009c60 0xedf0fef6
0x00009c64 0xfbedf10c
0x00009c68 0xedeffcf9
0x00009c6c 0xfbecf40e
0x00009c70 0xeeeef9f7
0x00009c74 0xf8eaf20e
0x00009c78 0xedeffaf8
0x00009c7c 0xf9ebf20f
0x00009c80 0xedeffaf9
0x00009c84 0xf8ebf30f
0x00009c88 0xedeffaf9
0x00009c8c 0xf8ebf30f
0x00009c90 0xedeffaf9
0x00009c94 0xf8ebf30f
0x00009c98 0xedeffaf9
0x00009c9c 0xf8ebf30f
0x00009ca0 0xeeeffaf9
0x00009ca4 0xf8ebf310
0x00009ca8 0xf0f2f9f6
0x00009cac 0xf4ecf411
0x00009cb0 0xf5f9eb0a
0x00009cb4 0xedda0c25
0x00009cb8 0xe50de705
0x00009cbc 0xe2dd0b1d
0x00009cc0 0xe4f9ee1a
0x00009cc4 0xf4ef1e27
0x00009cc8 0xd0080af0
0x00009ccc 0x0317240d
0x00009cd0 0xd1ed29dc
0x00009cd4 0x0c161101
0x00009cd8 0xd8f91ec7
0x00009cdc 0x01fffdf4
0x00009ce0 0x1e10e6dc
0x00009ce4 0xc1e51610
0x00009ce8 0x4723c908
0x00009cec 0xa7081614
0x00009cf0 0xfc0e0b18
0x00009cf4 0xf358efd3
0x00009cf8 0xf00a28f4
0x00009cfc 0x525cf1c4
0x00009d00 0x00041fb5
0x00009d04 0x5a08d9a7
0x00009d08 0xf3f20bc6
0x00009d0c 0x10dfeac4
0x00009d10 0xf2f0fafb
0x00009d14 0xf9ecf50f
0x00009d18 0xeff1f8f8
0x00009d1c 0xf7edf30b
0x00009d20 0xeeeffcfa
0x00009d24 0xfbedf40e
0x00009d28 0xeef0faf7
0x00009d2c 0xf8ecf40d
0x00009d30 0xedeffbf7
0x00009d34 0xf9ebf10d
0x00009d38 0xedeffaf8
0x00009d3c 0xf9ebf30f
0x00009d40 0xedeffaf9
0x00009d44 0xf8ebf30f
0x00009d48 0xedeffaf9
0x00009d4c 0xf8ebf30f
0x00009d50 0xedeffaf9
0x00009d54 0xf8ebf30f
0x00009d58 0xedeffaf9
0x00009d5c 0xf8ebf30f
0x00009d60 0xedf0faf9
0x00009d64 0xf8ebf310
0x00009d68 0xf0eef8fa
0x00009d6c 0xf9edf40d
0x00009d70 0xedf1faf6
0x00009d74 0xf7eef110
0x00009d78 0xf0edfdf7
0x00009d7c 0xf9eef10c
0x00009d80 0xedf4fbf7
0x00009d84 0xfbedee0c
0x00009d88 0xeeecfbf6
0x00009d8c 0xf9e9f20d
0x00009d90 0xeef2f8f8
0x00009d94 0xfaedf40e
0x00009d98 0xee01fbeb
0x00009d9c 0xe9fcf920
0x00009da0 0x2e0edc05
0x00009da4 0xc9f41619
0x00009da8 0x2e33ba0d
0x00009dac 0xb0020107
0x00009db0 0xeef4fc0c
0x00009db4 0xfc55d9e6
0x00009db8 0xed1228e8
0x00009dbc 0x5e66e9c8
0x00009dc0 0x020b26b0
0x00009dc4 0x5605dda3
0x00009dc8 0xf4f10fce
0x00009dcc 0x0fdfedc4
0x00009dd0 0xecf2fbf8
0x00009dd4 0xf8edf50d
0x00009dd8 0xededfaf7
0x00009ddc 0xfaecf00e
0x00009de0 0xedf0faf9
0x00009de4 0xfbeef40f
0x00009de8 0xeeeef9f8
0x00009dec 0xf8ecf20e
0x00009df0 0xeef0faf8
0x00009df4 0xf9ebf20e
0x00009df8 0xedeffaf9
0x00009dfc 0xf8ebf30f
0x00009e00 0xedeffaf9
0x00009e04 0xf8ebf30f
0x00009e08 0xedeffaf9
0x00009e0c 0xf8ebf30f
0x00009e10 0xedeffaf9
0x00009e14 0xf8ebf30f
0x00009e18 0xedeffaf9
0x00009e1c 0xf8ebf30f
0x00009e20 0xeeeffaf9
0x00009e24 0xf9ebf30f
0x00009e28 0xf0f1f7f7
0x00009e2c 0xf5e7f50f
0x00009e30 0xf2f0f6fa
0x00009e34 0xf6eef610
0x00009e38 0xeef1fbf8
0x00009e3c 0xf7f2f40d
0x00009e40 0xf1f2fcf9
0x00009e44 0xfbedf109
0x00009e48 0xedf2f9f8
0x00009e4c 0xf9ecf00a
0x00009e50 0xefeefbf7
0x00009e54 0xfaeaf30c
0x00009e58 0xfffbe8ee
0x00009e5c 0xf80a0517
0x00009e60 0x2211e4f5
0x00009e64 0xd0020517
0x00009e68 0x371fc60a
0x00009e6c 0xb3f1dce0
0x00009e70 0xf50be5f7
0x00009e74 0xf944d0e5
0x00009e78 0xfc0444d6
0x00009e7c 0x6a5b0ec2
0x00009e80 0x0e1b34c3
0x00009e84 0x5207fb91
0x00009e88 0xfae905d6
0x00009e8c 0xfdd6f1c6
0x00009e90 0xeef0fbf6
0x00009e94 0xfaeef20c
0x00009e98 0xedf1fcf8
0x00009e9c 0xfaedf00e
0x00009ea0 0xedeffbf6
0x00009ea4 0xf9eaf40d
0x00009ea8 0xecf0fcf6
0x00009eac 0xfaecf20e
0x00009eb0 0xedeefcf8
0x00009eb4 0xf9ebf40f
0x00009eb8 0xeeeff9f8
0x00009ebc 0xf8ebf20f
0x00009ec0 0xedeffaf9
0x00009ec4 0xf8ebf30f
0x00009ec8 0xedeffaf9
0x00009ecc 0xf8ebf30f
0x00009ed0 0xedeffaf9
0x00009ed4 0xf8ebf30f
0x00009ed8 0xedeffaf9
0x00009edc 0xf8ebf30f
0x00009ee0 0xeef0faf8
0x00009ee4 0xf7ecf310
0x00009ee8 0xf0f0fbfb
0x00009eec 0xf5edf211
0x00009ef0 0xf2f1f6f9
0x00009ef4 0xf6e8f30b
0x00009ef8 0xeeeef9fa
0x00009efc 0xfbf1f611
0x00009f00 0xf0f0fcf9
0x00009f04 0xf9f1f50e
0x00009f08 0xf3f2f9f7
0x00009f0c 0xf8edf00a
0x00009f10 0xedf2fcfa
0x00009f14 0xf9eff30d
0x00009f18 0x13fed7e2
0x00009f1c 0xeaf80a05
0x00009f20 0x2f14d9fe
0x00009f24 0xc2170b27
0x00009f28 0x2f2dda09
0x00009f2c 0x9b01d8da
0x00009f30 0x0f19e30a
0x00009f34 0x102fd1c2
0x00009f38 0xef0738f3
0x00009f3c 0x7e5631cc
0x00009f40 0x0c0830c7
0x00009f44 0x3c0915a4
0x00009f48 0x02edf8e0
0x00009f4c 0xf3e6dfd1
0x00009f50 0xedf1f9f8
0x00009f54 0xf8ecf40b
0x00009f58 0xefeff9f8
0x00009f5c 0xf9ecf20f
0x00009f60 0xedf1faf8
0x00009f64 0xfaedf20c
0x00009f68 0xedeffbf9
0x00009f6c 0xfaebf30e
0x00009f70 0xedeffaf8
0x00009f74 0xf9ebf30f
0x00009f78 0xedeffbf8
0x00009f7c 0xf9ebf20f
0x00009f80 0xedeffaf9
0x00009f84 0xf8ebf30f
0x00009f88 0xedeffaf9
0x00009f8c 0xf8ebf30f
0x00009f90 0xedeffaf9
0x00009f94 0xf8ebf30f
0x00009f98 0xedeffaf9
0x00009f9c 0xf8ebf30f
0x00009fa0 0xeff4f9f5
0x00009fa4 0xf4f1f515
0x00009fa8 0xefeefdfe
0x00009fac 0xfaedf10f
0x00009fb0 0xe7f6f6fa
0x00009fb4 0xf6ebeb0b
0x00009fb8 0xece8f4f9
0x00009fbc 0xfbecee15
0x00009fc0 0xecf7fcf1
0x00009fc4 0xfcf6f810
0x00009fc8 0xefec01f9
0x00009fcc 0xfef1f108
0x00009fd0 0xf006f6ea
0x00009fd4 0xe7fff81f
0x00009fd8 0x2500ecf0
0x00009fdc 0xdb08f500
0x00009fe0 0x3526bd12
0x00009fe4 0xbc04fa0f
0x00009fe8 0x0516e009
0x00009fec 0xc429d5f8
0x00009ff0 0x04150efe
0x00009ff4 0x4842ceb6
0x00009ff8 0x020627e9
0x00009ffc 0x763721c7
0x0000a000 0xf6f92bbf
0x0000a004 0x25091aba
0x0000a008 0xf7e901d4
0x0000a00c 0xf1e6d5e4
0x0000a010 0xefeffcf8
0x0000a014 0xf9eef30d
0x0000a018 0xf0f0fbfa
0x0000a01c 0xfbeef30d
0x0000a020 0xeeeffaf7
0x0000a024 0xf9ebf30c
0x0000a028 0xeeeffbf9
0x0000a02c 0xf9ecf30e
0x0000a030 0xeeeff9f8
0x0000a034 0xf8ebf20e
0x0000a038 0xedeffaf8
0x0000a03c 0xf8ebf30f
0x0000a040 0xedeffaf9
0x0000a044 0xf8ebf30f
0x0000a048 0xedeffaf9
0x0000a04c 0xf8ebf30f
0x0000a050 0xedeffaf9
0x0000a054 0xf8ebf30f
0x0000a058 0xedeffaf9
0x0000a05c 0xf8ebf30f
0x0000a060 0xf5fbf3ef
0x0000a064 0xeffafc1a
0x0000a068 0xee020af0
0x0000a06c 0xed10eb21
0x0000a070 0xe6fe0703
0x0000a074 0xf802d003
0x0000a078 0xcbf6e801
0x0000a07c 0x0cf0b80b
0x0000a080 0xcdece3e5
0x0000a084 0x0ffad026
0x0000a088 0xe102fcdf
0x0000a08c 0x0218dc2f
0x0000a090 0xf8fdf5f9
0x0000a094 0x0d1ee101
0x0000a098 0x001bcef6
0x0000a09c 0xdc09d614
0x0000a0a0 0x2705b6fa
0x0000a0a4 0xc7f3b9f0
0x0000a0a8 0xf425d6f4
0x0000a0ac 0x033bd5f4
0x0000a0b0 0xf70b45d9
0x0000a0b4 0x665a0fbb
0x0000a0b8 0x0f1338d7
0x0000a0bc 0x5b18119a
0x0000a0c0 0xf2f911be
0x0000a0c4 0xfee40dc0
0x0000a0c8 0xe7e910e5
0x0000a0cc 0xfbefe6fe
0x0000a0d0 0xeff0f9f9
0x0000a0d4 0xf7edf50d
0x0000a0d8 0xeef2fcf7
0x0000a0dc 0xfaedf50c
0x0000a0e0 0xedeffcf9
0x0000a0e4 0xfaedf30d
0x0000a0e8 0xedeffaf7
0x0000a0ec 0xf9ecf30f
0x0000a0f0 0xedeffbf8
0x0000a0f4 0xf9ebf10e
0x0000a0f8 0xedeffaf9
0x0000a0fc 0xf8ebf30f
0x0000a100 0xedeffaf9
0x0000a104 0xf8ebf30f
0x0000a108 0xedeffaf9
0x0000a10c 0xf8ebf30f
0x0000a110 0xedeffaf9
0x0000a114 0xf8ebf30f
0x0000a118 0xedeffaf9
0x0000a11c 0xf8ebf30f
0x0000a120 0x00e8e7f8
0x0000a124 0x00ecfcfe
0x0000a128 0xfef0e4ed
0x0000a12c 0x0310fa0d
0x0000a130 0xfafd0bd1
0x0000a134 0xf126d701
0x0000a138 0xfd161dd9
0x0000a13c 0xfb13a5e9
0x0000a140 0xe90f00e2
0x0000a144 0x14ffb1e3
0x0000a148 0xcef7eede
0x0000a14c 0x3014bc02
0x0000a150 0xdef5e2c3
0x0000a154 0x1e18a6f0
0x0000a158 0x1c08c0e7
0x0000a15c 0xed04a7fd
0x0000a160 0x2139c5d2
0x0000a164 0xbcf9bde1
0x0000a168 0x241211f1
0x0000a16c 0x2a2cfeb4
0x0000a170 0x052447ff
0x0000a174 0x6e4f58b3
0x0000a178 0x0efb31d4
0x0000a17c 0x2bfe1fa1
0x0000a180 0x00edf7e0
0x0000a184 0xf0e7e2d4
0x0000a188 0xeff1fbf7
0x0000a18c 0xf8eaf50c
0x0000a190 0xeeeffbf8
0x0000a194 0xfaedf50d
0x0000a198 0xeeeefcfa
0x0000a19c 0xfaeef40f
0x0000a1a0 0xf0eff9f7
0x0000a1a4 0xf7ebf10c
0x0000a1a8 0xedf0fbf8
0x0000a1ac 0xf9ebf20e
0x0000a1b0 0xedeffbf8
0x0000a1b4 0xf9ebf30f
0x0000a1b8 0xeeeffaf8
0x0000a1bc 0xf8ebf30f
0x0000a1c0 0xedeffaf9
0x0000a1c4 0xf8ebf30f
0x0000a1c8 0xedeffaf9
0x0000a1cc 0xf8ebf30f
0x0000a1d0 0xedeffaf9
0x0000a1d4 0xf8ebf30f
0x0000a1d8 0xedeffaf9
0x0000a1dc 0xf8ebf30f
0x0000a1e0 0x01f9f0f2
0x0000a1e4 0xe1ddf909
0x0000a1e8 0x24f4d0fa
0x0000a1ec 0xdbe10efe
0x0000a1f0 0x1ef2d202
0x0000a1f4 0xf2201ef8
0x0000a1f8 0x1df7f2f5
0x0000a1fc 0x1133f7c9
0x0000a200 0x350aedd8
0x0000a204 0x1303c996
0x0000a208 0x3e0de6cc
0x0000a20c 0x0be6d99e
0x0000a210 0x4214f7cc
0x0000a214 0xd8fef1c0
0x0000a218 0x6331f3e7
0x0000a21c 0xb3e006bc
0x0000a220 0x5144fb10
0x0000a224 0xdff92bb0
0x0000a228 0x1c152f25
0x0000a22c 0x462f4fa1
0x0000a230 0x14fc2d08
0x0000a234 0x493055c3
0x0000a238 0x01f415d2
0x0000a23c 0x080d0dc9
0x0000a240 0xf6e802d7
0x0000a244 0xf0e5d9e9
0x0000a248 0xedf0fbf9
0x0000a24c 0xf8ecf40f
0x0000a250 0xefeefafa
0x0000a254 0xf8ecf40e
0x0000a258 0xeef0faf7
0x0000a25c 0xf8ecf610
0x0000a260 0xedeffcf8
0x0000a264 0xf8edf30d
0x0000a268 0xeeeffaf9
0x0000a26c 0xf9ebf30e
0x0000a270 0xedf0faf9
0x0000a274 0xf9ebf40e
0x0000a278 0xedeffaf8
0x0000a27c 0xf8ebf30f
0x0000a280 0xedeffaf9
0x0000a284 0xf8ebf30f
0x0000a288 0xedeffaf9
0x0000a28c 0xf8ebf30f
0x0000a290 0xedeffaf9
0x0000a294 0xf8ebf30f
0x0000a298 0xedeffaf9
0x0000a29c 0xf8ebf30f
0x0000a2a0 0xf9faf902
0x0000a2a4 0xe1e9f81c
0x0000a2a8 0x1704eefe
0x0000a2ac 0xc7daf503
0x0000a2b0 0x2dfee405
0x0000a2b4 0xd0e71d03
0x0000a2b8 0x2ffef506
0x0000a2bc 0xe7204803
0x0000a2c0 0x4e05f50e
0x0000a2c4 0xdb282edd
0x0000a2c8 0x7121ce18
0x0000a2cc 0xb90214b6
0x0000a2d0 0x702dbc37
0x0000a2d4 0xbaf03ecd
0x0000a2d8 0x4534e841
0x0000a2dc 0xdf1b57dc
0x0000a2e0 0x3210033f
0x0000a2e4 0x1e2555c5
0x0000a2e8 0x0d08190d
0x0000a2ec 0x34404ad0
0x0000a2f0 0xfee722e5
0x0000a2f4 0x172221d8
0x0000a2f8 0xeef709bd
0x0000a2fc 0xf1f5ece0
0x0000a300 0xe4e710e5
0x0000a304 0xfcede7ff
0x0000a308 0xedeffaf8
0x0000a30c 0xf8ebf40f
0x0000a310 0xedeffbf8
0x0000a314 0xf7ebf30f
0x0000a318 0xeeeffaf9
0x0000a31c 0xf8ebf30f
0x0000a320 0xedeffaf8
0x0000a324 0xf9ecf40f
0x0000a328 0xedeefbf9
0x0000a32c 0xf9ecf30f
0x0000a330 0xeeeff9f8
0x0000a334 0xf8ebf20f
0x0000a338 0xedeffaf9
0x0000a33c 0xf8ebf30f
0x0000a340 0xedeffaf9
0x0000a344 0xf8ebf30f
0x0000a348 0xedeffaf9
0x0000a34c 0xf8ebf30f
0x0000a350 0xedeffaf9
0x0000a354 0xf8ebf30f
0x0000a358 0xedeffaf9
0x0000a35c 0xf8ebf30f
0x0000a360 0xf2f6ee02
0x0000a364 0xf0dd051e
0x0000a368 0xf30aeb09
0x0000a36c 0xd7dc0c26
0x0000a370 0xff07f517
0x0000a374 0xd0ef0c18
0x0000a378 0x0305080b
0x0000a37c 0xe70f280a
0x0000a380 0x050127f6
0x0000a384 0xfa1b3f07
0x0000a388 0x1c011ff9
0x0000a38c 0xeb0932fd
0x0000a390 0x29ff0211
0x0000a394 0xe80331f9
0x0000a398 0x12fc0115
0x0000a39c 0x051b5306
0x0000a3a0 0xeef429eb
0x0000a3a4 0x1a4139ef
0x0000a3a8 0xf3e525da
0x0000a3ac 0x122112e6
0x0000a3b0 0xe6f90fbe
0x0000a3b4 0xf6f9f4e5
0x0000a3b8 0xe2e613e1
0x0000a3bc 0xfdece4fc
0x0000a3c0 0xedeffaf8
0x0000a3c4 0xf8ebf30f
0x0000a3c8 0xedeffaf8
0x0000a3cc 0xf8ebf30f
0x0000a3d0 0xedeff9f9
0x0000a3d4 0xf8eaf410
0x0000a3d8 0xedeffaf9
0x0000a3dc 0xf8ebf30f
0x0000a3e0 0xedeffaf9
0x0000a3e4 0xf9ecf310
0x0000a3e8 0xedeffaf8
0x0000a3ec 0xf8ecf40f
0x0000a3f0 0xedeffbf8
0x0000a3f4 0xf8ebf20f
0x0000a3f8 0xedeffaf8
0x0000a3fc 0xf8ebf30f
0x0000a400 0x0dfd11ee
0x0000a404 0x00000000
0x0000a408 0x0dfd11ee
0x0000a40c 0x00000000
0x0000a410 0x0dfd11ee
0x0000a414 0x00000000
0x0000a418 0x0dfd11ee
0x0000a41c 0x00000000
0x0000a420 0x0efd12ef
0x0000a424 0x00000000
0x0000a428 0x0cfc12ef
0x0000a42c 0x00000000
0x0000a430 0x0cfc11ed
0x0000a434 0x00000000
0x0000a438 0x0dfd11f1
0x0000a43c 0x00000000
0x0000a440 0x0afe0eed
0x0000a444 0x00000000
0x0000a448 0x0dfd10f2
0x0000a44c 0x00000000
0x0000a450 0x0bff11ef
0x0000a454 0x00000000
0x0000a458 0x0afb0ff0
0x0000a45c 0x00000000
0x0000a460 0x0ffc12f0
0x0000a464 0x00000000
0x0000a468 0x0cfd0def
0x0000a46c 0x00000000
0x0000a470 0x0dfc0eef
0x0000a474 0x00000000
0x0000a478 0x0bfc10f0
0x0000a47c 0x00000000
0x0000a480 0x0efd11f0
0x0000a484 0x00000000
0x0000a488 0x0cfd11f0
0x0000a48c 0x00000000
0x0000a490 0x0dfc11ef
0x0000a494 0x00000000
0x0000a498 0x0cfd12ef
0x0000a49c 0x00000000
0x0000a4a0 0x0dfd11ef
0x0000a4a4 0x00000000
0x0000a4a8 0x0dfd11f0
0x0000a4ac 0x00000000
0x0000a4b0 0x0dfd11ef
0x0000a4b4 0x00000000
0x0000a4b8 0x0dfc11ee
0x0000a4bc 0x00000000
0x0000a4c0 0x0dfd11ee
0x0000a4c4 0x00000000
0x0000a4c8 0x0dfd11ee
0x0000a4cc 0x00000000
0x0000a4d0 0x0dfd11ee
0x0000a4d4 0x00000000
0x0000a4d8 0x0dfd11ee
0x0000a4dc 0x00000000
0x0000a4e0 0x0bfd13ee
0x0000a4e4 0x00000000
0x0000a4e8 0x09fd10ee
0x0000a4ec 0x00000000
0x0000a4f0 0x0dfe0ef1
0x0000a4f4 0x00000000
0x0000a4f8 0x0a0111f2
0x0000a4fc 0x00000000
0x0000a500 0x0dfc0fee
0x0000a504 0x00000000
0x0000a508 0x0cfe12f1
0x0000a50c 0x00000000
0x0000a510 0xf80529eb
0x0000a514 0x00000000
0x0000a518 0xe4041dd5
0x0000a51c 0x00000000
0x0000a520 0xf11307f0
0x0000a524 0x00000000
0x0000a528 0xe831f8ef
0x0000a52c 0x00000000
0x0000a530 0xed2beae5
0x0000a534 0x00000000
0x0000a538 0xf92adbea
0x0000a53c 0x00000000
0x0000a540 0x0b25dbf5
0x0000a544 0x00000000
0x0000a548 0x091aeeee
0x0000a54c 0x00000000
0x0000a550 0x0b0401e5
0x0000a554 0x00000000
0x0000a558 0x0efc0cea
0x0000a55c 0x00000000
0x0000a560 0x0dfd0ff0
0x0000a564 0x00000000
0x0000a568 0x0dfe11ef
0x0000a56c 0x00000000
0x0000a570 0x0dfc11ef
0x0000a574 0x00000000
0x0000a578 0x0dfd11ef
0x0000a57c 0x00000000
0x0000a580 0x0dfd11ee
0x0000a584 0x00000000
0x0000a588 0x0dfd11ee
0x0000a58c 0x00000000
0x0000a590 0x0dfd11ee
0x0000a594 0x00000000
0x0000a598 0x0dfd11ee
0x0000a59c 0x00000000
0x0000a5a0 0x0cfe11f0
0x0000a5a4 0x00000000
0x0000a5a8 0x0dfe13ef
0x0000a5ac 0x00000000
0x0000a5b0 0x0bfc12f1
0x0000a5b4 0x00000000
0x0000a5b8 0x09fd16ef
0x0000a5bc 0x00000000
0x0000a5c0 0xf60327e8
0x0000a5c4 0x00000000
0x0000a5c8 0xe60518d9
0x0000a5cc 0x00000000
0x0000a5d0 0xde3003f9
0x0000a5d4 0x00000000
0x0000a5d8 0xc959eff6
0x0000a5dc 0x00000000
0x0000a5e0 0xb45dea0d
0x0000a5e4 0x00000000
0x0000a5e8 0xc55bf12a
0x0000a5ec 0x00000000
0x0000a5f0 0xc75cef3a
0x0000a5f4 0x00000000
0x0000a5f8 0xd139002b
0x0000a5fc 0x00000000
0x0000a600 0xe8181523
0x0000a604 0x00000000
0x0000a608 0xfb081316
0x0000a60c 0x00000000
0x0000a610 0x05050a01
0x0000a614 0x00000000
0x0000a618 0x09ff0df2
0x0000a61c 0x00000000
0x0000a620 0x0bfc10ee
0x0000a624 0x00000000
0x0000a628 0x0ffd10f0
0x0000a62c 0x00000000
0x0000a630 0x0cfe0fef
0x0000a634 0x00000000
0x0000a638 0x0efc11ee
0x0000a63c 0x00000000
0x0000a640 0x0dfd11ee
0x0000a644 0x00000000
0x0000a648 0x0dfd11ee
0x0000a64c 0x00000000
0x0000a650 0x0dfd11ee
0x0000a654 0x00000000
0x0000a658 0x0dfd11ee
0x0000a65c 0x00000000
0x0000a660 0x0efd13ef
0x0000a664 0x00000000
0x0000a668 0x0cfa0df0
0x0000a66c 0x00000000
0x0000a670 0xf6062dea
0x0000a674 0x00000000
0x0000a678 0xe0021ad7
0x0000a67c 0x00000000
0x0000a680 0xdd3405f9
0x0000a684 0x00000000
0x0000a688 0xcb55eafe
0x0000a68c 0x00000000
0x0000a690 0xd45bf025
0x0000a694 0x00000000
0x0000a698 0xde4df548
0x0000a69c 0x00000000
0x0000a6a0 0xc931fa4b
0x0000a6a4 0x00000000
0x0000a6a8 0xd3fffb65
0x0000a6ac 0x00000000
0x0000a6b0 0xf604fb73
0x0000a6b4 0x00000000
0x0000a6b8 0xfafee759
0x0000a6bc 0x00000000
0x0000a6c0 0x00ffeb39
0x0000a6c4 0x00000000
0x0000a6c8 0x0a03f922
0x0000a6cc 0x00000000
0x0000a6d0 0x170a080a
0x0000a6d4 0x00000000
0x0000a6d8 0x12050ef8
0x0000a6dc 0x00000000
0x0000a6e0 0x0bfe10ef
0x0000a6e4 0x00000000
0x0000a6e8 0x0dfb11f0
0x0000a6ec 0x00000000
0x0000a6f0 0x0efd11f0
0x0000a6f4 0x00000000
0x0000a6f8 0x0efc11ee
0x0000a6fc 0x00000000
0x0000a700 0x0dfd11ee
0x0000a704 0x00000000
0x0000a708 0x0dfd11ee
0x0000a70c 0x00000000
0x0000a710 0x0dfd11ee
0x0000a714 0x00000000
0x0000a718 0x0dfd11ee
0x0000a71c 0x00000000
0x0000a720 0x0bfb0ff0
0x0000a724 0x00000000
0x0000a728 0xf7042be9
0x0000a72c 0x00000000
0x0000a730 0xd31b20db
0x0000a734 0x00000000
0x0000a738 0xdd38f2fc
0x0000a73c 0x00000000
0x0000a740 0xda5afc31
0x0000a744 0x00000000
0x0000a748 0xe23ffc42
0x0000a74c 0x00000000
0x0000a750 0xc303e45b
0x0000a754 0x00000000
0x0000a758 0xc0d3e57d
0x0000a75c 0x00000000
0x0000a760 0xedc6c36f
0x0000a764 0x00000000
0x0000a768 0xe4d0a552
0x0000a76c 0x00000000
0x0000a770 0xfdc3b62a
0x0000a774 0x00000000
0x0000a778 0x14d7d00b
0x0000a77c 0x00000000
0x0000a780 0x2ee5e4e9
0x0000a784 0x00000000
0x0000a788 0x22f4f3db
0x0000a78c 0x00000000
0x0000a790 0x17f104da
0x0000a794 0x00000000
0x0000a798 0x13f610ea
0x0000a79c 0x00000000
0x0000a7a0 0x0efd0ff0
0x0000a7a4 0x00000000
0x0000a7a8 0x0dfd10ef
0x0000a7ac 0x00000000
0x0000a7b0 0x0dfb10ee
0x0000a7b4 0x00000000
0x0000a7b8 0x0ffd11ef
0x0000a7bc 0x00000000
0x0000a7c0 0x0dfd11ee
0x0000a7c4 0x00000000
0x0000a7c8 0x0dfd11ee
0x0000a7cc 0x00000000
0x0000a7d0 0x0dfd11ee
0x0000a7d4 0x00000000
0x0000a7d8 0x0dfd11ee
0x0000a7dc 0x00000000
0x0000a7e0 0x0dfb11f0
0x0000a7e4 0x00000000
0x0000a7e8 0xe6212eef
0x0000a7ec 0x00000000
0x0000a7f0 0xce2e2be8
0x0000a7f4 0x00000000
0x0000a7f8 0xdd22e92d
