0xc0081000 0x0a1812f3
0xc0081004 0x0abff6d5
0xc0081008 0x0ebaf7b0
0xc008100c 0xfd1c1655
0xc0081010 0x06b8fe94
0xc0081014 0xff980baf
0xc0081018 0x22741407
0xc008101c 0x00900973
0xc0026000 0x000e1f18
0xc0026004 0x00000000
0xc0026008 0x0010221a
0xc002600c 0x00000000
0xc0026010 0x0014261e
0xc0026014 0x00000000
0xc0080000 0x23050f02
0xc0080004 0xf14404ec
0xc0026018 0x00102317
0xc002601c 0x00000000
0xc0080008 0xfdfb01d7
0xc008000c 0x07050102
0xc0026020 0x00112011
0xc0026024 0x00000000
0xc0080010 0xe611f50a
0xc0080014 0x04020401
0xc0026028 0x00142410
0xc002602c 0x00000000
0xc0080018 0x130b0b02
0xc008001c 0xe228dbc5
0xc0026030 0x00061a00
0xc0026034 0x00000000
0xc0080020 0xfffc000f
0xc0080024 0x18050303
0xc0026038 0x000c2005
0xc002603c 0x00000000
0xc0080028 0xe3120316
0xc008002c 0xf7f5f7de
0xc0026040 0x0024331d
0xc0026044 0x00000000
0xc0080030 0x30f3eaf7
0xc0080034 0xecf1dfee
0xc0026048 0x000d1c05
0xc002604c 0x00000000
0xc0080038 0x0b020421
0xc008003c 0x02fbfdfb
0xc0026050 0x00172b0c
0xc0026054 0x00000000
0xc0080040 0x0217fff6
0xc0080044 0xf7f6f8ee
0xc0026058 0x00132705
0xc002605c 0x00000000
0xc0080048 0x2413190c
0xc008004c 0xfb3c3205
0xc0026060 0x00132304
0xc0026064 0x00000000
0xc0080050 0xeaf0f2ce
0xc0080054 0xe4090406
0xc0083000 0x0cbf03ff
0xc0083004 0x18c716df
0xc0026068 0x00101f03
0xc002606c 0x00000000
0xc0080058 0xdfdef4f9
0xc008005c 0x020202f7
0xc0083008 0xefd9fc35
0xc008300c 0xf5d3ff61
0xc0026070 0x0013240b
0xc0026074 0x00000000
0xc0080060 0x250a0700
0xc0080064 0xc8e918ee
0xc0083010 0x391f218a
0xc0083014 0x076bf4c1
0xc0026078 0x0013250e
0xc002607c 0x00000000
0xc0080068 0xe7e9e8ea
0xc008006c 0x00080507
0xc0083018 0x094e2dd2
0xc008301c 0xd3ea19c3
0xc0026080 0x0014240f
0xc0026084 0x00000000
0xc0080070 0x0519110d
0xc0080074 0xf4f8f80a
0xc0026088 0x00172a11
0xc002608c 0x00000000
0xc0080078 0x15e5dde6
0xc008007c 0xf4cbe9e4
0xc0026090 0x000d2806
0xc0026094 0x00000000
0xc0080080 0x0601fd2f
0xc0080084 0xf6020100
0xc0026098 0x00183911
0xc002609c 0x00000000
0xc0080088 0x313408f5
0xc008008c 0xfc02001e
0xc00260a0 0x0046683e
0xc00260a4 0x00000000
0xc0080090 0xdc0f120b
0xc0080094 0x131121ec
0xc00260a8 0x0016320f
0xc00260ac 0x00000000
0xc0080098 0x001215dc
0xc008009c 0xff040204
0xc00260b0 0x00091902
0xc00260b4 0x00000000
0xc00800a0 0x0ff50618
0xc00800a4 0x0102fe1f
0xc00260b8 0x0015210d
0xc00260bc 0x00000000
0xc00800a8 0xe3fffe00
0xc00800ac 0xfddc18df
0xc00260c0 0x0014230a
0xc00260c4 0x00000000
0xc00800b0 0xff0c0904
0xc00800b4 0xdf010103
0xc00260c8 0x002e3e27
0xc00260cc 0x00000000
0xc00800b8 0xe3cff5f1
0xc00800bc 0xf80000fb
0xc00260d0 0x000c1a0a
0xc00260d4 0x00000000
0xc00800c0 0x06eff0fc
0xc00800c4 0x16c20ffa
0xc00260d8 0x000b190a
0xc00260dc 0x00000000
0xc00800c8 0x110e0440
0xc00800cc 0xfb00feff
0xc00260e0 0x00304329
0xc00260e4 0x00000000
0xc00800d0 0x06eb0e03
0xc00800d4 0x0009060c
0xc00260e8 0x00162a0c
0xc00260ec 0x00000000
0xc00800d8 0xfefe080e
0xc00800dc 0x050cf61a
0xc00260f0 0x0014270d
0xc00260f4 0x00000000
0xc00800e0 0xfffc0203
0xc00800e4 0x1cfd110b
0xc00260f8 0x00203319
0xc00260fc 0x00000000
0xc00800e8 0x13142f0f
0xc00800ec 0x0e100bff
0xc0026100 0x000f2018
0xc0026104 0x00000000
0xc00800f0 0xf1fcf9fa
0xc00800f4 0xfdfcf524
0xc0026108 0x0013241b
0xc002610c 0x00000000
0xc00800f8 0x08fcf905
0xc00800fc 0xd8030b07
0xc0026110 0x00112317
0xc0026114 0x00000000
0xc0080100 0xfb05e7e2
0xc0080104 0x14190fee
0xc0026118 0x00132516
0xc002611c 0x00000000
0xc0080108 0xe8f4ebed
0xc008010c 0xfc05f00b
0xc0026120 0x0020301d
0xc0026124 0x00000000
0xc0080110 0x04fafafe
0xc0080114 0xe4020504
0xc0026128 0x000f2009
0xc002612c 0x00000000
0xc0080118 0x0b1d0c03
0xc008011c 0x080d0400
0xc0026130 0x00304328
0xc0026134 0x00000000
0xc0080120 0xe1070708
0xc0080124 0x07fbf617
0xc0026138 0x00182c0e
0xc002613c 0x00000000
0xc0080128 0x07fafa18
0xc008012c 0xcf0c1112
0xc0026140 0x0014270c
0xc0026144 0x00000000
0xc0080130 0x1212b7a6
0xc0080134 0xf9f9ff08
0xc0026148 0x00293c20
0xc002614c 0x00000000
0xc0080138 0xe5160802
0xc008013c 0xfeeaf82f
0xc0026150 0x00192f0c
0xc0026154 0x00000000
0xc0080140 0x1a03f818
0xc0080144 0x7f0e090f
0xc0026158 0x00182b09
0xc002615c 0x00000000
0xc0080148 0xebef3953
0xc008014c 0xff0101e7
0xc0026160 0x00424c30
0xc0026164 0x00000000
0xc0080150 0xe20efcf4
0xc0080154 0xfaf6f214
0xc0026168 0x00131b03
0xc002616c 0x00000000
0xc0080158 0x0efaf30b
0xc008015c 0x04040108
0xc0026170 0x00132209
0xc0026174 0x00000000
0xc0080160 0xeef7f6ef
0xc0080164 0x000605ee
0xc0026178 0x00162910
0xc002617c 0x00000000
0xc0080168 0xeb02ff05
0xc008016c 0xfdebf917
0xc0026180 0x00162812
0xc0026184 0x00000000
0xc0080170 0x05f9f710
0xc0080174 0x0df2eaf1
0xc0026188 0x0011250b
0xc002618c 0x00000000
0xc0080178 0x01f0f8e7
0xc008017c 0xebeaf209
0xc0026190 0x001a3513
0xc0026194 0x00000000
0xc0080180 0xe61002fe
0xc0080184 0xfce2e621
0xc0026198 0x00203f18
0xc002619c 0x00000000
0xc0080188 0x14fff217
0xc008018c 0x27ebdee6
0xc00261a0 0x0013310a
0xc00261a4 0x00000000
0xc0080190 0x0bf92207
0xc0080194 0xefeff10e
0xc00261a8 0x002c4523
0xc00261ac 0x00000000
0xc0080198 0x041303fb
0xc008019c 0xfdf3f125
0xc00261b0 0x00112309
0xc00261b4 0x00000000
0xc00801a0 0x0cf8f10f
0xc00801a4 0xdef8f1ff
0xc00261b8 0x00112008
0xc00261bc 0x00000000
0xc00801a8 0x03f9f5da
0xc00801ac 0xf5f8f70f
0xc00261c0 0x00182b0f
0xc00261c4 0x00000000
0xc00261c8 0x002a3c22
0xc00261cc 0x00000000
0xc00261d0 0x000c1c09
0xc00261d4 0x00000000
0xc00261d8 0x000d1d0c
0xc00261dc 0x00000000
0xc00261e0 0x00394c32
0xc00261e4 0x00000000
0xc00261e8 0x001f3315
0xc00261ec 0x00000000
0xc00261f0 0x000f2406
0xc00261f4 0x00000000
0xc00261f8 0x002a3e20
0xc00261fc 0x00000000
0xc0026200 0x000b1e15
0xc0026204 0x00000000
0xc0026208 0x000e2013
0xc002620c 0x00000000
0xc0026210 0x001b2b19
0xc0026214 0x00000000
0xc0026218 0x0015230d
0xc002621c 0x00000000
0xc0026220 0x0013220b
0xc0026224 0x00000000
0xc0026228 0x0017280d
0xc002622c 0x00000000
0xc0026230 0x001b2e10
0xc0026234 0x00000000
0xc0026238 0x00435936
0xc002623c 0x00000000
0xc0026240 0x00102a04
0xc0026244 0x00000000
0xc0026248 0x00203a12
0xc002624c 0x00000000
0xc0026250 0x00223b14
0xc0026254 0x00000000
0xc0026258 0x00273615
0xc002625c 0x00000000
0xc0026260 0x00504c38
0xc0026264 0x00000000
0xc0026268 0x00797462
0xc002626c 0x00000000
0xc0026270 0x00212f15
0xc0026274 0x00000000
0xc0026278 0x0013280c
0xc002627c 0x00000000
0xc0026280 0x00142911
0xc0026284 0x00000000
0xc0026288 0x000e240a
0xc002628c 0x00000000
0xc0026290 0x0015300e
0xc0026294 0x00000000
0xc0026298 0x001c3711
0xc002629c 0x00000000
0xc00262a0 0x000c2300
0xc00262a4 0x00000000
0xc00262a8 0x00617553
0xc00262ac 0x00000000
0xc00262b0 0x002e4223
0xc00262b4 0x00000000
0xc00262b8 0x00283d1d
0xc00262bc 0x00000000
0xc00262c0 0x001e3714
0xc00262c4 0x00000000
0xc00262c8 0x00233c1b
0xc00262cc 0x00000000
0xc00262d0 0x00162a12
0xc00262d4 0x00000000
0xc00262d8 0x001a2c17
0xc00262dc 0x00000000
0xc00262e0 0x00283b23
0xc00262e4 0x00000000
0xc00262e8 0x001b2f12
0xc00262ec 0x00000000
0xc00262f0 0x00162d09
0xc00262f4 0x00000000
0xc00262f8 0x003b552e
0xc00262fc 0x00000000
0xc0026300 0x00091a0f
0xc0026304 0x00000000
0xc0026308 0x00091a0b
0xc002630c 0x00000000
0xc0026310 0x0022301c
0xc0026314 0x00000000
0xc0026318 0x00243218
0xc002631c 0x00000000
0xc0026320 0x002d3c22
0xc0026324 0x00000000
0xc0026328 0x00142408
0xc002632c 0x00000000
0xc0026330 0x000f2102
0xc0026334 0x00000000
0xc0026338 0x00354a28
0xc002633c 0x00000000
0xc0026340 0x00254019
0xc0026344 0x00000000
0xc0026348 0x001c390f
0xc002634c 0x00000000
0xc0026350 0x00163109
0xc0026354 0x00000000
0xc0026358 0x00374424
0xc002635c 0x00000000
0xc0026360 0x00544a3a
0xc0026364 0x00000000
0xc0026368 0x005d5042
0xc002636c 0x00000000
0xc0026370 0x00323921
0xc0026374 0x00000000
0xc0026378 0x001b2d11
0xc002637c 0x00000000
0xc0026380 0x0034472d
0xc0026384 0x00000000
0xc0026388 0x001d3318
0xc002638c 0x00000000
0xc0026390 0x00142b0b
0xc0026394 0x00000000
0xc0026398 0x00233716
0xc002639c 0x00000000
0xc00263a0 0x00525e40
0xc00263a4 0x00000000
0xc00263a8 0x004c5839
0xc00263ac 0x00000000
0xc00263b0 0x002f4320
0xc00263b4 0x00000000
0xc00263b8 0x000b2400
0xc00263bc 0x00000000
0xc00263c0 0x0036522b
0xc00263c4 0x00000000
0xc00263c8 0x00233f1b
0xc00263cc 0x00000000
0xc00263d0 0x00253d20
0xc00263d4 0x00000000
0xc00263d8 0x002c4128
0xc00263dc 0x00000000
0xc00263e0 0x0012250c
0xc00263e4 0x00000000
0xc00263e8 0x00304327
0xc00263ec 0x00000000
0xc00263f0 0x003a522d
0xc00263f4 0x00000000
0xc00263f8 0x003c562d
0xc00263fc 0x00000000
0xc0026400 0x000c180e
0xc0026404 0x00000000
0xc0026408 0x000a1709
0xc002640c 0x00000000
0xc0026410 0x0014210d
0xc0026414 0x00000000
0xc0026418 0x00202f16
0xc002641c 0x00000000
0xc0026420 0x0038492d
0xc0026424 0x00000000
0xc0026428 0x001a2c0d
0xc002642c 0x00000000
0xc0026430 0x001b2c0f
0xc0026434 0x00000000
0xc0026438 0x001e3013
0xc002643c 0x00000000
0xc0026440 0x00142b0c
0xc0026444 0x00000000
0xc0026448 0x000b2503
0xc002644c 0x00000000
0xc0026450 0x00122c07
0xc0026454 0x00000000
0xc0026458 0x003f4e2e
0xc002645c 0x00000000
0xc0026460 0x004d4330
0xc0026464 0x00000000
0xc0026468 0x005b4c3d
0xc002646c 0x00000000
0xc0026470 0x004c4b36
0xc0026474 0x00000000
0xc0026478 0x001a2209
0xc002647c 0x00000000
0xc0026480 0x00212f14
0xc0026484 0x00000000
0xc0026488 0x0038482c
0xc002648c 0x00000000
0xc0026490 0x003f4e30
0xc0026494 0x00000000
0xc0026498 0x00353e22
0xc002649c 0x00000000
0xc00264a0 0x0056543c
0xc00264a4 0x00000000
0xc00264a8 0x004c4c32
0xc00264ac 0x00000000
0xc00264b0 0x00263614
0xc00264b4 0x00000000
0xc00264b8 0x00031d00
0xc00264bc 0x00000000
0xc00264c0 0x0029451d
0xc00264c4 0x00000000
0xc00264c8 0x0029461e
0xc00264cc 0x00000000
0xc00264d0 0x003f5c38
0xc00264d4 0x00000000
0xc00264d8 0x00344d2e
0xc00264dc 0x00000000
0xc00264e0 0x001d3116
0xc00264e4 0x00000000
0xc00264e8 0x0018290e
0xc00264ec 0x00000000
0xc00264f0 0x002b401f
0xc00264f4 0x00000000
0xc00264f8 0x00253c18
0xc00264fc 0x00000000
0xc0026500 0x000e170d
0xc0026504 0x00000000
0xc0026508 0x000d180b
0xc002650c 0x00000000
0xc0026510 0x00101d0b
0xc0026514 0x00000000
0xc0026518 0x0014220b
0xc002651c 0x00000000
0xc0026520 0x002d3f22
0xc0026524 0x00000000
0xc0026528 0x002d3f20
0xc002652c 0x00000000
0xc0026530 0x00132307
0xc0026534 0x00000000
0xc0026538 0x0017280d
0xc002653c 0x00000000
0xc0026540 0x000c2005
0xc0026544 0x00000000
0xc0026548 0x000c2204
0xc002654c 0x00000000
0xc0026550 0x001a300e
0xc0026554 0x00000000
0xc0026558 0x00152202
0xc002655c 0x00000000
0xc0026560 0x004a412d
0xc0026564 0x00000000
0xc0026568 0x00554434
0xc002656c 0x00000000
0xc0026570 0x006a604d
0xc0026574 0x00000000
0xc0026578 0x00403d26
0xc002657c 0x00000000
0xc0026580 0x003c3e24
0xc0026584 0x00000000
0xc0026588 0x00292e13
0xc002658c 0x00000000
0xc0026590 0x00181c03
0xc0026594 0x00000000
0xc0026598 0x0057553f
0xc002659c 0x00000000
0xc00265a0 0x00685d4a
0xc00265a4 0x00000000
0xc00265a8 0x005c563f
0xc00265ac 0x00000000
0xc00265b0 0x00283615
0xc00265b4 0x00000000
0xc00265b8 0x00132d04
0xc00265bc 0x00000000
0xc00265c0 0x002b481d
0xc00265c4 0x00000000
0xc00265c8 0x00365429
0xc00265cc 0x00000000
0xc00265d0 0x003c5a32
0xc00265d4 0x00000000
0xc00265d8 0x00425c38
0xc00265dc 0x00000000
0xc00265e0 0x002d4122
0xc00265e4 0x00000000
0xc00265e8 0x001a2c0d
0xc00265ec 0x00000000
0xc00265f0 0x00304423
0xc00265f4 0x00000000
0xc00265f8 0x00182e0b
0xc00265fc 0x00000000
0xc0026600 0x0010190e
0xc0026604 0x00000000
0xc0026608 0x000d170a
0xc002660c 0x00000000
0xc0026610 0x000f1a0c
0xc0026614 0x00000000
0xc0026618 0x000e1b08
0xc002661c 0x00000000
0xc0026620 0x002c3b20
0xc0026624 0x00000000
0xc0026628 0x0028391b
0xc002662c 0x00000000
0xc0026630 0x001e3012
0xc0026634 0x00000000
0xc0026638 0x00182a0d
0xc002663c 0x00000000
0xc0026640 0x00172a0e
0xc0026644 0x00000000
0xc0026648 0x0016290c
0xc002664c 0x00000000
0xc0026650 0x001b2c0a
0xc0026654 0x00000000
0xc0026658 0x00475132
0xc002665c 0x00000000
0xc0026660 0x003b341e
0xc0026664 0x00000000
0xc0026668 0x00493a28
0xc002666c 0x00000000
0xc0026670 0x0062523e
0xc0026674 0x00000000
0xc0026678 0x0065553f
0xc002667c 0x00000000
0xc0026680 0x00675941
0xc0026684 0x00000000
0xc0026688 0x006c5e48
0xc002668c 0x00000000
0xc0026690 0x00695d4c
0xc0026694 0x00000000
0xc0026698 0x005f5244
0xc002669c 0x00000000
0xc00266a0 0x00695a4c
0xc00266a4 0x00000000
0xc00266a8 0x00655e49
0xc00266ac 0x00000000
0xc00266b0 0x003a4927
0xc00266b4 0x00000000
0xc00266b8 0x00153106
0xc00266bc 0x00000000
0xc00266c0 0x001f3c0e
0xc00266c4 0x00000000
0xc00266c8 0x00274617
0xc00266cc 0x00000000
0xc00266d0 0x00163409
0xc00266d4 0x00000000
0xc00266d8 0x00435e36
0xc00266dc 0x00000000
0xc00266e0 0x00223812
0xc00266e4 0x00000000
0xc00266e8 0x00253a15
0xc00266ec 0x00000000
0xc00266f0 0x002e441e
0xc00266f4 0x00000000
0xc00266f8 0x00213812
0xc00266fc 0x00000000
0xc0026700 0x000f190d
0xc0026704 0x00000000
0xc0026708 0x000b1509
0xc002670c 0x00000000
0xc0026710 0x000b160b
0xc0026714 0x00000000
0xc0026718 0x000d1909
0xc002671c 0x00000000
0xc0026720 0x000b1800
0xc0026724 0x00000000
0xc0026728 0x001c2a0e
0xc002672c 0x00000000
0xc0026730 0x001b2b10
0xc0026734 0x00000000
0xc0026738 0x0027391e
0xc002673c 0x00000000
0xc0026740 0x0013240b
0xc0026744 0x00000000
0xc0026748 0x000b1a00
0xc002674c 0x00000000
0xc0026750 0x001f2d10
0xc0026754 0x00000000
0xc0026758 0x005c6246
0xc002675c 0x00000000
0xc0026760 0x00362f19
0xc0026764 0x00000000
0xc0026768 0x0051422f
0xc002676c 0x00000000
0xc0026770 0x0053402c
0xc0026774 0x00000000
0xc0026778 0x00634e39
0xc002677c 0x00000000
0xc0026780 0x006f5942
0xc0026784 0x00000000
0xc0026788 0x005f4a35
0xc002678c 0x00000000
0xc0026790 0x005e493b
0xc0026794 0x00000000
0xc0026798 0x005f4c41
0xc002679c 0x00000000
0xc00267a0 0x0069594d
0xc00267a4 0x00000000
0xc00267a8 0x007b7863
0xc00267ac 0x00000000
0xc00267b0 0x00273815
0xc00267b4 0x00000000
0xc00267b8 0x000d2900
0xc00267bc 0x00000000
0xc00267c0 0x00203c0f
0xc00267c4 0x00000000
0xc00267c8 0x00223e11
0xc00267cc 0x00000000
0xc00267d0 0x001c380e
0xc00267d4 0x00000000
0xc00267d8 0x00253e17
0xc00267dc 0x00000000
0xc00267e0 0x00223a12
0xc00267e4 0x00000000
0xc00267e8 0x0021370f
0xc00267ec 0x00000000
0xc00267f0 0x00243a14
0xc00267f4 0x00000000
0xc00267f8 0x002b421b
0xc00267fc 0x00000000
0xc0026800 0x000d190c
0xc0026804 0x00000000
0xc0026808 0x000b160a
0xc002680c 0x00000000
0xc0026810 0x000c150b
0xc0026814 0x00000000
0xc0026818 0x000c1609
0xc002681c 0x00000000
0xc0026820 0x00091400
0xc0026824 0x00000000
0xc0026828 0x000f1b04
0xc002682c 0x00000000
0xc0026830 0x001e2c15
0xc0026834 0x00000000
0xc0026838 0x002a3923
0xc002683c 0x00000000
0xc0026840 0x000b1b06
0xc0026844 0x00000000
0xc0026848 0x00111e0a
0xc002684c 0x00000000
0xc0026850 0x0029321b
0xc0026854 0x00000000
0xc0026858 0x0042452e
0xc002685c 0x00000000
0xc0026860 0x004d432f
0xc0026864 0x00000000
0xc0026868 0x004b3a29
0xc002686c 0x00000000
0xc0026870 0x00624f3e
0xc0026874 0x00000000
0xc0026878 0x00624e3b
0xc002687c 0x00000000
0xc0026880 0x00644f38
0xc0026884 0x00000000
0xc0026888 0x006a543f
0xc002688c 0x00000000
0xc0026890 0x005d4736
0xc0026894 0x00000000
0xc0026898 0x005a4839
0xc002689c 0x00000000
0xc00268a0 0x005a503f
0xc00268a4 0x00000000
0xc00268a8 0x003c3e27
0xc00268ac 0x00000000
0xc00268b0 0x001e2f0d
0xc00268b4 0x00000000
0xc00268b8 0x001f3911
0xc00268bc 0x00000000
0xc00268c0 0x00203b12
0xc00268c4 0x00000000
0xc00268c8 0x00243f17
0xc00268cc 0x00000000
0xc00268d0 0x001f3613
0xc00268d4 0x00000000
0xc00268d8 0x00142907
0xc00268dc 0x00000000
0xc00268e0 0x00203710
0xc00268e4 0x00000000
0xc00268e8 0x002d441c
0xc00268ec 0x00000000
0xc00268f0 0x002c421c
0xc00268f4 0x00000000
0xc00268f8 0x002b411c
0xc00268fc 0x00000000
0xc0026900 0x000c190b
0xc0026904 0x00000000
0xc0026908 0x000b1809
0xc002690c 0x00000000
0xc0026910 0x00162012
0xc0026914 0x00000000
0xc0026918 0x000e1806
0xc002691c 0x00000000
0xc0026920 0x00131e08
0xc0026924 0x00000000
0xc0026928 0x00152009
0xc002692c 0x00000000
0xc0026930 0x001e2b14
0xc0026934 0x00000000
0xc0026938 0x002a3820
0xc002693c 0x00000000
0xc0026940 0x00091801
0xc0026944 0x00000000
0xc0026948 0x000f1c05
0xc002694c 0x00000000
0xc0026950 0x000c1500
0xc0026954 0x00000000
0xc0026958 0x0050513b
0xc002695c 0x00000000
0xc0026960 0x004e4432
0xc0026964 0x00000000
0xc0026968 0x005b4a3a
0xc002696c 0x00000000
0xc0026970 0x00463326
0xc0026974 0x00000000
0xc0026978 0x00604e3f
0xc002697c 0x00000000
0xc0026980 0x006e5d4a
0xc0026984 0x00000000
0xc0026988 0x0073604d
0xc002698c 0x00000000
0xc0026990 0x005b4533
0xc0026994 0x00000000
0xc0026998 0x00655240
0xc002699c 0x00000000
0xc00269a0 0x00504734
0xc00269a4 0x00000000
0xc00269a8 0x002c2f16
0xc00269ac 0x00000000
0xc00269b0 0x001f300d
0xc00269b4 0x00000000
0xc00269b8 0x00263e15
0xc00269bc 0x00000000
0xc00269c0 0x001b350b
0xc00269c4 0x00000000
0xc00269c8 0x001c340b
0xc00269cc 0x00000000
0xc00269d0 0x00203511
0xc00269d4 0x00000000
0xc00269d8 0x00273b18
0xc00269dc 0x00000000
0xc00269e0 0x00344922
0xc00269e4 0x00000000
0xc00269e8 0x00395027
0xc00269ec 0x00000000
0xc00269f0 0x00263b16
0xc00269f4 0x00000000
0xc00269f8 0x00314522
0xc00269fc 0x00000000
0xc0026a00 0x000e1b0c
0xc0026a04 0x00000000
0xc0026a08 0x000c1907
0xc0026a0c 0x00000000
0xc0026a10 0x002c381f
0xc0026a14 0x00000000
0xc0026a18 0x001d2a0d
0xc0026a1c 0x00000000
0xc0026a20 0x00253213
0xc0026a24 0x00000000
0xc0026a28 0x00233011
0xc0026a2c 0x00000000
0xc0026a30 0x00263315
0xc0026a34 0x00000000
0xc0026a38 0x00445132
0xc0026a3c 0x00000000
0xc0026a40 0x002c3b19
0xc0026a44 0x00000000
0xc0026a48 0x00313e1c
0xc0026a4c 0x00000000
0xc0026a50 0x002b3415
0xc0026a54 0x00000000
0xc0026a58 0x003f4127
0xc0026a5c 0x00000000
0xc0026a60 0x003d3521
0xc0026a64 0x00000000
0xc0026a68 0x003f3121
0xc0026a6c 0x00000000
0xc0026a70 0x007d6c61
0xc0026a74 0x00000000
0xc0026a78 0x0067564d
0xc0026a7c 0x00000000
0xc0026a80 0x007d7166
0xc0026a84 0x00000000
0xc0026a88 0x0044372a
0xc0026a8c 0x00000000
0xc0026a90 0x006c5848
0xc0026a94 0x00000000
0xc0026a98 0x0065523e
0xc0026a9c 0x00000000
0xc0026aa0 0x00675c47
0xc0026aa4 0x00000000
0xc0026aa8 0x002d2d12
0xc0026aac 0x00000000
0xc0026ab0 0x0021310b
0xc0026ab4 0x00000000
0xc0026ab8 0x00344c1f
0xc0026abc 0x00000000
0xc0026ac0 0x00213a0a
0xc0026ac4 0x00000000
0xc0026ac8 0x00233a0a
0xc0026acc 0x00000000
0xc0026ad0 0x00263c0f
0xc0026ad4 0x00000000
0xc0026ad8 0x002a3e13
0xc0026adc 0x00000000
0xc0026ae0 0x0031441a
0xc0026ae4 0x00000000
0xc0026ae8 0x0030421a
0xc0026aec 0x00000000
0xc0026af0 0x0021310e
0xc0026af4 0x00000000
0xc0026af8 0x003b4b29
0xc0026afc 0x00000000
0xc0026b00 0x0035422d
0xc0026b04 0x00000000
0xc0026b08 0x00101d04
0xc0026b0c 0x00000000
0xc0026b10 0x002c3a18
0xc0026b14 0x00000000
0xc0026b18 0x00202e09
0xc0026b1c 0x00000000
0xc0026b20 0x00394721
0xc0026b24 0x00000000
0xc0026b28 0x002c3a15
0xc0026b2c 0x00000000
0xc0026b30 0x0025330f
0xc0026b34 0x00000000
0xc0026b38 0x00394721
0xc0026b3c 0x00000000
0xc0026b40 0x00313f15
0xc0026b44 0x00000000
0xc0026b48 0x0036441a
0xc0026b4c 0x00000000
0xc0026b50 0x003b4521
0xc0026b54 0x00000000
0xc0026b58 0x003f4124
0xc0026b5c 0x00000000
0xc0026b60 0x0049432d
0xc0026b64 0x00000000
0xc0026b68 0x005c5040
0xc0026b6c 0x00000000
0xc0026b70 0x0064544a
0xc0026b74 0x00000000
0xc0026b78 0x0065574e
0xc0026b7c 0x00000000
0xc0026b80 0x006a5e55
0xc0026b84 0x00000000
0xc0026b88 0x00180b00
0xc0026b8c 0x00000000
0xc0026b90 0x00786552
0xc0026b94 0x00000000
0xc0026b98 0x00614d38
0xc0026b9c 0x00000000
0xc0026ba0 0x007f6f59
0xc0026ba4 0x00000000
0xc0026ba8 0x00494429
0xc0026bac 0x00000000
0xc0026bb0 0x003b4921
0xc0026bb4 0x00000000
0xc0026bb8 0x00425929
0xc0026bbc 0x00000000
0xc0026bc0 0x00425924
0xc0026bc4 0x00000000
0xc0026bc8 0x003c541f
0xc0026bcc 0x00000000
0xc0026bd0 0x002b420f
0xc0026bd4 0x00000000
0xc0026bd8 0x003d5121
0xc0026bdc 0x00000000
0xc0026be0 0x003a4c1f
0xc0026be4 0x00000000
0xc0026be8 0x003f4f25
0xc0026bec 0x00000000
0xc0026bf0 0x003c4c25
0xc0026bf4 0x00000000
0xc0026bf8 0x00374722
0xc0026bfc 0x00000000
0xc0026c00 0x00293716
0xc0026c04 0x00000000
0xc0026c08 0x002e3d1a
0xc0026c0c 0x00000000
0xc0026c10 0x0034421c
0xc0026c14 0x00000000
0xc0026c18 0x0027360d
0xc0026c1c 0x00000000
0xc0026c20 0x003b4a20
0xc0026c24 0x00000000
0xc0026c28 0x003b4b21
0xc0026c2c 0x00000000
0xc0026c30 0x00304017
0xc0026c34 0x00000000
0xc0026c38 0x00324217
0xc0026c3c 0x00000000
0xc0026c40 0x00314212
0xc0026c44 0x00000000
0xc0026c48 0x00344315
0xc0026c4c 0x00000000
0xc0026c50 0x00414a24
0xc0026c54 0x00000000
0xc0026c58 0x00414425
0xc0026c5c 0x00000000
0xc0026c60 0x002e2a13
0xc0026c64 0x00000000
0xc0026c68 0x00332b19
0xc0026c6c 0x00000000
0xc0026c70 0x005e5245
0xc0026c74 0x00000000
0xc0026c78 0x00685b4f
0xc0026c7c 0x00000000
0xc0026c80 0x00554839
0xc0026c84 0x00000000
0xc0026c88 0x0073624f
0xc0026c8c 0x00000000
0xc0026c90 0x005c4631
0xc0026c94 0x00000000
0xc0026c98 0x005d4730
0xc0026c9c 0x00000000
0xc0026ca0 0x007e6a54
0xc0026ca4 0x00000000
0xc0026ca8 0x0061583c
0xc0026cac 0x00000000
0xc0026cb0 0x0058633c
0xc0026cb4 0x00000000
0xc0026cb8 0x003a5020
0xc0026cbc 0x00000000
0xc0026cc0 0x00485f28
0xc0026cc4 0x00000000
0xc0026cc8 0x003d551d
0xc0026ccc 0x00000000
0xc0026cd0 0x002d420f
0xc0026cd4 0x00000000
0xc0026cd8 0x00384a1a
0xc0026cdc 0x00000000
0xc0026ce0 0x003f4e20
0xc0026ce4 0x00000000
0xc0026ce8 0x00414f21
0xc0026cec 0x00000000
0xc0026cf0 0x00465727
0xc0026cf4 0x00000000
0xc0026cf8 0x00394c1c
0xc0026cfc 0x00000000
0xc0026d00 0x00374520
0xc0026d04 0x00000000
0xc0026d08 0x0036441d
0xc0026d0c 0x00000000
0xc0026d10 0x0035441b
0xc0026d14 0x00000000
0xc0026d18 0x0037461c
0xc0026d1c 0x00000000
0xc0026d20 0x0036471a
0xc0026d24 0x00000000
0xc0026d28 0x00334418
0xc0026d2c 0x00000000
0xc0026d30 0x0034441a
0xc0026d34 0x00000000
0xc0026d38 0x00415126
0xc0026d3c 0x00000000
0xc0026d40 0x00374817
0xc0026d44 0x00000000
0xc0026d48 0x003b4a1a
0xc0026d4c 0x00000000
0xc0026d50 0x00374219
0xc0026d54 0x00000000
0xc0026d58 0x00484c2c
0xc0026d5c 0x00000000
0xc0026d60 0x00413f28
0xc0026d64 0x00000000
0xc0026d68 0x00494132
0xc0026d6c 0x00000000
0xc0026d70 0x005a5245
0xc0026d74 0x00000000
0xc0026d78 0x002f2418
0xc0026d7c 0x00000000
0xc0026d80 0x006c5f50
0xc0026d84 0x00000000
0xc0026d88 0x006f604e
0xc0026d8c 0x00000000
0xc0026d90 0x0057432f
0xc0026d94 0x00000000
0xc0026d98 0x0068513c
0xc0026d9c 0x00000000
0xc0026da0 0x007d644f
0xc0026da4 0x00000000
0xc0026da8 0x006e5e43
0xc0026dac 0x00000000
0xc0026db0 0x0050542f
0xc0026db4 0x00000000
0xc0026db8 0x00475629
0xc0026dbc 0x00000000
0xc0026dc0 0x00354a14
0xc0026dc4 0x00000000
0xc0026dc8 0x00455a23
0xc0026dcc 0x00000000
0xc0026dd0 0x00384b1a
0xc0026dd4 0x00000000
0xc0026dd8 0x00334415
0xc0026ddc 0x00000000
0xc0026de0 0x003b491b
0xc0026de4 0x00000000
0xc0026de8 0x00455423
0xc0026dec 0x00000000
0xc0026df0 0x0041541f
0xc0026df4 0x00000000
0xc0026df8 0x003a4d18
0xc0026dfc 0x00000000
0xc0026e00 0x00364120
0xc0026e04 0x00000000
0xc0026e08 0x003e4b28
0xc0026e0c 0x00000000
0xc0026e10 0x002b3a12
0xc0026e14 0x00000000
0xc0026e18 0x003e4f24
0xc0026e1c 0x00000000
0xc0026e20 0x00324518
0xc0026e24 0x00000000
0xc0026e28 0x002d4014
0xc0026e2c 0x00000000
0xc0026e30 0x002b3a16
0xc0026e34 0x00000000
0xc0026e38 0x002a3813
0xc0026e3c 0x00000000
0xc0026e40 0x00364518
0xc0026e44 0x00000000
0xc0026e48 0x00334313
0xc0026e4c 0x00000000
0xc0026e50 0x00374418
0xc0026e54 0x00000000
0xc0026e58 0x003f4625
0xc0026e5c 0x00000000
0xc0026e60 0x003e3c2a
0xc0026e64 0x00000000
0xc0026e68 0x005b534a
0xc0026e6c 0x00000000
0xc0026e70 0x004c4339
0xc0026e74 0x00000000
0xc0026e78 0x00534c41
0xc0026e7c 0x00000000
0xc0026e80 0x00635c53
0xc0026e84 0x00000000
0xc0026e88 0x007f766b
0xc0026e8c 0x00000000
0xc0026e90 0x00665749
0xc0026e94 0x00000000
0xc0026e98 0x007f6b59
0xc0026e9c 0x00000000
0xc0026ea0 0x00705640
0xc0026ea4 0x00000000
0xc0026ea8 0x00786449
0xc0026eac 0x00000000
0xc0026eb0 0x005e5638
0xc0026eb4 0x00000000
0xc0026eb8 0x003e421d
0xc0026ebc 0x00000000
0xc0026ec0 0x00354413
0xc0026ec4 0x00000000
0xc0026ec8 0x0040531f
0xc0026ecc 0x00000000
0xc0026ed0 0x003e4c20
0xc0026ed4 0x00000000
0xc0026ed8 0x003e4a20
0xc0026edc 0x00000000
0xc0026ee0 0x003c4b1d
0xc0026ee4 0x00000000
0xc0026ee8 0x00354614
0xc0026eec 0x00000000
0xc0026ef0 0x003f521d
0xc0026ef4 0x00000000
0xc0026ef8 0x00394c16
0xc0026efc 0x00000000
0xc0026f00 0x00364121
0xc0026f04 0x00000000
0xc0026f08 0x003f4c29
0xc0026f0c 0x00000000
0xc0026f10 0x0032401a
0xc0026f14 0x00000000
0xc0026f18 0x002e3f15
0xc0026f1c 0x00000000
0xc0026f20 0x00223609
0xc0026f24 0x00000000
0xc0026f28 0x00304218
0xc0026f2c 0x00000000
0xc0026f30 0x00303d1b
0xc0026f34 0x00000000
0xc0026f38 0x0033411d
0xc0026f3c 0x00000000
0xc0026f40 0x0034441a
0xc0026f44 0x00000000
0xc0026f48 0x0038471b
0xc0026f4c 0x00000000
0xc0026f50 0x003b471d
0xc0026f54 0x00000000
0xc0026f58 0x00454b2b
0xc0026f5c 0x00000000
0xc0026f60 0x00484535
0xc0026f64 0x00000000
0xc0026f68 0x004e4840
0xc0026f6c 0x00000000
0xc0026f70 0x004a433b
0xc0026f74 0x00000000
0xc0026f78 0x00575148
0xc0026f7c 0x00000000
0xc0026f80 0x007b766d
0xc0026f84 0x00000000
0xc0026f88 0x007f7a70
0xc0026f8c 0x00000000
0xc0026f90 0x007f7266
0xc0026f94 0x00000000
0xc0026f98 0x007f6c5c
0xc0026f9c 0x00000000
0xc0026fa0 0x006c543e
0xc0026fa4 0x00000000
0xc0026fa8 0x00755e45
0xc0026fac 0x00000000
0xc0026fb0 0x006c5f43
0xc0026fb4 0x00000000
0xc0026fb8 0x004b4928
0xc0026fbc 0x00000000
0xc0026fc0 0x00313d11
0xc0026fc4 0x00000000
0xc0026fc8 0x002e3f10
0xc0026fcc 0x00000000
0xc0026fd0 0x00354218
0xc0026fd4 0x00000000
0xc0026fd8 0x0038431a
0xc0026fdc 0x00000000
0xc0026fe0 0x00364517
0xc0026fe4 0x00000000
0xc0026fe8 0x00344614
0xc0026fec 0x00000000
0xc0026ff0 0x00314410
0xc0026ff4 0x00000000
0xc0026ff8 0x002c3f0a
0xc0026ffc 0x00000000
0xc0027000 0x003b4924
0xc0027004 0x00000000
0xc0027008 0x0036441e
0xc002700c 0x00000000
0xc0027010 0x00394721
0xc0027014 0x00000000
0xc0027018 0x002e3c16
0xc002701c 0x00000000
0xc0027020 0x002e3c16
0xc0027024 0x00000000
0xc0027028 0x002c3a14
0xc002702c 0x00000000
0xc0027030 0x00384720
0xc0027034 0x00000000
0xc0027038 0x002a3a13
0xc002703c 0x00000000
0xc0027040 0x004b5b36
0xc0027044 0x00000000
0xc0027048 0x00313f1a
0xc002704c 0x00000000
0xc0027050 0x0039421d
0xc0027054 0x00000000
0xc0027058 0x00494c2d
0xc002705c 0x00000000
0xc0027060 0x00403c29
0xc0027064 0x00000000
0xc0027068 0x00474136
0xc002706c 0x00000000
0xc0027070 0x00555148
0xc0027074 0x00000000
0xc0027078 0x00555148
0xc002707c 0x00000000
0xc0027080 0x006e655a
0xc0027084 0x00000000
0xc0027088 0x007e7265
0xc002708c 0x00000000
0xc0027090 0x00736455
0xc0027094 0x00000000
0xc0027098 0x00715f4d
0xc002709c 0x00000000
0xc00270a0 0x0069533e
0xc00270a4 0x00000000
0xc00270a8 0x00735f47
0xc00270ac 0x00000000
0xc00270b0 0x0071654b
0xc00270b4 0x00000000
0xc00270b8 0x00373717
0xc00270bc 0x00000000
0xc00270c0 0x0038421d
0xc00270c4 0x00000000
0xc00270c8 0x002e3d14
0xc00270cc 0x00000000
0xc00270d0 0x002e3c12
0xc00270d4 0x00000000
0xc00270d8 0x00364419
0xc00270dc 0x00000000
0xc00270e0 0x00344315
0xc00270e4 0x00000000
0xc00270e8 0x00304112
0xc00270ec 0x00000000
0xc00270f0 0x002e400f
0xc00270f4 0x00000000
0xc00270f8 0x003b4d1c
0xc00270fc 0x00000000
0xc0027100 0x002b3915
0xc0027104 0x00000000
0xc0027108 0x002b3914
0xc002710c 0x00000000
0xc0027110 0x00293611
0xc0027114 0x00000000
0xc0027118 0x0037421e
0xc002711c 0x00000000
0xc0027120 0x003a4523
0xc0027124 0x00000000
0xc0027128 0x0025310e
0xc002712c 0x00000000
0xc0027130 0x002c3b13
0xc0027134 0x00000000
0xc0027138 0x002a3a12
0xc002713c 0x00000000
0xc0027140 0x0042512e
0xc0027144 0x00000000
0xc0027148 0x00323e1d
0xc002714c 0x00000000
0xc0027150 0x003e4423
0xc0027154 0x00000000
0xc0027158 0x00444428
0xc002715c 0x00000000
0xc0027160 0x00524d3b
0xc0027164 0x00000000
0xc0027168 0x004d473c
0xc002716c 0x00000000
0xc0027170 0x00646159
0xc0027174 0x00000000
0xc0027178 0x006e6a60
0xc002717c 0x00000000
0xc0027180 0x007f7468
0xc0027184 0x00000000
0xc0027188 0x0067594a
0xc002718c 0x00000000
0xc0027190 0x00705f4f
0xc0027194 0x00000000
0xc0027198 0x00715e4b
0xc002719c 0x00000000
0xc00271a0 0x006f5944
0xc00271a4 0x00000000
0xc00271a8 0x0076634b
0xc00271ac 0x00000000
0xc00271b0 0x0073684e
0xc00271b4 0x00000000
0xc00271b8 0x00353416
0xc00271bc 0x00000000
0xc00271c0 0x006e7656
0xc00271c4 0x00000000
0xc00271c8 0x002c3914
0xc00271cc 0x00000000
0xc00271d0 0x00303d17
0xc00271d4 0x00000000
0xc00271d8 0x002e3c13
0xc00271dc 0x00000000
0xc00271e0 0x00303f15
0xc00271e4 0x00000000
0xc00271e8 0x0029390e
0xc00271ec 0x00000000
0xc00271f0 0x0036461a
0xc00271f4 0x00000000
0xc00271f8 0x002d3f12
0xc00271fc 0x00000000
0xc0027200 0x00323c1f
0xc0027204 0x00000000
0xc0027208 0x00232e0e
0xc002720c 0x00000000
0xc0027210 0x00333e1c
0xc0027214 0x00000000
0xc0027218 0x003e4827
0xc002721c 0x00000000
0xc0027220 0x00475033
0xc0027224 0x00000000
0xc0027228 0x002c3617
0xc002722c 0x00000000
0xc0027230 0x002e3b16
0xc0027234 0x00000000
0xc0027238 0x0032401a
0xc002723c 0x00000000
0xc0027240 0x0035431f
0xc0027244 0x00000000
0xc0027248 0x003d4828
0xc002724c 0x00000000
0xc0027250 0x00404628
0xc0027254 0x00000000
0xc0027258 0x00484831
0xc002725c 0x00000000
0xc0027260 0x004c4739
0xc0027264 0x00000000
0xc0027268 0x00625c54
0xc002726c 0x00000000
0xc0027270 0x0069645e
0xc0027274 0x00000000
0xc0027278 0x006b655c
0xc002727c 0x00000000
0xc0027280 0x006d6354
0xc0027284 0x00000000
0xc0027288 0x00685a48
0xc002728c 0x00000000
0xc0027290 0x00655443
0xc0027294 0x00000000
0xc0027298 0x00705c4a
0xc002729c 0x00000000
0xc00272a0 0x00765f4a
0xc00272a4 0x00000000
0xc00272a8 0x00725f48
0xc00272ac 0x00000000
0xc00272b0 0x00776d53
0xc00272b4 0x00000000
0xc00272b8 0x004a4a2d
0xc00272bc 0x00000000
0xc00272c0 0x00303718
0xc00272c4 0x00000000
0xc00272c8 0x00475232
0xc00272cc 0x00000000
0xc00272d0 0x002d3816
0xc00272d4 0x00000000
0xc00272d8 0x003c4826
0xc00272dc 0x00000000
0xc00272e0 0x00293615
0xc00272e4 0x00000000
0xc00272e8 0x00414e2c
0xc00272ec 0x00000000
0xc00272f0 0x002d3b15
0xc00272f4 0x00000000
0xc00272f8 0x0035441c
0xc00272fc 0x00000000
0xc0027300 0x002d361b
0xc0027304 0x00000000
0xc0027308 0x002c3619
0xc002730c 0x00000000
0xc0027310 0x00333e1d
0xc0027314 0x00000000
0xc0027318 0x00374121
0xc002731c 0x00000000
0xc0027320 0x00343d22
0xc0027324 0x00000000
0xc0027328 0x00464f32
0xc002732c 0x00000000
0xc0027330 0x00404c28
0xc0027334 0x00000000
0xc0027338 0x00394620
0xc002733c 0x00000000
0xc0027340 0x00283510
0xc0027344 0x00000000
0xc0027348 0x002f3a18
0xc002734c 0x00000000
0xc0027350 0x0044492b
0xc0027354 0x00000000
0xc0027358 0x004e4f38
0xc002735c 0x00000000
0xc0027360 0x00464134
0xc0027364 0x00000000
0xc0027368 0x00524b43
0xc002736c 0x00000000
0xc0027370 0x0068635d
0xc0027374 0x00000000
0xc0027378 0x00696359
0xc002737c 0x00000000
0xc0027380 0x00685e4e
0xc0027384 0x00000000
0xc0027388 0x00655743
0xc002738c 0x00000000
0xc0027390 0x006f5d4b
0xc0027394 0x00000000
0xc0027398 0x0074604d
0xc002739c 0x00000000
0xc00273a0 0x00614c36
0xc00273a4 0x00000000
0xc00273a8 0x007f6d55
0xc00273ac 0x00000000
0xc00273b0 0x007c745b
0xc00273b4 0x00000000
0xc00273b8 0x00444528
0xc00273bc 0x00000000
0xc00273c0 0x00283011
0xc00273c4 0x00000000
0xc00273c8 0x00343f1f
0xc00273cc 0x00000000
0xc00273d0 0x003b4524
0xc00273d4 0x00000000
0xc00273d8 0x00374221
0xc00273dc 0x00000000
0xc00273e0 0x00374124
0xc00273e4 0x00000000
0xc00273e8 0x00333f20
0xc00273ec 0x00000000
0xc00273f0 0x002c3916
0xc00273f4 0x00000000
0xc00273f8 0x00273510
0xc00273fc 0x00000000
0xc0027400 0x00434a2f
0xc0027404 0x00000000
0xc0027408 0x0030391c
0xc002740c 0x00000000
0xc0027410 0x00313b1b
0xc0027414 0x00000000
0xc0027418 0x00343e1e
0xc002741c 0x00000000
0xc0027420 0x003b4528
0xc0027424 0x00000000
0xc0027428 0x001e2809
0xc002742c 0x00000000
0xc0027430 0x00303c17
0xc0027434 0x00000000
0xc0027438 0x002a3810
0xc002743c 0x00000000
0xc0027440 0x0034421b
0xc0027444 0x00000000
0xc0027448 0x00323d19
0xc002744c 0x00000000
0xc0027450 0x003b4322
0xc0027454 0x00000000
0xc0027458 0x003f4228
0xc002745c 0x00000000
0xc0027460 0x00373525
0xc0027464 0x00000000
0xc0027468 0x00524d43
0xc002746c 0x00000000
0xc0027470 0x00655f56
0xc0027474 0x00000000
0xc0027478 0x00686055
0xc002747c 0x00000000
0xc0027480 0x00594f3f
0xc0027484 0x00000000
0xc0027488 0x00685c48
0xc002748c 0x00000000
0xc0027490 0x0072604e
0xc0027494 0x00000000
0xc0027498 0x00786350
0xc002749c 0x00000000
0xc00274a0 0x0069543e
0xc00274a4 0x00000000
0xc00274a8 0x007f725a
0xc00274ac 0x00000000
0xc00274b0 0x0079735b
0xc00274b4 0x00000000
0xc00274b8 0x005c5e43
0xc00274bc 0x00000000
0xc00274c0 0x004b5334
0xc00274c4 0x00000000
0xc00274c8 0x0037421f
0xc00274cc 0x00000000
0xc00274d0 0x00313c17
0xc00274d4 0x00000000
0xc00274d8 0x00333e1a
0xc00274dc 0x00000000
0xc00274e0 0x003f4a29
0xc00274e4 0x00000000
0xc00274e8 0x00354120
0xc00274ec 0x00000000
0xc00274f0 0x003d4a27
0xc00274f4 0x00000000
0xc00274f8 0x002e3b16
0xc00274fc 0x00000000
0xc0027500 0x0040472c
0xc0027504 0x00000000
0xc0027508 0x001e270a
0xc002750c 0x00000000
0xc0027510 0x00343e21
0xc0027514 0x00000000
0xc0027518 0x00475233
0xc002751c 0x00000000
0xc0027520 0x00354021
0xc0027524 0x00000000
0xc0027528 0x00374221
0xc002752c 0x00000000
0xc0027530 0x00313d18
0xc0027534 0x00000000
0xc0027538 0x00303c16
0xc002753c 0x00000000
0xc0027540 0x0036431e
0xc0027544 0x00000000
0xc0027548 0x002f3b17
0xc002754c 0x00000000
0xc0027550 0x003b4421
0xc0027554 0x00000000
0xc0027558 0x00303518
0xc002755c 0x00000000
0xc0027560 0x00444330
0xc0027564 0x00000000
0xc0027568 0x00585446
0xc002756c 0x00000000
0xc0027570 0x00655f53
0xc0027574 0x00000000
0xc0027578 0x005c5548
0xc002757c 0x00000000
0xc0027580 0x0058503f
0xc0027584 0x00000000
0xc0027588 0x00645846
0xc002758c 0x00000000
0xc0027590 0x00685644
0xc0027594 0x00000000
0xc0027598 0x006a5643
0xc002759c 0x00000000
0xc00275a0 0x005b4732
0xc00275a4 0x00000000
0xc00275a8 0x007f715b
0xc00275ac 0x00000000
0xc00275b0 0x007d7962
0xc00275b4 0x00000000
0xc00275b8 0x0050543b
0xc00275bc 0x00000000
0xc00275c0 0x00384122
0xc00275c4 0x00000000
0xc00275c8 0x00333f1c
0xc00275cc 0x00000000
0xc00275d0 0x002d3813
0xc00275d4 0x00000000
0xc00275d8 0x003b4620
0xc00275dc 0x00000000
0xc00275e0 0x00404a2a
0xc00275e4 0x00000000
0xc00275e8 0x00485333
0xc00275ec 0x00000000
0xc00275f0 0x00485530
0xc00275f4 0x00000000
0xc00275f8 0x00313f18
0xc00275fc 0x00000000
0xc0027600 0x002e371b
0xc0027604 0x00000000
0xc0027608 0x002b3519
0xc002760c 0x00000000
0xc0027610 0x002f3b1e
0xc0027614 0x00000000
0xc0027618 0x00394527
0xc002761c 0x00000000
0xc0027620 0x00303c1d
0xc0027624 0x00000000
0xc0027628 0x00273312
0xc002762c 0x00000000
0xc0027630 0x002f3b17
0xc0027634 0x00000000
0xc0027638 0x002a3612
0xc002763c 0x00000000
0xc0027640 0x00263111
0xc0027644 0x00000000
0xc0027648 0x00404b2b
0xc002764c 0x00000000
0xc0027650 0x00182200
0xc0027654 0x00000000
0xc0027658 0x00313819
0xc002765c 0x00000000
0xc0027660 0x0040422b
0xc0027664 0x00000000
0xc0027668 0x00535140
0xc002766c 0x00000000
0xc0027670 0x00635d50
0xc0027674 0x00000000
0xc0027678 0x00615a4d
0xc002767c 0x00000000
0xc0027680 0x00625a4d
0xc0027684 0x00000000
0xc0027688 0x00635849
0xc002768c 0x00000000
0xc0027690 0x00625241
0xc0027694 0x00000000
0xc0027698 0x00695644
0xc002769c 0x00000000
0xc00276a0 0x00604f3b
0xc00276a4 0x00000000
0xc00276a8 0x007f7660
0xc00276ac 0x00000000
0xc00276b0 0x007f7e67
0xc00276b4 0x00000000
0xc00276b8 0x0032381e
0xc00276bc 0x00000000
0xc00276c0 0x003e4829
0xc00276c4 0x00000000
0xc00276c8 0x002b3615
0xc00276cc 0x00000000
0xc00276d0 0x0036401e
0xc00276d4 0x00000000
0xc00276d8 0x00323c1b
0xc00276dc 0x00000000
0xc00276e0 0x001d2708
0xc00276e4 0x00000000
0xc00276e8 0x00293414
0xc00276ec 0x00000000
0xc00276f0 0x002a3712
0xc00276f4 0x00000000
0xc00276f8 0x002f3d15
0xc00276fc 0x00000000
0xc0027700 0x00313b1f
0xc0027704 0x00000000
0xc0027708 0x00303b1e
0xc002770c 0x00000000
0xc0027710 0x00243013
0xc0027714 0x00000000
0xc0027718 0x001e2b0e
0xc002771c 0x00000000
0xc0027720 0x00233010
0xc0027724 0x00000000
0xc0027728 0x00354121
0xc002772c 0x00000000
0xc0027730 0x0034401e
0xc0027734 0x00000000
0xc0027738 0x00374121
0xc002773c 0x00000000
0xc0027740 0x00454f32
0xc0027744 0x00000000
0xc0027748 0x00313b1c
0xc002774c 0x00000000
0xc0027750 0x002a3313
0xc0027754 0x00000000
0xc0027758 0x002b3213
0xc002775c 0x00000000
0xc0027760 0x0032361c
0xc0027764 0x00000000
0xc0027768 0x00363420
0xc002776c 0x00000000
0xc0027770 0x00575243
0xc0027774 0x00000000
0xc0027778 0x00655d51
0xc002777c 0x00000000
0xc0027780 0x006a6257
0xc0027784 0x00000000
0xc0027788 0x0062584a
0xc002778c 0x00000000
0xc0027790 0x005b4a3a
0xc0027794 0x00000000
0xc0027798 0x005f4d3a
0xc002779c 0x00000000
0xc00277a0 0x00665844
0xc00277a4 0x00000000
0xc00277a8 0x00756c58
0xc00277ac 0x00000000
0xc00277b0 0x007a7964
0xc00277b4 0x00000000
0xc00277b8 0x00393f27
0xc00277bc 0x00000000
0xc00277c0 0x00242e11
0xc00277c4 0x00000000
0xc00277c8 0x002c3716
0xc00277cc 0x00000000
0xc00277d0 0x002c3514
0xc00277d4 0x00000000
0xc00277d8 0x00323a1a
0xc00277dc 0x00000000
0xc00277e0 0x00283112
0xc00277e4 0x00000000
0xc00277e8 0x0025300f
0xc00277ec 0x00000000
0xc00277f0 0x002a3511
0xc00277f4 0x00000000
0xc00277f8 0x002d3913
0xc00277fc 0x00000000
0xc0027800 0x00323b20
0xc0027804 0x00000000
0xc0027808 0x00222c10
0xc002780c 0x00000000
0xc0027810 0x001d290c
0xc0027814 0x00000000
0xc0027818 0x002c381b
0xc002781c 0x00000000
0xc0027820 0x001d280c
0xc0027824 0x00000000
0xc0027828 0x001b2609
0xc002782c 0x00000000
0xc0027830 0x00313b1d
0xc0027834 0x00000000
0xc0027838 0x00343d20
0xc002783c 0x00000000
0xc0027840 0x0032391f
0xc0027844 0x00000000
0xc0027848 0x00383f24
0xc002784c 0x00000000
0xc0027850 0x004a5135
0xc0027854 0x00000000
0xc0027858 0x0022290b
0xc002785c 0x00000000
0xc0027860 0x002e3116
0xc0027864 0x00000000
0xc0027868 0x0033321b
0xc002786c 0x00000000
0xc0027870 0x00473f2f
0xc0027874 0x00000000
0xc0027878 0x00534a3d
0xc002787c 0x00000000
0xc0027880 0x00665d53
0xc0027884 0x00000000
0xc0027888 0x004d4337
0xc002788c 0x00000000
0xc0027890 0x004f402e
0xc0027894 0x00000000
0xc0027898 0x005c4c37
0xc002789c 0x00000000
0xc00278a0 0x00594b38
0xc00278a4 0x00000000
0xc00278a8 0x00766d5c
0xc00278ac 0x00000000
0xc00278b0 0x00666454
0xc00278b4 0x00000000
0xc00278b8 0x00393d28
0xc00278bc 0x00000000
0xc00278c0 0x00363d23
0xc00278c4 0x00000000
0xc00278c8 0x00192102
0xc00278cc 0x00000000
0xc00278d0 0x00222a07
0xc00278d4 0x00000000
0xc00278d8 0x00353c17
0xc00278dc 0x00000000
0xc00278e0 0x003a421e
0xc00278e4 0x00000000
0xc00278e8 0x00272f0c
0xc00278ec 0x00000000
0xc00278f0 0x002a3211
0xc00278f4 0x00000000
0xc00278f8 0x002e3617
0xc00278fc 0x00000000
0xc0027900 0x002c3419
0xc0027904 0x00000000
0xc0027908 0x00272f14
0xc002790c 0x00000000
0xc0027910 0x001e280c
0xc0027914 0x00000000
0xc0027918 0x0020290e
0xc002791c 0x00000000
0xc0027920 0x00202911
0xc0027924 0x00000000
0xc0027928 0x001b230c
0xc002792c 0x00000000
0xc0027930 0x00575d44
0xc0027934 0x00000000
0xc0027938 0x002e331a
0xc002793c 0x00000000
0xc0027940 0x00353a22
0xc0027944 0x00000000
0xc0027948 0x003a3f27
0xc002794c 0x00000000
0xc0027950 0x002e331a
0xc0027954 0x00000000
0xc0027958 0x00363a21
0xc002795c 0x00000000
0xc0027960 0x0036371f
0xc0027964 0x00000000
0xc0027968 0x003a3822
0xc002796c 0x00000000
0xc0027970 0x00473e2c
0xc0027974 0x00000000
0xc0027978 0x00493e31
0xc002797c 0x00000000
0xc0027980 0x0051483e
0xc0027984 0x00000000
0xc0027988 0x0041372b
0xc002798c 0x00000000
0xc0027990 0x00453624
0xc0027994 0x00000000
0xc0027998 0x005e4e3a
0xc002799c 0x00000000
0xc00279a0 0x00716454
0xc00279a4 0x00000000
0xc00279a8 0x007e7465
0xc00279ac 0x00000000
0xc00279b0 0x002e2a1c
0xc00279b4 0x00000000
0xc00279b8 0x001b1c0c
0xc00279bc 0x00000000
0xc00279c0 0x002d301a
0xc00279c4 0x00000000
0xc00279c8 0x0024280e
0xc00279cc 0x00000000
0xc00279d0 0x002b2f11
0xc00279d4 0x00000000
0xc00279d8 0x00262a0b
0xc00279dc 0x00000000
0xc00279e0 0x00393d1e
0xc00279e4 0x00000000
0xc00279e8 0x004e5234
0xc00279ec 0x00000000
0xc00279f0 0x0043472d
0xc00279f4 0x00000000
0xc00279f8 0x00353a22
0xc00279fc 0x00000000
0xc0027a00 0x00282e15
0xc0027a04 0x00000000
0xc0027a08 0x001d230a
0xc0027a0c 0x00000000
0xc0027a10 0x001e240c
0xc0027a14 0x00000000
0xc0027a18 0x00181e07
0xc0027a1c 0x00000000
0xc0027a20 0x001a1e0b
0xc0027a24 0x00000000
0xc0027a28 0x00181b09
0xc0027a2c 0x00000000
0xc0027a30 0x00474a36
0xc0027a34 0x00000000
0xc0027a38 0x0020210d
0xc0027a3c 0x00000000
0xc0027a40 0x002a2b17
0xc0027a44 0x00000000
0xc0027a48 0x003e3f2b
0xc0027a4c 0x00000000
0xc0027a50 0x00383925
0xc0027a54 0x00000000
0xc0027a58 0x0042422e
0xc0027a5c 0x00000000
0xc0027a60 0x00373522
0xc0027a64 0x00000000
0xc0027a68 0x004f4a37
0xc0027a6c 0x00000000
0xc0027a70 0x004f4433
0xc0027a74 0x00000000
0xc0027a78 0x00625546
0xc0027a7c 0x00000000
0xc0027a80 0x00382e22
0xc0027a84 0x00000000
0xc0027a88 0x0052473b
0xc0027a8c 0x00000000
0xc0027a90 0x00514331
0xc0027a94 0x00000000
0xc0027a98 0x005f513d
0xc0027a9c 0x00000000
0xc0027aa0 0x007c6e5f
0xc0027aa4 0x00000000
0xc0027aa8 0x007f7a6d
0xc0027aac 0x00000000
0xc0027ab0 0x00605a4e
0xc0027ab4 0x00000000
0xc0027ab8 0x00767366
0xc0027abc 0x00000000
0xc0027ac0 0x00616050
0xc0027ac4 0x00000000
0xc0027ac8 0x006b6b5a
0xc0027acc 0x00000000
0xc0027ad0 0x00656453
0xc0027ad4 0x00000000
0xc0027ad8 0x00706e5e
0xc0027adc 0x00000000
0xc0027ae0 0x006d6b5a
0xc0027ae4 0x00000000
0xc0027ae8 0x006e6c5c
0xc0027aec 0x00000000
0xc0027af0 0x006f6e60
0xc0027af4 0x00000000
0xc0027af8 0x00747467
0xc0027afc 0x00000000
0xc0027b00 0x00252913
0xc0027b04 0x00000000
0xc0027b08 0x00222611
0xc0027b0c 0x00000000
0xc0027b10 0x0021230f
0xc0027b14 0x00000000
0xc0027b18 0x00232413
0xc0027b1c 0x00000000
0xc0027b20 0x00232414
0xc0027b24 0x00000000
0xc0027b28 0x00585749
0xc0027b2c 0x00000000
0xc0027b30 0x00545244
0xc0027b34 0x00000000
0xc0027b38 0x005d5b4d
0xc0027b3c 0x00000000
0xc0027b40 0x005e5b4b
0xc0027b44 0x00000000
0xc0027b48 0x004c4a3a
0xc0027b4c 0x00000000
0xc0027b50 0x004a4938
0xc0027b54 0x00000000
0xc0027b58 0x003f3c2d
0xc0027b5c 0x00000000
0xc0027b60 0x004a4739
0xc0027b64 0x00000000
0xc0027b68 0x004f4839
0xc0027b6c 0x00000000
0xc0027b70 0x00524737
0xc0027b74 0x00000000
0xc0027b78 0x005d5142
0xc0027b7c 0x00000000
0xc0027b80 0x00372d21
0xc0027b84 0x00000000
0xc0027b88 0x0040362a
0xc0027b8c 0x00000000
0xc0027b90 0x00554837
0xc0027b94 0x00000000
0xc0027b98 0x00635644
0xc0027b9c 0x00000000
0xc0027ba0 0x007f796c
0xc0027ba4 0x00000000
0xc0027ba8 0x00685e53
0xc0027bac 0x00000000
0xc0027bb0 0x00655e53
0xc0027bb4 0x00000000
0xc0027bb8 0x006b655b
0xc0027bbc 0x00000000
0xc0027bc0 0x006a665b
0xc0027bc4 0x00000000
0xc0027bc8 0x00747064
0xc0027bcc 0x00000000
0xc0027bd0 0x006d6960
0xc0027bd4 0x00000000
0xc0027bd8 0x00716d64
0xc0027bdc 0x00000000
0xc0027be0 0x006c655c
0xc0027be4 0x00000000
0xc0027be8 0x00645e54
0xc0027bec 0x00000000
0xc0027bf0 0x00615c56
0xc0027bf4 0x00000000
0xc0027bf8 0x00615d57
0xc0027bfc 0x00000000
0xc0027c00 0x00272917
0xc0027c04 0x00000000
0xc0027c08 0x003e3f2f
0xc0027c0c 0x00000000
0xc0027c10 0x004b493c
0xc0027c14 0x00000000
0xc0027c18 0x00555246
0xc0027c1c 0x00000000
0xc0027c20 0x0058554a
0xc0027c24 0x00000000
0xc0027c28 0x0047433a
0xc0027c2c 0x00000000
0xc0027c30 0x00514d44
0xc0027c34 0x00000000
0xc0027c38 0x00534f46
0xc0027c3c 0x00000000
0xc0027c40 0x004e483e
0xc0027c44 0x00000000
0xc0027c48 0x00474136
0xc0027c4c 0x00000000
0xc0027c50 0x004c483d
0xc0027c54 0x00000000
0xc0027c58 0x00585449
0xc0027c5c 0x00000000
0xc0027c60 0x00605a52
0xc0027c64 0x00000000
0xc0027c68 0x004a4339
0xc0027c6c 0x00000000
0xc0027c70 0x004f4337
0xc0027c74 0x00000000
0xc0027c78 0x005e5144
0xc0027c7c 0x00000000
0xc0027c80 0x0033291d
0xc0027c84 0x00000000
0xc0027c88 0x0041382b
0xc0027c8c 0x00000000
0xc0027c90 0x00534839
0xc0027c94 0x00000000
0xc0027c98 0x00655a4b
0xc0027c9c 0x00000000
0xc0027ca0 0x007a7166
0xc0027ca4 0x00000000
0xc0027ca8 0x007f7b73
0xc0027cac 0x00000000
0xc0027cb0 0x004d443d
0xc0027cb4 0x00000000
0xc0027cb8 0x004a423a
0xc0027cbc 0x00000000
0xc0027cc0 0x00686258
0xc0027cc4 0x00000000
0xc0027cc8 0x00625c52
0xc0027ccc 0x00000000
0xc0027cd0 0x004d493f
0xc0027cd4 0x00000000
0xc0027cd8 0x00666157
0xc0027cdc 0x00000000
0xc0027ce0 0x006b6258
0xc0027ce4 0x00000000
0xc0027ce8 0x00766e66
0xc0027cec 0x00000000
0xc0027cf0 0x00756e6a
0xc0027cf4 0x00000000
0xc0027cf8 0x00716c69
0xc0027cfc 0x00000000
0xc0027d00 0x00303223
0xc0027d04 0x00000000
0xc0027d08 0x00515044
0xc0027d0c 0x00000000
0xc0027d10 0x005a564c
0xc0027d14 0x00000000
0xc0027d18 0x005e574f
0xc0027d1c 0x00000000
0xc0027d20 0x005e574f
0xc0027d24 0x00000000
0xc0027d28 0x00524c43
0xc0027d2c 0x00000000
0xc0027d30 0x004e4841
0xc0027d34 0x00000000
0xc0027d38 0x0068625b
0xc0027d3c 0x00000000
0xc0027d40 0x005e574f
0xc0027d44 0x00000000
0xc0027d48 0x005a544b
0xc0027d4c 0x00000000
0xc0027d50 0x00433f35
0xc0027d54 0x00000000
0xc0027d58 0x00423e35
0xc0027d5c 0x00000000
0xc0027d60 0x00443f37
0xc0027d64 0x00000000
0xc0027d68 0x005e584f
0xc0027d6c 0x00000000
0xc0027d70 0x00766a61
0xc0027d74 0x00000000
0xc0027d78 0x00685d52
0xc0027d7c 0x00000000
0xc0027d80 0x00241b10
0xc0027d84 0x00000000
0xc0027d88 0x004e473b
0xc0027d8c 0x00000000
0xc0027d90 0x00726a5d
0xc0027d94 0x00000000
0xc0027d98 0x007f7e73
0xc0027d9c 0x00000000
0xc0027da0 0x005f5950
0xc0027da4 0x00000000
0xc0027da8 0x0069615a
0xc0027dac 0x00000000
0xc0027db0 0x00685f59
0xc0027db4 0x00000000
0xc0027db8 0x00574e47
0xc0027dbc 0x00000000
0xc0027dc0 0x006d655d
0xc0027dc4 0x00000000
0xc0027dc8 0x00494339
0xc0027dcc 0x00000000
0xc0027dd0 0x00575349
0xc0027dd4 0x00000000
0xc0027dd8 0x00565046
0xc0027ddc 0x00000000
0xc0027de0 0x007c746b
0xc0027de4 0x00000000
0xc0027de8 0x006f675f
0xc0027dec 0x00000000
0xc0027df0 0x007a736e
0xc0027df4 0x00000000
0xc0027df8 0x0076706c
0xc0027dfc 0x00000000
0xc0027e00 0x001c1c0f
0xc0027e04 0x00000000
0xc0027e08 0x0057564a
0xc0027e0c 0x00000000
0xc0027e10 0x005e584e
0xc0027e14 0x00000000
0xc0027e18 0x00585147
0xc0027e1c 0x00000000
0xc0027e20 0x00544d43
0xc0027e24 0x00000000
0xc0027e28 0x00645d53
0xc0027e2c 0x00000000
0xc0027e30 0x00544d45
0xc0027e34 0x00000000
0xc0027e38 0x00544e46
0xc0027e3c 0x00000000
0xc0027e40 0x005c564e
0xc0027e44 0x00000000
0xc0027e48 0x00544e46
0xc0027e4c 0x00000000
0xc0027e50 0x00444137
0xc0027e54 0x00000000
0xc0027e58 0x003b382d
0xc0027e5c 0x00000000
0xc0027e60 0x00454235
0xc0027e64 0x00000000
0xc0027e68 0x00464134
0xc0027e6c 0x00000000
0xc0027e70 0x006f665d
0xc0027e74 0x00000000
0xc0027e78 0x00736a61
0xc0027e7c 0x00000000
0xc0027e80 0x00231c11
0xc0027e84 0x00000000
0xc0027e88 0x004a453b
0xc0027e8c 0x00000000
0xc0027e90 0x00767067
0xc0027e94 0x00000000
0xc0027e98 0x007f7c74
0xc0027e9c 0x00000000
0xc0027ea0 0x0057524c
0xc0027ea4 0x00000000
0xc0027ea8 0x00706a64
0xc0027eac 0x00000000
0xc0027eb0 0x006c635c
0xc0027eb4 0x00000000
0xc0027eb8 0x00625a52
0xc0027ebc 0x00000000
0xc0027ec0 0x005f584f
0xc0027ec4 0x00000000
0xc0027ec8 0x00655f56
0xc0027ecc 0x00000000
0xc0027ed0 0x00757269
0xc0027ed4 0x00000000
0xc0027ed8 0x00656158
0xc0027edc 0x00000000
0xc0027ee0 0x005d544d
0xc0027ee4 0x00000000
0xc0027ee8 0x00645b53
0xc0027eec 0x00000000
0xc0027ef0 0x00666058
0xc0027ef4 0x00000000
0xc0027ef8 0x00736f66
0xc0027efc 0x00000000
0xc0027f00 0x001a1a0e
0xc0027f04 0x00000000
0xc0027f08 0x00545247
0xc0027f0c 0x00000000
0xc0027f10 0x00544f44
0xc0027f14 0x00000000
0xc0027f18 0x005b5449
0xc0027f1c 0x00000000
0xc0027f20 0x0060584e
0xc0027f24 0x00000000
0xc0027f28 0x005d554b
0xc0027f2c 0x00000000
0xc0027f30 0x005f574f
0xc0027f34 0x00000000
0xc0027f38 0x00575148
0xc0027f3c 0x00000000
0xc0027f40 0x00605951
0xc0027f44 0x00000000
0xc0027f48 0x00645e56
0xc0027f4c 0x00000000
0xc0027f50 0x005f5c52
0xc0027f54 0x00000000
0xc0027f58 0x004e4c40
0xc0027f5c 0x00000000
0xc0027f60 0x005a5849
0xc0027f64 0x00000000
0xc0027f68 0x00656254
0xc0027f6c 0x00000000
0xc0027f70 0x00615a50
0xc0027f74 0x00000000
0xc0027f78 0x004e463e
0xc0027f7c 0x00000000
0xc0027f80 0x00595349
0xc0027f84 0x00000000
0xc0027f88 0x004f4b41
0xc0027f8c 0x00000000
0xc0027f90 0x00524d47
0xc0027f94 0x00000000
0xc0027f98 0x00706c66
0xc0027f9c 0x00000000
0xc0027fa0 0x0077746f
0xc0027fa4 0x00000000
0xc0027fa8 0x00746f6a
0xc0027fac 0x00000000
0xc0027fb0 0x006b635b
0xc0027fb4 0x00000000
0xc0027fb8 0x006d645c
0xc0027fbc 0x00000000
0xc0027fc0 0x00645e54
0xc0027fc4 0x00000000
0xc0027fc8 0x00635f55
0xc0027fcc 0x00000000
0xc0027fd0 0x0069665d
0xc0027fd4 0x00000000
0xc0027fd8 0x00656059
0xc0027fdc 0x00000000
0xc0027fe0 0x00665e57
0xc0027fe4 0x00000000
0xc0027fe8 0x00595149
0xc0027fec 0x00000000
0xc0027ff0 0x005d584f
0xc0027ff4 0x00000000
0xc0027ff8 0x006b675c
0xc0027ffc 0x00000000
0xc0010000 0x0a000507
0xc0010004 0x001d0a00
0xc0010008 0x0900070f
0xc001000c 0x001a0900
0xc0010010 0x08000811
0xc0010014 0x00190a00
0xc0082000 0xe105dbef
0xc0082004 0xf62dfe0c
0xc0010018 0x0a000911
0xc001001c 0x00160a00
0xc0082008 0x23020705
0xc008200c 0x06f111fe
0xc0010020 0x0a000512
0xc0010024 0x00150800
0xc0082010 0x16ed1f10
0xc0082014 0xfcebe007
0xc0010028 0x0e000913
0xc001002c 0x00171100
0xc0082018 0x0aedf511
0xc008201c 0xfd0906fb
0xc0010030 0x0e000211
0xc0010034 0x000c0500
0xc0082020 0x05f4dc25
0xc0082024 0x05fc01fe
0xc0010038 0x1200000e
0xc001003c 0x00271000
0xc0082028 0x10d014f1
0xc008202c 0x01fff7fd
0xc0010040 0x09000811
0xc0010044 0x001c1200
0xc0082030 0xf9111417
0xc0082034 0x05ff03f9
0xc0010048 0x0b000712
0xc001004c 0x00110500
0xc0082038 0x02020524
0xc008203c 0x09f8f907
0xc0010050 0x0e000113
0xc0010054 0x001e1100
0xc0082040 0xcbe927f5
0xc0082044 0xf12c0c15
0xc0010058 0x0f00080e
0xc001005c 0x00181000
0xc0082048 0x1c24ee04
0xc008204c 0xfee7f801
0xc0010060 0x0d000114
0xc0010064 0x000d0600
0xc0082050 0x1c1202f0
0xc0082054 0x03deeb0a
0xc0085000 0x0feaf670
0xc0085004 0xfd2801da
0xc0010068 0x10000418
0xc001006c 0x00231400
0xc0082058 0x0d04e8fb
0xc008205c 0x02fa0bfb
0xc0085008 0x1026145b
0xc008500c 0x0b1bf5b0
0xc0010070 0x0900070e
0xc0010074 0x001d0e00
0xc0082060 0x1709ea17
0xc0082064 0x110306f9
0xc0085010 0x0219ffe2
0xc0085014 0x24df1282
0xc0010078 0x09000710
0xc001007c 0x001a0c00
0xc0082068 0x10f92507
0xc008206c 0x03e9f1ff
0xc0085018 0xe9001455
0xc008501c 0x086e0255
0xc0010080 0x09000511
0xc0010084 0x001c0c00
0xc0082070 0xf0140510
0xc0082074 0x0505fff9
0xc0010088 0x0a000712
0xc001008c 0x001a0e00
0xc0082078 0x170eca07
0xc008207c 0x01f21903
0xc0010090 0x0c00020c
0xc0010094 0x001a0a00
0xc0082080 0xcaf428e1
0xc0082084 0xf1f4eb17
0xc0010098 0x0c000000
0xc001009c 0x00340a00
0xc0082088 0x0a19f7f6
0xc008208c 0x1f2924fc
0xc00100a0 0x00000c14
0xc00100a4 0x00241501
0xc0082090 0x16f502e7
0xc0082094 0x0dfd0416
0xc00100a8 0x00001422
0xc00100ac 0x00000101
0xc0082098 0x0cffe5f8
0xc008209c 0x03f90d00
0xc00100b0 0x0e000418
0xc00100b4 0x001b0f00
0xc00820a0 0x1705eaff
0xc00820a4 0x0d0d0c02
0xc00100b8 0x0b00050e
0xc00100bc 0x001e1000
0xc00820a8 0x1513ff04
0xc00820ac 0xfff5e6f8
0xc00100c0 0x0c000505
0xc00100c4 0x00260c00
0xc00820b0 0xf9fde407
0xc00820b4 0x060710fa
0xc00100c8 0x03000817
0xc00100cc 0x00150c00
0xc00820b8 0x1efae10b
0xc00820bc 0x0810100e
0xc00100d0 0x0700101e
0xc00100d4 0x00130b00
0xc00820c0 0x0113f31e
0xc00820c4 0x07d1fa07
0xc00100d8 0x11000400
0xc00100dc 0x00290d00
0xc00820c8 0xfe0302dc
0xc00820cc 0x0c35f204
0xc00100e0 0x0700030d
0xc00100e4 0x00150900
0xc00820d0 0x0a29fef5
0xc00820d4 0xf136f916
0xc00100e8 0x09000a1e
0xc00100ec 0x00150a00
0xc00820d8 0x02eb1c00
0xc00820dc 0xfef9ee00
0xc00100f0 0x0d00060c
0xc00100f4 0x00241000
0xc00820e0 0x1aece011
0xc00820e4 0x11ffedff
0xc00100f8 0x03000a1d
0xc00100fc 0x00090a00
0xc00820e8 0x1eee3ff9
0xc00820ec 0x061b0af9
0xc0012000 0x00070c02
0xc0012004 0x0002340d
0xc00820f0 0xef171d17
0xc00820f4 0x08f4fdfc
0xc0012008 0x00070c05
0xc001200c 0x0004220c
0xc00820f8 0x00f4150a
0xc00820fc 0x0c15e014
0xc0012010 0x00080d06
0xc0012014 0x0004230d
0xc0082100 0x0b0de509
0xc0082104 0x04e9140a
0xc0012018 0x00090f07
0xc001201c 0x0008180c
0xc0082108 0xf8001405
0xc008210c 0x08eaeb0b
0xc0012020 0x000a0e07
0xc0012024 0x00072009
0xc0082110 0xf21c0de1
0xc0082114 0xf920111f
0xc0012028 0x000c1608
0xc001202c 0x00091308
0xc0082118 0x0af707f2
0xc008211c 0xfefcf2ff
0xc0012030 0x000c1307
0xc0012034 0x000d1502
0xc0082120 0x2eede309
0xc0082124 0x1114f6f9
0xc0012038 0x000b1305
0xc001203c 0x00041a03
0xc0082128 0x24183bfa
0xc008212c 0x081cfffd
0xc0012040 0x000d1809
0xc0012044 0x0004280a
0xc0082130 0xf60f201f
0xc0082134 0x10fbf3fc
0xc0012048 0x000e1209
0xc001204c 0x000c0a06
0xc0082138 0x05fce4fe
0xc008213c 0x0200e80d
0xc0012050 0x000d1708
0xc0012054 0x00062105
0xc0082140 0xfbf3f2d6
0xc0082144 0x03060514
0xc0012058 0x00101b0a
0xc001205c 0x000b0706
0xc0082148 0xf5150e01
0xc008214c 0x13f9f508
0xc0012060 0x020f1209
0xc0012064 0x000c2400
0xc0082150 0xeb0528f3
0xc0082154 0xfb00ff23
0xc0012068 0x000f1306
0xc001206c 0x00071105
0xc0082158 0x0afd02f4
0xc008215c 0x01080704
0xc0012070 0x000e1506
0xc0012074 0x00061c0d
0xc0082160 0x1ffcf4fb
0xc0082164 0x0511ff03
0xc0012078 0x000d1406
0xc001207c 0x00071b0b
0xc0082168 0x261f04fd
0xc008216c 0xff1202fa
0xc0012080 0x000c1306
0xc0012084 0x00061c0b
0xc0082170 0x04fbfb13
0xc0082174 0x0ff5f3fb
0xc0012088 0x000d1707
0xc001208c 0x00061a0b
0xc0082178 0x01f1ed07
0xc008217c 0x04100517
0xc0012090 0x000c1a07
0xc0012094 0x00080e08
0xc0082180 0x07101613
0xc0082184 0x291cfe02
0xc0012098 0x000a1808
0xc001209c 0x00002107
0xc0082188 0x0c1002d1
0xc008218c 0x012fff07
0xc00120a0 0x010d210f
0xc00120a4 0x00003d0e
0xc0082190 0xfe29f5e0
0xc0082194 0xf4fd0718
0xc00120a8 0x0012150d
0xc00120ac 0x0013000d
0xc0082198 0xf0fa25f0
0xc008219c 0xf006f00a
0xc00120b0 0x000e1306
0xc00120b4 0x000a0708
0xc00821a0 0x0cedfff7
0xc00821a4 0x092ff309
0xc00120b8 0x000d1506
0xc00120bc 0x0005200b
0xc00821a8 0xf7fc27e1
0xc00821ac 0x05100ff9
0xc00120c0 0x000d1308
0xc00120c4 0x0004110a
0xc00821b0 0xf503f30b
0xc00821b4 0x04f90bfb
0xc00120c8 0x020c130a
0xc00120cc 0x00033e08
0xc00821b8 0xfde80d1a
0xc00821bc 0xff36f918
0xc00120d0 0x000e0f07
0xc00120d4 0x000d000e
0xc00821c0 0x08092bfe
0xc00821c4 0x2814e306
0xc00120d8 0x000b1306
0xc00120dc 0x00030b0b
0xc00821c8 0xf5fafb09
0xc00821cc 0xfaf41b0a
0xc00120e0 0x020a140c
0xc00120e4 0x00014603
0xc00821d0 0xf70fd9ce
0xc00821d4 0xfdd8161f
0xc00120e8 0x000f120a
0xc00120ec 0x000b0607
0xc00821d8 0xf5012efd
0xc00821dc 0xf30d0209
0xc00120f0 0x000e1708
0xc00120f4 0x00050e0a
0xc00821e0 0x0ce5ff04
0xc00821e4 0xfe2dfd01
0xc00120f8 0x020d1008
0xc00120fc 0x0009370a
0xc00821e8 0x061c16ee
0xc00821ec 0xfc1a06fe
0xc0010100 0x0a000005
0xc0010104 0x001d0e00
0xc00821f0 0xf2f11416
0xc00821f4 0x0907fafb
0xc0010108 0x0900020e
0xc001010c 0x00161000
0xc00821f8 0xf4e21afd
0xc00821fc 0xfffa0f11
0xc0010110 0x08000011
0xc0010114 0x00120e00
0xc0082200 0xf3f4f5e1
0xc0082204 0x0c1ffe13
0xc0010118 0x09000010
0xc001011c 0x001c1100
0xc0082208 0xf1041701
0xc008220c 0x0fc2e3fe
0xc0010120 0x05000214
0xc0010124 0x00141200
0xc0082210 0xf3e6dcf2
0xc0082214 0xffe21220
0xc0010128 0x0800000b
0xc001012c 0x001c0d00
0xc0082218 0xf3021bf9
0xc008221c 0xfce6f70a
0xc0010130 0x0900010b
0xc0010134 0x001b1400
0xc0082220 0x00fffdf5
0xc0082224 0xfd12f506
0xc0010138 0x08000015
0xc001013c 0x00000200
0xc0082228 0x0711d9e5
0xc008222c 0xf0ec01f9
0xc0010140 0x10000014
0xc0010144 0x00211a00
0xc0082230 0xf8ec1e1b
0xc0082234 0x0d07fbfa
0xc0010148 0x0600000f
0xc001014c 0x00151100
0xc0082238 0xf9e70ef1
0xc008223c 0x0cd7fb13
0xc0010150 0x09000016
0xc0010154 0x000b0f00
0xc0082240 0x081103fb
0xc0082244 0xf2f0e409
0xc0010158 0x11000003
0xc001015c 0x00211100
0xc0082248 0xfcfb1404
0xc008224c 0x0912dcea
0xc0010160 0x0e00000e
0xc0010164 0x00071200
0xc0082250 0xe2e5c5fa
0xc0082254 0x01fdf4f8
0xc0010168 0x10000020
0xc001016c 0x00000002
0xc0082258 0x010607f6
0xc008225c 0xecf6f5ef
0xc0010170 0x1800001d
0xc0010174 0x00201800
0xc0082260 0xf1df14f5
0xc0082264 0x0cfd070b
0xc0010178 0x0a000012
0xc001017c 0x00171300
0xc0082268 0x06e6f0f1
0xc008226c 0x03d5231a
0xc0010180 0x07000013
0xc0010184 0x00101000
0xc0082270 0x0bfbdaf2
0xc0082274 0xf3040ef7
0xc0010188 0x09000010
0xc001018c 0x00161100
0xc0082278 0x01180808
0xc008227c 0xfe27d1e3
0xc0010190 0x09000008
0xc0010194 0x001a1000
0xc0082280 0x0e16050a
0xc0082284 0xf8f04334
0xc0010198 0x0700000d
0xc001019c 0x000f1000
0xc0082288 0xfde4fe12
0xc008228c 0x0605f0d6
0xc00101a0 0x0f000009
0xc00101a4 0x00122000
0xc0082290 0xeadad00f
0xc0082294 0x01ff1fdc
0xc00101a8 0x07000017
0xc00101ac 0x00000802
0xc0082298 0x01f904f7
0xc008229c 0xf5ededfc
0xc00101b0 0x14000022
0xc00101b4 0x000c1001
0xc00822a0 0xf0e5faf8
0xc00822a4 0x0a08e30c
0xc00101b8 0x12000011
0xc00101bc 0x00131000
0xc00822a8 0xfcede1f9
0xc00822ac 0x03e22627
0xc00101c0 0x11000006
0xc00101c4 0x00201100
0xc00822b0 0x06f0f5e7
0xc00822b4 0xfa040e01
0xc00101c8 0x0500001c
0xc00101cc 0x00091601
0xc00822b8 0x090c2707
0xc00822bc 0xff06e2e0
0xc00101d0 0x0900061d
0xc00101d4 0x000b0e00
0xc00822c0 0x150a0308
0xc00822c4 0xf702e326
0xc00101d8 0x13000000
0xc00101dc 0x00270c00
0xc00822c8 0xfae30c06
0xc00822cc 0xfcf80fe1
0xc00101e0 0x04000010
0xc00101e4 0x00141701
0xc00822d0 0xfaf3fd20
0xc00822d4 0xf40cfed6
0xc00101e8 0x02000421
0xc00101ec 0x00060e02
0xc00822d8 0x07000102
0xc00822dc 0xf1f0fbff
0xc00101f0 0x10000006
0xc00101f4 0x001a1100
0xc00822e0 0xfbf3dc05
0xc00822e4 0x0ef20ef8
0xc00101f8 0x02000024
0xc00101fc 0x00001100
0xc00822e8 0xf3e4f1f3
0xc00822ec 0xf9f52715
0xc0012100 0x00060d00
0xc0012104 0x04042b12
0xc00822f0 0x06e81fed
0xc00822f4 0x0afce614
0xc0012108 0x00091100
0xc001210c 0x010c1c14
0xc00822f8 0x0814160b
0xc00822fc 0xf3091ae6
0xc0012110 0x000b1102
0xc0012114 0x010e1b12
0xc0082300 0x09060cef
0xc0082304 0xfb1bfaf6
0xc0012118 0x000d1303
0xc001211c 0x000b1d13
0xc0082308 0x05060501
0xc008230c 0xe5eee506
0xc0012120 0x000e1704
0xc0012124 0x000b2515
0xc0082310 0xece9e601
0xc0082314 0x02fe34e7
0xc0012128 0x000f1705
0xc001212c 0x00090713
0xc0082318 0xfbfffbfd
0xc008231c 0xf3fad7ee
0xc0012130 0x000e210b
0xc0012134 0x0006300d
0xc0082320 0xeedf1700
0xc0082324 0x0907f2ed
0xc0012138 0x000f1504
0xc001213c 0x00141007
0xc0082328 0x01f1f4f2
0xc008232c 0xfa1012f8
0xc0012140 0x000d1d04
0xc0012144 0x0005020a
0xc0082330 0x0d0de000
0xc0082334 0xfb00f5fe
0xc0012148 0x00102007
0xc001214c 0x000b3210
0xc0082338 0xf8fb041b
0xc008233c 0xfcff12ed
0xc0012150 0x00111e07
0xc0012154 0x000d060d
0xc0082340 0xfcfdfbf4
0xc0082344 0x1202cbf7
0xc0012158 0x00111d09
0xc001215c 0x00080909
0xc0082348 0x0b00fc0b
0xc008234c 0xd2f563ee
0xc0012160 0x02111f13
0xc0012164 0x00093200
0xc0082350 0xfdfc061b
0xc0082354 0xfefe1fe4
0xc0012168 0x00110d0d
0xc001216c 0x00190700
0xc0082358 0xfef1f9fb
0xc008235c 0xf2f7f9e9
0xc0012170 0x000c1603
0xc0012174 0x00081600
0xc0082360 0xf2ec01fd
0xc0082364 0xfe1100e0
0xc0012178 0x000d1a02
0xc001217c 0x000a1b0f
0xc0082368 0xf9f6ecff
0xc008236c 0xf71209f6
0xc0012180 0x000d1901
0xc0012184 0x000c1b12
0xc0082370 0x09f8f9ef
0xc0082374 0xef04f7e9
0xc0012188 0x000d1d02
0xc001218c 0x01091013
0xc0082378 0x01f0190b
0xc008237c 0xf3f10de4
0xc0012190 0x000d2002
0xc0012194 0x01092112
0xc0082380 0x07ee02fc
0xc0082384 0x0ef536fa
0xc0012198 0x000e1e00
0xc001219c 0x05111c15
0xc0082388 0xfd08f7f4
0xc008238c 0xda01b5fc
0xc00121a0 0x00102b04
0xc00121a4 0x070b0015
0xc0082390 0x0b262820
0xc0082394 0xf81bceea
0xc00121a8 0x00112411
0xc00121ac 0x00144e03
0xc0082398 0x0800ff01
0xc008239c 0xebf0f5f3
0xc00121b0 0x000f1a0a
0xc00121b4 0x00140100
0xc00823a0 0x0105e70e
0xc00823a4 0xf6f306d2
0xc00121b8 0x000c1903
0xc00121bc 0x000b1203
0xc00823a8 0xf3ef04fc
0xc00823ac 0xee0d1feb
0xc00121c0 0x000d1800
0xc00121c4 0x000b180a
0xc00823b0 0x00e718e6
0xc00823b4 0xef08e5e7
0xc00121c8 0x000d1d06
0xc00121cc 0x0007240f
0xc00823b8 0x00f81102
0xc00823bc 0xe8f5f8f7
0xc00121d0 0x00111807
0xc00121d4 0x00150911
0xc00823c0 0x120323f6
0xc00823c4 0xf7f803ed
0xc00121d8 0x000a1100
0xc00121dc 0x000a110d
0xc00823c8 0x080f0400
0xc00823cc 0xe606fa25
0xc00121e0 0x000b1a05
0xc00121e4 0x00003910
0xc00823d0 0xfcfff6ec
0xc00823d4 0xe1f7faf9
0xc00121e8 0x00131c0a
0xc00121ec 0x00140e16
0xc00823d8 0xfd09ed0a
0xc00823dc 0xf8fc0a02
0xc00121f0 0x000f1e03
0xc00121f4 0x000f000f
0xc00823e0 0xfafa050d
0xc00823e4 0xea010cf8
0xc00121f8 0x020e1909
0xc00121fc 0x00084209
0xc00823e8 0xfef1faf3
0xc00823ec 0xfcfacef6
0xc0010200 0x0a000007
0xc0010204 0x001b0f00
0xc00823f0 0x1515fe05
0xc00823f4 0xfcf30a05
0xc0010208 0x0b00000b
0xc001020c 0x001a1200
0xc00823f8 0xf6ece60b
0xc00823fc 0xf9f41d1e
0xc0010210 0x0900000e
0xc0010214 0x00110f00
0xc0082400 0x02f4faf9
0xc0082404 0xf20d06e4
0xc0010218 0x0e000011
0xc001021c 0x000f1000
0xc0082408 0x0f0f100d
0xc008240c 0xece80928
0xc0010220 0x0c000015
0xc0010224 0x000e1000
0xc0082410 0x0d1e1df7
0xc0082414 0xf8f5bf06
0xc0010228 0x0d000010
0xc001022c 0x001d1300
0xc0082418 0x0401f307
0xc008241c 0xf2fa1aff
0xc0010230 0x0b000000
0xc0010234 0x00271800
0xc0082420 0x020f040a
0xc0082424 0xee0708fb
0xc0010238 0x00000016
0xc001023c 0x000a1102
0xc0082428 0xf9fefc02
0xc008242c 0xfc02d4f0
0xc0010240 0x0a000018
0xc0010244 0x000a0900
0xc0082430 0x12020f05
0xc0082434 0xf0f4fef6
0xc0010248 0x0a000011
0xc001024c 0x00181800
0xc0082438 0x01eb0f05
0xc008243c 0x18f90e3f
0xc0010250 0x08000010
0xc0010254 0x00151500
0xc0082440 0x0bf5f9fb
0xc0082444 0xe8ea2ae6
0xc0010258 0x0f000000
0xc001025c 0x001d0d00
0xc0082448 0x070cfcf6
0xc008244c 0xdc19062f
0xc0010260 0x08000000
0xc0010264 0x002e1506
0xc0082450 0x203a45f9
0xc0082454 0xf009ea15
0xc0010268 0x00001925
0xc001026c 0x000f0c0b
0xc0082458 0x0d11f802
0xc008245c 0xf304f408
0xc0010270 0x0000172b
0xc0010274 0x00000206
0xc0082460 0x0f23ed0d
0xc0082464 0xe4f309e3
0xc0010278 0x0e000012
0xc001027c 0x00131200
0xc0082468 0xf6fe1df6
0xc008246c 0xfcfedbe1
0xc0010280 0x0c000013
0xc0010284 0x00070c00
0xc0082470 0x09f229f6
0xc0082474 0xea04fef7
0xc0010288 0x10000014
0xc001028c 0x00141000
0xc0082478 0xfaf409fa
0xc008247c 0x1018d639
0xc0010290 0x0d00000b
0xc0010294 0x00181500
0xc0082480 0x0bf7f1e6
0xc0082484 0xfe0c09f0
0xc0010298 0x0d000010
0xc001029c 0x00061600
0xc0082488 0xd017fe12
0xc008248c 0x09ebf006
0xc00102a0 0x18000000
0xc00102a4 0x00220400
0xc0082490 0xf8ff1704
0xc0082494 0x0eff0a04
0xc00102a8 0x04000016
0xc00102ac 0x001f1d06
0xc0082498 0x02eef8f1
0xc008249c 0xe6f50004
0xc00102b0 0x00000d29
0xc00102b4 0x00090707
0xc00824a0 0xfb10e507
0xc00824a4 0xe61619f1
0xc00102b8 0x07000313
0xc00102bc 0x001b1400
0xc00824a8 0x0428f328
0xc00824ac 0x02cff804
0xc00102c0 0x08000009
0xc00102c4 0x000b0700
0xc00824b0 0x06ff05da
0xc00824b4 0x010508ff
0xc00102c8 0x0a00001b
0xc00102cc 0x000e1702
0xc00824b8 0x090e06f5
0xc00824bc 0xfd00020c
0xc00102d0 0x0b000015
0xc00102d4 0x000f0d00
0xc00824c0 0x0cecf6fd
0xc00824c4 0x03ff04ef
0xc00102d8 0x0e000008
0xc00102dc 0x001a0a00
0xc00824c8 0xe40c28e5
0xc00824cc 0xff3d1701
0xc00102e0 0x0a000013
0xc00102e4 0x00141c00
0xc00824d0 0x01f40f02
0xc00824d4 0x0609080a
0xc00102e8 0x08000015
0xc00102ec 0x00010d01
0xc00824d8 0xf5f81ffd
0xc00824dc 0xf21a170a
0xc00102f0 0x15000002
0xc00102f4 0x001c0a00
0xc00824e0 0xffedf1f5
0xc00824e4 0xe30e1bef
0xc00102f8 0x0100002d
0xc00102fc 0x00001804
0xc00824e8 0x0808d302
0xc00824ec 0xffec16f8
0xc0012200 0x00070d00
0xc0012204 0x05062913
0xc00824f0 0xfffafad5
0xc00824f4 0xfafffe04
0xc0012208 0x000b1301
0xc001220c 0x030b1415
0xc00824f8 0x050ff90b
0xc00824fc 0xfaf90f08
0xc0012210 0x000d1504
0xc0012214 0x000d2510
0xc0082500 0x06f9e212
0xc0082504 0xfef90eec
0xc0012218 0x000f1503
0xc001221c 0x00120d0c
0xc0082508 0xf9ef14cc
0xc008250c 0xf5e7e601
0xc0012220 0x000e1704
0xc0012224 0x000c1a09
0xc0082510 0xfcfb09f6
0xc0082514 0x0706000b
0xc0012228 0x00101600
0xc001222c 0x000f2011
0xc0082518 0xf51510eb
0xc008251c 0xfbe8f105
0xc0012230 0x000f1d02
0xc0012234 0x06010016
0xc0082520 0xf2cef21d
0xc0082524 0xe11a18f9
0xc0012238 0x0211230d
0xc001223c 0x00094c11
0xc0082528 0x08decc01
0xc008252c 0x050717f9
0xc0012240 0x00121b04
0xc0012244 0x0017000e
0xc0082530 0xf7fa0ddb
0xc0082534 0xfe01fa03
0xc0012248 0x000e2302
0xc001224c 0x00061b0e
0xc0082538 0xff03f60c
0xc008253c 0xfceb0201
0xc0012250 0x00132409
0xc0012254 0x000c1513
0xc0082540 0xf1fbf0da
0xc0082544 0x0418eef3
0xc0012258 0x00121504
0xc001225c 0x000d0f0d
0xc0082548 0xd2ef151b
0xc008254c 0x10a7fa00
0xc0012260 0x02120f12
0xc0012264 0x0000230a
0xc0082550 0x05f8fcf7
0xc0082554 0x02e40ef6
0xc0012268 0x0618101c
0xc001226c 0x0006620e
0xc0082558 0x01f00c14
0xc008255c 0xedec0e06
0xc0012270 0x00170e0d
0xc0012274 0x00180010
0xc0082560 0xe6f5e7f7
0xc0082564 0xf5b3d0f4
0xc0012278 0x000f1b04
0xc001227c 0x000e040b
0xc0082568 0x091c0b06
0xc008256c 0x08d9e80a
0xc0012280 0x000c1b05
0xc0012284 0x000e2106
0xc0082570 0x1b0be8d6
0xc0082574 0x09100cfc
0xc0012288 0x000c1a01
0xc001228c 0x000e1509
0xc0082578 0x03061efd
0xc008257c 0x01f5f10f
0xc0012290 0x000d1f00
0xc0012294 0x010a140f
0xc0082580 0xf1e1edf5
0xc0082584 0xfb1202f3
0xc0012298 0x000f2808
0xc001229c 0x00100d0c
0xc0082588 0x070ae2e9
0xc008258c 0x11f0d4fa
0xc00122a0 0x000e1805
0xc00122a4 0x000f0401
0xc0082590 0x0af4f107
0xc0082594 0x01e707fc
0xc00122a8 0x020c2010
0xc00122ac 0x00006002
0xc0082598 0x061b0cf6
0xc008259c 0x03f5f705
0xc00122b0 0x00171711
0xc00122b4 0x00130215
0xc00825a0 0xf0e6bce9
0xc00825a4 0xfa9ce9f4
0xc00122b8 0x00112108
0xc00122bc 0x000a0513
0xc00825a8 0x0e0bee0a
0xc00825ac 0x03d7e905
0xc00122c0 0x000f1b03
0xc00122c4 0x000f120c
0xc00825b0 0x0bfedfd4
0xc00825b4 0x02100a03
0xc00122c8 0x000e2108
0xc00122cc 0x00081309
0xc00825b8 0x0b0d0c03
0xc00825bc 0xff05fa08
0xc00122d0 0x000f1c09
0xc00122d4 0x0012130b
0xc00825c0 0xe2ecf00d
0xc00825c4 0xf6f702f1
0xc00122d8 0x000b1000
0xc00122dc 0x000d2009
0xc00825c8 0x08dceaec
0xc00825cc 0xf52016ff
0xc00122e0 0x000c1c02
0xc00122e4 0x01050d12
0xc00825d0 0x0dfde709
0xc00825d4 0x06f10202
0xc00122e8 0x0012210c
0xc00122ec 0x0014140f
0xc00825d8 0x0a02f7d5
0xc00825dc 0xf912fe06
0xc00122f0 0x000e1b05
0xc00122f4 0x000e1001
0xc00825e0 0xe8cdb7ff
0xc00825e4 0xf3bce3ff
0xc00122f8 0x020e1b0c
0xc00122fc 0x00034606
0xc00825e8 0x0effe00d
0xc00825ec 0xf8fb0202
0xc0010300 0x0a000009
0xc0010304 0x00180f00
0xc00825f0 0xfdf4f9dc
0xc00825f4 0x020a0303
0xc0010308 0x0c000008
0xc001030c 0x001e1000
0xc00825f8 0x0e07fd02
0xc00825fc 0xfdfafcff
0xc0010310 0x0700000a
0xc0010314 0x001b1400
0xc0082600 0x0808f9fb
0xc0082604 0x08f7fcf7
0xc0010318 0x08000009
0xc001031c 0x00180f00
0xc0082608 0xe9eae513
0xc008260c 0x181610fa
0xc0010320 0x05000017
0xc0010324 0x00090b00
0xc0082610 0xfdf2d803
0xc0082614 0xfe0f14f4
0xc0010328 0x0b00001d
0xc001032c 0x000c1100
0xc0082618 0xff0bf216
0xc008261c 0xfde51002
0xc0010330 0x10000000
0xc0010334 0x00200f00
0xc0082620 0x02171c2c
0xc0082624 0xfefce8f9
0xc0010338 0x02000012
0xc001033c 0x00171d02
0xc0082628 0xf9030afc
0xc008262c 0xfdf20608
0xc0010340 0x0000001a
0xc0010344 0x000f0e02
0xc0082630 0x0f0dfccf
0xc0082634 0x0d07f7f6
0xc0010348 0x03000015
0xc001034c 0x000d1300
0xc0082638 0x04ff27f4
0xc008263c 0xff04f511
0xc0010350 0x0b000005
0xc0010354 0x00171400
0xc0082640 0x0a04f4fb
0xc0082644 0xf6f113f6
0xc0010358 0x0c000000
0xc001035c 0x001c1000
0xc0082648 0xecf21eeb
0xc008264c 0x1e1bddff
0xc0010360 0x0a000000
0xc0010364 0x001f1503
0xc0082650 0xfbe6ed09
0xc0082654 0x03fb06f8
0xc0010368 0x00000022
0xc001036c 0x0001190c
0xc0082658 0x0c1a0ce9
0xc008265c 0x1010e2ff
0xc0010370 0x0000112d
0xc0010374 0x00020809
0xc0082660 0xf63ae9e3
0xc0082664 0x01e3e601
0xc0010378 0x09000013
0xc001037c 0x00251201
0xc0082668 0xfe120108
0xc008266c 0xf9d7fc06
0xc0010380 0x0300010d
0xc0010384 0x00191300
0xc0082670 0x0a0ad9d4
0xc0082674 0x010507fb
0xc0010388 0x09000313
0xc001038c 0x00040800
0xc0082678 0x0b0d2e00
0xc008267c 0xfe0cef0c
0xc0010390 0x1200000f
0xc0010394 0x000e0c00
0xc0082680 0xfa15f4f6
0xc0082684 0xf7f409f8
0xc0010398 0x13000002
0xc001039c 0x002a1501
0xc0082688 0x0012ef13
0xc008268c 0xfee4fd04
0xc00103a0 0x09000000
0xc00103a4 0x00250a00
0xc0082690 0x04eefb0d
0xc0082694 0x0cf5f7fe
0xc00103a8 0x00000021
0xc00103ac 0x00051609
0xc0082698 0x0312f2e5
0xc008269c 0xf40b0f02
0xc00103b0 0x0000052f
0xc00103b4 0x00001307
0xc00826a0 0xf413e1e8
0xc00826a4 0x0410f00f
0xc00103b8 0x0a00000c
0xc00103bc 0x001d1400
0xc00826a8 0xfe11ed05
0xc00826ac 0xfeebfb07
0xc00103c0 0x04000007
0xc00103c4 0x00161300
0xc00826b0 0xfcfff4dc
0xc00826b4 0x030301fa
0xc00103c8 0x08000014
0xc00103cc 0x000c1002
0xc00826b8 0x120514fd
0xc00826bc 0xfc18f903
0xc00103d0 0x0c00000e
0xc00103d4 0x00100b01
0xc00826c0 0xe8eb00f0
0xc00826c4 0x0ff4f6ee
0xc00103d8 0x0a00001c
0xc00103dc 0x000b1002
0xc00826c8 0x0a12f104
0xc00826cc 0x011221f8
0xc00103e0 0x0b000014
0xc00103e4 0x00161101
0xc00826d0 0x1a390707
0xc00826d4 0x0002ea04
0xc00103e8 0x06000007
0xc00103ec 0x00271600
0xc00826d8 0x132101fa
0xc00826dc 0x030420f5
0xc00103f0 0x00000005
0xc00103f4 0x001c0a01
0xc00826e0 0x1b381f0e
0xc00826e4 0xf1f90bf0
0xc00103f8 0x00000035
0xc00103fc 0x00001806
0xc00826e8 0xf5efedfe
0xc00826ec 0xfc0efef1
0xc0012300 0x00080e00
0xc0012304 0x04072712
0xc00826f0 0x0705f5eb
0xc00826f4 0x0900f914
0xc0012308 0x000b1100
0xc001230c 0x040b1615
0xc00826f8 0x071af507
0xc00826fc 0x0afc0008
0xc0012310 0x000d1703
0xc0012314 0x04052715
0xc0082700 0xeef113f7
0xc0082704 0xfe08edec
0xc0012318 0x00101909
0xc001231c 0x000a1512
0xc0082708 0xff01fcfe
0xc008270c 0xf301e922
0xc0012320 0x010f1709
0xc0012324 0x000b2e0a
0xc0082710 0x0d290efe
0xc0082714 0xfafcfe04
0xc0012328 0x00111904
0xc001232c 0x0011000d
0xc0082718 0xff1cfe02
0xc008271c 0xf3f8dc05
0xc0012330 0x000f1600
0xc0012334 0x050e0a11
0xc0082720 0x32452f0c
0xc0082724 0xf2e80eeb
0xc0012338 0x000e2204
0xc001233c 0x0a002e16
0xc0082728 0x030402fc
0xc008272c 0xf2ff0deb
0xc0012340 0x00152108
0xc0012344 0x0612201d
0xc0082730 0x00fae7fc
0xc0082734 0xf9f405fb
0xc0012348 0x00102300
0xc001234c 0x050b0819
0xc0082738 0x030dfb06
0xc008273c 0x18f10c15
0xc0012350 0x00112303
0xc0012354 0x050c0116
0xc0082740 0xf8f304ff
0xc0082744 0xf7fd0be1
0xc0012358 0x01111404
0xc001235c 0x00092b0e
0xc0082748 0x15ec04fd
0xc008274c 0x0710e81b
0xc0012360 0x01150402
0xc0012364 0x000b1711
0xc0082750 0xfa0af5f8
0xc0082754 0x03fc0c09
0xc0012368 0x031a0e12
0xc001236c 0x03081a14
0xc0082758 0x1417170b
0xc008275c 0x06060e0a
0xc0012370 0x001c1014
0xc0012374 0x001b2910
0xc0082760 0x2b4b4117
0xc0082764 0xe0edc4e7
0xc0012378 0x00121507
0xc001237c 0x000a0710
0xc0082768 0x06120ff9
0xc008276c 0xf9fcf2f8
0xc0012380 0x000f1e0a
0xc0012384 0x00052a12
0xc0082770 0x01fdf703
0xc0082774 0xed0106f7
0xc0012388 0x00101b0b
0xc001238c 0x0014090a
0xc0082778 0xf904fc02
0xc008277c 0x1ff61416
0xc0012390 0x000d1a06
0xc0012394 0x000f0e00
0xc0082780 0xe3dbf1ed
0xc0082784 0xeed305ff
0xc0012398 0x000e1c0c
0xc001239c 0x00021304
0xc0082788 0x0a06fd08
0xc008278c 0xf31403ee
0xc00123a0 0x01111005
0xc00123a4 0x000b440a
0xc0082790 0x1b322e04
0xc0082794 0x0814e8fb
0xc00123a8 0x00141408
0xc00123ac 0x00050112
0xc0082798 0x0f0f05ff
0xc008279c 0xfaf74d05
0xc00123b0 0x001a1d0a
0xc00123b4 0x061a1c1c
0xc00827a0 0xf9dff0f2
0xc00827a4 0xf8d40111
0xc00123b8 0x00122002
0xc00123bc 0x070f001a
0xc00827a8 0xf1e0ed16
0xc00827ac 0x06fa47f5
0xc00123c0 0x000e2505
0xc00123c4 0x05064012
0xc00827b0 0x01fb02e9
0xc00827b4 0x01f4ec03
0xc00123c8 0x0010230a
0xc00123cc 0x000f000e
0xc00827b8 0x1520f415
0xc00827bc 0xf4fc10f5
0xc00123d0 0x000d1d0a
0xc00123d4 0x000e1e05
0xc00827c0 0xeae4fdef
0xc00827c4 0xf0de1819
0xc00123d8 0x000d1806
0xc00123dc 0x000e2306
0xc00827c8 0xfef8dff9
0xc00827cc 0x0b208dce
0xc00123e0 0x000f1603
0xc00123e4 0x000c0010
0xc00827d0 0x091d24fa
0xc00827d4 0xff08e3f1
0xc00123e8 0x000f1e08
0xc00123ec 0x02022f15
0xc00827d8 0xf10ae8f5
0xc00827dc 0x0309810c
0xc00123f0 0x00111904
0xc00123f4 0x00092517
0xc00827e0 0x09db01e7
0xc00827e4 0x29beed11
0xc00123f8 0x02131c0c
0xc00123fc 0x00072019
0xc00827e8 0xfef6ea10
0xc00827ec 0xfdf70adc
0xc0010400 0x0a00000a
0xc0010404 0x00170f00
0xc00827f0 0xfefcf3f7
0xc00827f4 0x06e527ff
0xc0010408 0x0c00000c
0xc001040c 0x00160f00
0xc00827f8 0x0b10f710
0xc00827fc 0xfcf503ff
0xc0010410 0x0b000009
0xc0010414 0x00181300
0xc0082800 0xf4ecf4f7
0xc0082804 0xf7e8fd17
0xc0010418 0x0a000001
0xc001041c 0x00231300
0xc0082808 0x14e80b06
0xc008280c 0x00e955d1
0xc0010420 0x01000014
0xc0010424 0x000a1302
0xc0082810 0xeff8fdfb
0xc0082814 0x0e02fff8
0xc0010428 0x0500001f
0xc001042c 0x00070a02
0xc0082818 0x0cf80703
0xc008281c 0x08f056fe
0xc0010430 0x0c00000e
0xc0010434 0x001c1200
0xc0082820 0x0ef413ef
0xc0082824 0x13ddcb14
0xc0010438 0x04000013
0xc001043c 0x000c1500
0xc0082828 0x030a0009
0xc008282c 0xf4f8f3d6
0xc0010440 0x0400001a
0xc0010444 0x00091500
0xc0082830 0x0207f8ff
0xc0082834 0x02f5100c
0xc0010448 0x09000012
0xc001044c 0x000d1400
0xc0082838 0x0306f90d
0xc008283c 0x08f419fe
0xc0010450 0x0c000000
0xc0010454 0x00211000
0xc0082840 0xede5e2f4
0xc0082844 0xfef8150a
0xc0010458 0x08000000
0xc001045c 0x00271f00
0xc0082848 0x0a020302
0xc008284c 0xe6daf9fd
0xc0010460 0x01000003
0xc0010464 0x00121004
0xc0082850 0x11153603
0xc0082854 0x04fb0502
0xc0010468 0x03000410
0xc001046c 0x00151609
0xc0082858 0x08fc0d01
0xc008285c 0x07ebfb03
0xc0010470 0x00000f27
0xc0010474 0x0000090a
0xc0082860 0xe1bda8e8
0xc0082864 0xe4043414
0xc0010478 0x1000051c
0xc001047c 0x000d0c03
0xc0082868 0xf5e2e606
0xc008286c 0xfbf02504
0xc0010480 0x0e00000c
0xc0010484 0x001d1501
0xc0082870 0x01f40bed
0xc0082874 0xebf5eef9
0xc0010488 0x01000012
0xc001048c 0x00281603
0xc0082878 0x1c23f40c
0xc008287c 0xf2f71c05
0xc0010490 0x00000c0c
0xc0010494 0x001f1502
0xc0082880 0xedede4f6
0xc0082884 0x1005e41f
0xc0010498 0x0a000000
0xc001049c 0x00120400
0xc0082888 0x09fbf903
0xc008288c 0xf0fb2b08
0xc00104a0 0x0b00000b
0xc00104a4 0x00121507
0xc0082890 0x030328ff
0xc0082894 0x0ef40f15
0xc00104a8 0x00000029
0xc00104ac 0x0000110a
0xc0082898 0xf0f0e3fd
0xc008289c 0x0908d8fa
0xc00104b0 0x02000231
0xc00104b4 0x00011406
0xc00828a0 0xe9aba2e3
0xc00828a4 0x0d02311b
0xc00104b8 0x11000007
0xc00104bc 0x001c0e00
0xc00828a8 0x01f9ed08
0xc00828ac 0x01fd3206
0xc00104c0 0x0d000003
0xc00104c4 0x00161800
0xc00828b0 0xfef6fdf8
0xc00828b4 0xf9e00cf4
0xc00104c8 0x0b000008
0xc00104cc 0x001a1002
0xc00828b8 0x121cf209
0xc00828bc 0xf3fb0c09
0xc00104d0 0x0800000d
0xc00104d4 0x00171204
0xc00828c0 0xf3eadff9
0xc00828c4 0x09040b10
0xc00104d8 0x03000022
0xc00104dc 0x00010f07
0xc00828c8 0x0dfa0cfa
0xc00828cc 0xfbfbc112
0xc00104e0 0x0a00001d
0xc00104e4 0x000a0d01
0xc00828d0 0xe6dffafb
0xc00828d4 0x10faf514
0xc00104e8 0x10000009
0xc00104ec 0x00191600
0xc00828d8 0x03e9f108
0xc00828dc 0x09eb22fe
0xc00104f0 0x0600000d
0xc00104f4 0x000e1400
0xc00828e0 0xfbc3bfe8
0xc00828e4 0xfe042a0d
0xc00104f8 0x00000034
0xc00104fc 0x00001c04
0xc00828e8 0xfd09ec04
0xc00828ec 0xf5f101fd
0xc0012400 0x00090e00
0xc0012404 0x02062911
0xc00828f0 0x040302fa
0xc00828f4 0x09f0fd04
0xc0012408 0x000c1000
0xc001240c 0x020e1813
0xc00828f8 0x0811f307
0xc00828fc 0xfbf10004
0xc0012410 0x000c1300
0xc0012414 0x07081815
0xc0012418 0x000f1700
0xc001241c 0x08081917
0xc0012420 0x01101d0a
0xc0012424 0x01062f12
0xc0012428 0x0013190b
0xc001242c 0x00120f0f
0xc0012430 0x000f1800
0xc0012434 0x000d1610
0xc0012438 0x000f1c00
0xc001243c 0x09091117
0xc0012440 0x00112101
0xc0012444 0x0c11171a
0xc0012448 0x00102401
0xc001244c 0x080f0f17
0xc0012450 0x000f1b00
0xc0012454 0x080a1d15
0xc0012458 0x01121701
0xc001245c 0x0902221b
0xc0012460 0x041a0808
0xc0012464 0x090d131b
0xc0012468 0x031b0b13
0xc001246c 0x00081d11
0xc0012470 0x041b0d17
0xc0012474 0x00153208
0xc0012478 0x00170e08
0xc001247c 0x001b0005
0xc0012480 0x00101404
0xc0012484 0x00071909
0xc0012488 0x0114170b
0xc001248c 0x01043916
0xc0012490 0x00161b0d
0xc0012494 0x000a121b
0xc0012498 0x00150d07
0xc001249c 0x0012050e
0xc00124a0 0x02130e0b
0xc00124a4 0x00072305
0xc00124a8 0x011a1210
0xc00124ac 0x0012210d
0xc00124b0 0x00181e0d
0xc00124b4 0x00150d11
0xc00124b8 0x00121f00
0xc00124bc 0x01170011
0xc00124c0 0x000b2600
0xc00124c4 0x03031f0b
0xc00124c8 0x00112309
0xc00124cc 0x000d150d
0xc00124d0 0x000e210a
0xc00124d4 0x0009260a
0xc00124d8 0x00111e0f
0xc00124dc 0x000f130a
0xc00124e0 0x00121706
0xc00124e4 0x00180f0c
0xc00124e8 0x000e1900
0xc00124ec 0x020d0010
0xc00124f0 0x00101c00
0xc00124f4 0x0c0d2b14
0xc00124f8 0x00141e0a
0xc00124fc 0x060e1d1a
0xc0010500 0x0a00000a
0xc0010504 0x00170f00
0xc0010508 0x0a000010
0xc001050c 0x00160f00
0xc0010510 0x0a00000d
0xc0010514 0x00141000
0xc0010518 0x0e000000
0xc001051c 0x001f1200
0xc0010520 0x0500000a
0xc0010524 0x00131500
0xc0010528 0x0300001e
0xc001052c 0x00081102
0xc0010530 0x09000018
0xc0010534 0x000b0e00
0xc0010538 0x0a000016
0xc001053c 0x000f1500
0xc0010540 0x0a000016
0xc0010544 0x000c1100
0xc0010548 0x0d00000d
0xc001054c 0x00161100
0xc0010550 0x12000006
0xc0010554 0x00111500
0xc0010558 0x13000001
0xc001055c 0x000d0f00
0xc0010560 0x0e000006
0xc0010564 0x00261f02
0xc0010568 0x03000002
0xc001056c 0x00231407
0xc0010570 0x00000c1a
0xc0010574 0x000e130c
0xc0010578 0x0600171b
0xc001057c 0x000b0509
0xc0010580 0x11000311
0xc0010584 0x000c0d03
0xc0010588 0x16000018
0xc001058c 0x00001003
0xc0010590 0x1d000007
0xc0010594 0x00171003
0xc0010598 0x14000000
0xc001059c 0x002f1804
0xc00105a0 0x0300000f
0xc00105a4 0x0013100b
0xc00105a8 0x0000072a
0xc00105ac 0x00000d0d
0xc00105b0 0x02000630
0xc00105b4 0x00010c08
0xc00105b8 0x0e00000c
0xc00105bc 0x00211000
0xc00105c0 0x08000002
0xc00105c4 0x00211700
0xc00105c8 0x01000009
0xc00105cc 0x001d1202
0xc00105d0 0x0100000a
0xc00105d4 0x001f1c04
0xc00105d8 0x0000001a
0xc00105dc 0x00030e07
0xc00105e0 0x02000425
0xc00105e4 0x000a1305
0xc00105e8 0x0b00000a
0xc00105ec 0x00160d00
0xc00105f0 0x07000013
0xc00105f4 0x000e1500
0xc00105f8 0x01000030
0xc00105fc 0x00001402
0xc0012500 0x000a0d00
0xc0012504 0x02052911
0xc0012508 0x000c1000
0xc001250c 0x000b1c13
0xc0012510 0x000c1200
0xc0012514 0x030b1b14
0xc0012518 0x000d1400
0xc001251c 0x070b0d15
0xc0012520 0x000e1b05
0xc0012524 0x07032913
0xc0012528 0x00131c0b
0xc001252c 0x00112712
0xc0012530 0x00111903
0xc0012534 0x00110110
0xc0012538 0x000f1d02
0xc001253c 0x010c1b0f
0xc0012540 0x000f1e03
0xc0012544 0x000f1310
0xc0012548 0x000e1e02
0xc001254c 0x000c180e
0xc0012550 0x000f1f00
0xc0012554 0x0011130d
0xc0012558 0x00111100
0xc001255c 0x020e0109
0xc0012560 0x03160c05
0xc0012564 0x0406350f
0xc0012568 0x041c050c
0xc001256c 0x05071418
0xc0012570 0x071d0e1b
0xc0012574 0x00063a10
0xc0012578 0x021e0b1a
0xc001257c 0x00180a06
0xc0012580 0x02160e0e
0xc0012584 0x00131200
0xc0012588 0x0016100a
0xc001258c 0x001b0000
0xc0012590 0x00140c0a
0xc0012594 0x00110100
0xc0012598 0x02130a0c
0xc001259c 0x00034a00
0xc00125a0 0x03180712
0xc00125a4 0x00061d0b
0xc00125a8 0x031b1017
0xc00125ac 0x0010230b
0xc00125b0 0x00191a11
0xc00125b4 0x0015080a
0xc00125b8 0x00121f02
0xc00125bc 0x0010090d
0xc00125c0 0x000e2500
0xc00125c4 0x03021812
0xc00125c8 0x00122100
0xc00125cc 0x080b2019
0xc00125d0 0x00122505
0xc00125d4 0x0808031e
0xc00125d8 0x0014210e
0xc00125dc 0x040e2d18
0xc00125e0 0x00151f0e
0xc00125e4 0x00130b13
0xc00125e8 0x00121b04
0xc00125ec 0x00110210
0xc00125f0 0x000f1f04
0xc00125f4 0x0009280d
0xc00125f8 0x00141b0a
0xc00125fc 0x00121213
0xc0010600 0x0a00000a
0xc0010604 0x00170f00
0xc0010608 0x09000112
0xc001060c 0x00140f00
0xc0010610 0x09000010
0xc0010614 0x00131000
0xc0010618 0x0b000004
0xc001061c 0x001f0e00
0xc0010620 0x04000008
0xc0010624 0x001f1900
0xc0010628 0x00000017
0xc001062c 0x000b1201
0xc0010630 0x06000115
0xc0010634 0x000e0f00
0xc0010638 0x08000015
0xc001063c 0x000c0d00
0xc0010640 0x08000017
0xc0010644 0x00171200
0xc0010648 0x0900000e
0xc001064c 0x00171200
0xc0010650 0x0f000000
0xc0010654 0x00211200
0xc0010658 0x07000007
0xc001065c 0x00100900
0xc0010660 0x0d000013
0xc0010664 0x00161704
0xc0010668 0x09000000
0xc001066c 0x001d1103
0xc0010670 0x0200000d
0xc0010674 0x001f1b0a
0xc0010678 0x00000f0e
0xc001067c 0x001c0e0b
0xc0010680 0x00000a11
0xc0010684 0x001e0c0c
0xc0010688 0x00001315
0xc001068c 0x00260e0c
0xc0010690 0x00001a0a
0xc0010694 0x00210608
0xc0010698 0x03000407
0xc001069c 0x00180d09
0xc00106a0 0x0500010a
0xc00106a4 0x0014120c
0xc00106a8 0x00000029
0xc00106ac 0x0000090f
0xc00106b0 0x00000936
0xc00106b4 0x000a120b
0xc00106b8 0x06000013
0xc00106bc 0x00120f00
0xc00106c0 0x0a000006
0xc00106c4 0x00141400
0xc00106c8 0x06000014
0xc00106cc 0x000a1800
0xc00106d0 0x0b000006
0xc00106d4 0x001b1600
0xc00106d8 0x00000016
0xc00106dc 0x00101f03
0xc00106e0 0x0000001f
0xc00106e4 0x00061104
0xc00106e8 0x0800000c
0xc00106ec 0x001b1200
0xc00106f0 0x04000014
0xc00106f4 0x00101601
0xc00106f8 0x0000032e
0xc00106fc 0x00001002
0xc0012600 0x000a0d00
0xc0012604 0x02052b11
0xc0012608 0x000c1000
0xc001260c 0x010b1a14
0xc0012610 0x000c1200
0xc0012614 0x030a1e14
0xc0012618 0x000d0f00
0xc001261c 0x070a1817
0xc0012620 0x000e1800
0xc0012624 0x0c02251c
0xc0012628 0x00141d08
0xc001262c 0x090b191d
0xc0012630 0x00131d08
0xc0012634 0x00101614
0xc0012638 0x000f1a05
0xc001263c 0x000b180d
0xc0012640 0x000f1a04
0xc0012644 0x000a1e10
0xc0012648 0x00101c02
0xc001264c 0x000b1215
0xc0012650 0x00101e08
0xc0012654 0x0005020f
0xc0012658 0x05111009
0xc001265c 0x00094e05
0xc0012660 0x01170807
0xc0012664 0x000b000e
0xc0012668 0x051b0105
0xc001266c 0x070d1e13
0xc0012670 0x071d0711
0xc0012674 0x03022314
0xc0012678 0x07220819
0xc001267c 0x000d2913
0xc0012680 0x081e061a
0xc0012684 0x0004230b
0xc0012688 0x071e081e
0xc001268c 0x0001270d
0xc0012690 0x051c0012
0xc0012694 0x000b2310
0xc0012698 0x0218000b
0xc001269c 0x00070010
0xc00126a0 0x011a0512
0xc00126a4 0x000b180f
0xc00126a8 0x041a0a18
0xc00126ac 0x000c3809
0xc00126b0 0x001a1a12
0xc00126b4 0x00121312
0xc00126b8 0x00142202
0xc00126bc 0x00140017
0xc00126c0 0x000f2600
0xc00126c4 0x080b1013
0xc00126c8 0x00122700
0xc00126cc 0x0a111715
0xc00126d0 0x00122200
0xc00126d4 0x0e110019
0xc00126d8 0x00122706
0xc00126dc 0x0e083c1a
0xc00126e0 0x0018220b
0xc00126e4 0x0415001a
0xc00126e8 0x00131f04
0xc00126ec 0x010e1b13
0xc00126f0 0x00112307
0xc00126f4 0x00071512
0xc00126f8 0x01141b0c
0xc00126fc 0x00122612
0xc0010700 0x0a00000b
0xc0010704 0x00160f00
0xc0010708 0x09000113
0xc001070c 0x00130f00
0xc0010710 0x0a000011
0xc0010714 0x00131000
0xc0010718 0x0a00000e
0xc001071c 0x00110f00
0xc0010720 0x0b00000c
0xc0010724 0x00141500
0xc0010728 0x0800000d
0xc001072c 0x00151700
0xc0010730 0x0800000b
0xc0010734 0x00141000
0xc0010738 0x04000018
0xc001073c 0x000c0e00
0xc0010740 0x0700001e
0xc0010744 0x000b1300
0xc0010748 0x0d00000b
0xc001074c 0x00121100
0xc0010750 0x12000000
0xc0010754 0x002e0f00
0xc0010758 0x0200000f
0xc001075c 0x00101b04
0xc0010760 0x05000615
0xc0010764 0x000a0906
0xc0010768 0x0c000006
0xc001076c 0x001d1603
0xc0010770 0x08000007
0xc0010774 0x00131007
0xc0010778 0x07000009
0xc001077c 0x001d1509
0xc0010780 0x01000311
0xc0010784 0x0013150b
0xc0010788 0x02000414
0xc001078c 0x000d110b
0xc0010790 0x03000313
0xc0010794 0x0018170b
0xc0010798 0x0200060a
0xc001079c 0x001d120a
0xc00107a0 0x00000007
0xc00107a4 0x0027100c
0xc00107a8 0x00000c2d
0xc00107ac 0x0009190f
0xc00107b0 0x00001132
0xc00107b4 0x00000c09
0xc00107b8 0x0b000011
0xc00107bc 0x000e0e00
0xc00107c0 0x0d00000a
0xc00107c4 0x00151500
0xc00107c8 0x07000016
0xc00107cc 0x000b1400
0xc00107d0 0x0900000e
0xc00107d4 0x00141000
0xc00107d8 0x05000014
0xc00107dc 0x00101d00
0xc00107e0 0x05000012
0xc00107e4 0x000c1300
0xc00107e8 0x0b00000e
0xc00107ec 0x000d1100
0xc00107f0 0x0b000010
0xc00107f4 0x00121501
0xc00107f8 0x0000002f
0xc00107fc 0x00001503
0xc0012700 0x000a0e00
0xc0012704 0x03052911
0xc0012708 0x000c1000
0xc001270c 0x010c1a13
0xc0012710 0x000c1100
0xc0012714 0x020a1d13
0xc0012718 0x000d1000
0xc001271c 0x050f1f15
0xc0012720 0x000e1400
0xc0012724 0x0c0a0918
0xc0012728 0x00101c01
0xc001272c 0x0d0a2319
0xc0012730 0x00101b05
0xc0012734 0x040b1814
0xc0012738 0x000e1805
0xc001273c 0x000a320f
0xc0012740 0x00101903
0xc0012744 0x000f0714
0xc0012748 0x000f1a01
0xc001274c 0x030d0a13
0xc0012750 0x000e1200
0xc0012754 0x03051b0f
0xc0012758 0x0512150c
0xc001275c 0x00004010
0xc0012760 0x021d060f
0xc0012764 0x00160013
0xc0012768 0x05190509
0xc001276c 0x0009230c
0xc0012770 0x061c000b
0xc0012774 0x000c120e
0xc0012778 0x061f010e
0xc001277c 0x0009240f
0xc0012780 0x07210310
0xc0012784 0x000d2213
0xc0012788 0x0622000e
0xc001278c 0x00130f13
0xc0012790 0x0420000e
0xc0012794 0x020e1a14
0xc0012798 0x031e000d
0xc001279c 0x030e1f16
0xc00127a0 0x031b000b
0xc00127a4 0x0704281a
0xc00127a8 0x051c1012
0xc00127ac 0x08074022
0xc00127b0 0x001e1d10
0xc00127b4 0x041d0022
0xc00127b8 0x00132404
0xc00127bc 0x02140c11
0xc00127c0 0x000e2700
0xc00127c4 0x00091c0d
0xc00127c8 0x00102805
0xc00127cc 0x000b1410
0xc00127d0 0x00111f00
0xc00127d4 0x04131614
0xc00127d8 0x00102501
0xc00127dc 0x0a060918
0xc00127e0 0x00152508
0xc00127e4 0x07131a17
0xc00127e8 0x00112103
0xc00127ec 0x000f110e
0xc00127f0 0x00112205
0xc00127f4 0x000a130d
0xc00127f8 0x01131d0c
0xc00127fc 0x000d3310
0xc0010800 0x0a00000b
0xc0010804 0x00170f00
0xc0010808 0x0b000211
0xc001080c 0x00131000
0xc0010810 0x0a000011
0xc0010814 0x00110e00
0xc0010818 0x0b000014
0xc001081c 0x00121200
0xc0010820 0x0d00000e
0xc0010824 0x00120e00
0xc0010828 0x0e000009
0xc001082c 0x00191300
0xc0010830 0x0c000004
0xc0010834 0x001d1100
0xc0010838 0x0100001d
0xc001083c 0x00071201
0xc0010840 0x0700021f
0xc0010844 0x000e1100
0xc0010848 0x09000008
0xc001084c 0x001e0f00
0xc0010850 0x0f000000
0xc0010854 0x002a1600
0xc0010858 0x04000006
0xc001085c 0x00091303
0xc0010860 0x09000412
0xc0010864 0x00131106
0xc0010868 0x0700000c
0xc001086c 0x00170d06
0xc0010870 0x0500020a
0xc0010874 0x00231707
0xc0010878 0x02000208
0xc001087c 0x000f0e08
0xc0010880 0x0600000e
0xc0010884 0x000f110b
0xc0010888 0x03000217
0xc001088c 0x000f100c
0xc0010890 0x06000915
0xc0010894 0x0016130b
0xc0010898 0x0400040d
0xc001089c 0x00160f09
0xc00108a0 0x00000118
0xc00108a4 0x000f1409
0xc00108a8 0x0000002d
0xc00108ac 0x00001d0b
0xc00108b0 0x0200021e
0xc00108b4 0x000c1104
0xc00108b8 0x0800000e
0xc00108bc 0x00140e00
0xc00108c0 0x08000010
0xc00108c4 0x00161400
0xc00108c8 0x04000013
0xc00108cc 0x00101500
0xc00108d0 0x07000015
0xc00108d4 0x00081200
0xc00108d8 0x0e00000e
0xc00108dc 0x000b1200
0xc00108e0 0x10000009
0xc00108e4 0x00141300
0xc00108e8 0x0a000011
0xc00108ec 0x00131101
0xc00108f0 0x09000012
0xc00108f4 0x00151401
0xc00108f8 0x0000002f
0xc00108fc 0x00001303
0xc0012800 0x000a0e00
0xc0012804 0x03052811
0xc0012808 0x000c1101
0xc001280c 0x000c1912
0xc0012810 0x000c1001
0xc0012814 0x000b200f
0xc0012818 0x000d1302
0xc001281c 0x000b1b10
0xc0012820 0x000e1400
0xc0012824 0x000e1710
0xc0012828 0x000d1700
0xc001282c 0x0208140f
0xc0012830 0x000e1600
0xc0012834 0x02092211
0xc0012838 0x000f1705
0xc001283c 0x00092e12
0xc0012840 0x00121806
0xc0012844 0x00110516
0xc0012848 0x000e1400
0xc001284c 0x05092116
0xc0012850 0x000f1200
0xc0012854 0x06090f18
0xc0012858 0x04131009
0xc001285c 0x07021e12
0xc0012860 0x031b0911
0xc0012864 0x00122a0e
0xc0012868 0x051a000b
0xc001286c 0x0007140d
0xc0012870 0x061c020d
0xc0012874 0x00052714
0xc0012878 0x061e000e
0xc001287c 0x000c1413
0xc0012880 0x061f0213
0xc0012884 0x000a160b
0xc0012888 0x07200014
0xc001288c 0x000d2d0a
0xc0012890 0x04200010
0xc0012894 0x000f0c0f
0xc0012898 0x041d000b
0xc001289c 0x000f1e10
0xc00128a0 0x021b0003
0xc00128a4 0x08132417
0xc00128a8 0x001c150a
0xc00128ac 0x1010021f
0xc00128b0 0x001b210e
0xc00128b4 0x0a181b1a
0xc00128b8 0x00112205
0xc00128bc 0x000d240f
0xc00128c0 0x00102402
0xc00128c4 0x00080f11
0xc00128c8 0x00122604
0xc00128cc 0x030b1815
0xc00128d0 0x00122304
0xc00128d4 0x00111113
0xc00128d8 0x00112203
0xc00128dc 0x0010030d
0xc00128e0 0x00102307
0xc00128e4 0x000b1c07
0xc00128e8 0x00102007
0xc00128ec 0x000a2508
0xc00128f0 0x00122006
0xc00128f4 0x000b0e0e
0xc00128f8 0x02131b0b
0xc00128fc 0x000c2811
0xc0010900 0x0a00000a
0xc0010904 0x00170f00
0xc0010908 0x0e00010b
0xc001090c 0x00191100
0xc0010910 0x0b000010
0xc0010914 0x000e0c00
0xc0010918 0x10000014
0xc001091c 0x00151100
0xc0010920 0x0e00000f
0xc0010924 0x00150f00
0xc0010928 0x0f00000b
0xc001092c 0x001a1000
0xc0010930 0x11000003
0xc0010934 0x001d1300
0xc0010938 0x0800001c
0xc001093c 0x00001101
0xc0010940 0x1200011d
0xc0010944 0x000a0f00
0xc0010948 0x15000010
0xc001094c 0x000e1100
0xc0010950 0x19000000
0xc0010954 0x00291300
0xc0010958 0x08000002
0xc001095c 0x00241a01
0xc0010960 0x00000312
0xc0010964 0x00181207
0xc0010968 0x05000d0a
0xc001096c 0x00121505
0xc0010970 0x0b000006
0xc0010974 0x00030407
0xc0010978 0x12000007
0xc001097c 0x0020160a
0xc0010980 0x0100000f
0xc0010984 0x0012080d
0xc0010988 0x0100071d
0xc001098c 0x00171b0e
0xc0010990 0x00000a0f
0xc0010994 0x000a070b
0xc0010998 0x06000512
0xc001099c 0x0016130a
0xc00109a0 0x00000527
0xc00109a4 0x00000d0b
0xc00109a8 0x05000428
0xc00109ac 0x000e1507
0xc00109b0 0x0900000e
0xc00109b4 0x00171100
0xc00109b8 0x08000011
0xc00109bc 0x000d1000
0xc00109c0 0x0b000016
0xc00109c4 0x00101500
0xc00109c8 0x0a000011
0xc00109cc 0x00121600
0xc00109d0 0x09000011
0xc00109d4 0x00161500
0xc00109d8 0x09000009
0xc00109dc 0x001d1100
0xc00109e0 0x06000008
0xc00109e4 0x001c1101
0xc00109e8 0x00000017
0xc00109ec 0x000f1303
0xc00109f0 0x06000011
0xc00109f4 0x00131402
0xc00109f8 0x0000002d
0xc00109fc 0x00001204
0xc0012900 0x000a0f00
0xc0012904 0x02062810
0xc0012908 0x000d1403
0xc001290c 0x000b1210
0xc0012910 0x000d1305
0xc0012914 0x000c2909
0xc0012918 0x000f1506
0xc001291c 0x000d0e08
0xc0012920 0x000f1705
0xc0012924 0x000c1e08
0xc0012928 0x000f1502
0xc001292c 0x000b1509
0xc0012930 0x000f1702
0xc0012934 0x000a100a
0xc0012938 0x01101b0b
0xc001293c 0x000d2906
0xc0012940 0x0013190a
0xc0012944 0x00190304
0xc0012948 0x000f1601
0xc001294c 0x00121b01
0xc0012950 0x000f0f00
0xc0012954 0x000b0007
0xc0012958 0x05120e05
0xc001295c 0x05004a10
0xc0012960 0x041b060d
0xc0012964 0x0209141b
0xc0012968 0x041c080e
0xc001296c 0x000f1616
0xc0012970 0x041a000c
0xc0012974 0x00110806
0xc0012978 0x02180211
0xc001297c 0x00052801
0xc0012980 0x061a0011
0xc0012984 0x00063a09
0xc0012988 0x041e0314
0xc001298c 0x00071515
0xc0012990 0x06210013
0xc0012994 0x00120e13
0xc0012998 0x051d0310
0xc001299c 0x000c230a
0xc00129a0 0x051d0610
0xc00129a4 0x0012200c
0xc00129a8 0x001b140d
0xc00129ac 0x00130911
0xc00129b0 0x00161f07
0xc00129b4 0x00101211
0xc00129b8 0x00122305
0xc00129bc 0x000c220b
0xc00129c0 0x00132504
0xc00129c4 0x0010080e
0xc00129c8 0x00132604
0xc00129cc 0x010e0f10
0xc00129d0 0x00132408
0xc00129d4 0x000c170f
0xc00129d8 0x00122108
0xc00129dc 0x000a1b0e
0xc00129e0 0x00121e06
0xc00129e4 0x00071b0f
0xc00129e8 0x00141f07
0xc00129ec 0x000a1c14
0xc00129f0 0x00152007
0xc00129f4 0x00100016
0xc00129f8 0x03131b0c
0xc00129fc 0x000c3811
0xc0010a00 0x0d00000a
0xc0010a04 0x000c0700
0xc0010a08 0x1400000a
0xc0010a0c 0x00271500
0xc0010a10 0x0600000e
0xc0010a14 0x00171200
0xc0010a18 0x0b000511
0xc0010a1c 0x00191000
0xc0010a20 0x0a00000e
0xc0010a24 0x00130d00
0xc0010a28 0x0b000012
0xc0010a2c 0x00191100
0xc0010a30 0x0c000002
0xc0010a34 0x00281300
0xc0010a38 0x00000014
0xc0010a3c 0x00161504
0xc0010a40 0x04000b17
0xc0010a44 0x00160c03
0xc0010a48 0x07000112
0xc0010a4c 0x00171001
0xc0010a50 0x0e000003
0xc0010a54 0x001e0a00
0xc0010a58 0x0b00000b
0xc0010a5c 0x00131902
0xc0010a60 0x0b000010
0xc0010a64 0x000a1404
0xc0010a68 0x0f000000
0xc0010a6c 0x00251006
0xc0010a70 0x03000505
0xc0010a74 0x00281209
0xc0010a78 0x00000907
0xc0010a7c 0x001c070d
0xc0010a80 0x00000225
0xc0010a84 0x00040f0f
0xc0010a88 0x03000c17
0xc0010a8c 0x001d1c0c
0xc0010a90 0x00000100
0xc0010a94 0x000e0907
0xc0010a98 0x06000610
0xc0010a9c 0x001b140c
0xc0010aa0 0x00000a27
0xc0010aa4 0x00000b0d
0xc0010aa8 0x09000b2a
0xc0010aac 0x00060c08
0xc0010ab0 0x11000009
0xc0010ab4 0x001b0f00
0xc0010ab8 0x0c000012
0xc0010abc 0x000e1402
0xc0010ac0 0x0e000018
0xc0010ac4 0x00080f02
0xc0010ac8 0x0f000014
0xc0010acc 0x00121300
0xc0010ad0 0x0f00000f
0xc0010ad4 0x00181700
0xc0010ad8 0x0c00000a
0xc0010adc 0x00131200
0xc0010ae0 0x0c00000f
0xc0010ae4 0x00131602
0xc0010ae8 0x09000019
0xc0010aec 0x00051603
0xc0010af0 0x0e00000e
0xc0010af4 0x00151002
0xc0010af8 0x00000031
0xc0010afc 0x00001904
0xc0012a00 0x01090e01
0xc0012a04 0x00083405
0xc0012a08 0x000d1303
0xc0012a0c 0x00090b0a
0xc0012a10 0x030f1808
0xc0012a14 0x0005350d
0xc0012a18 0x00141a0a
0xc0012a1c 0x000e050d
0xc0012a20 0x02121909
0xc0012a24 0x000a2007
0xc0012a28 0x00121807
0xc0012a2c 0x000b1409
0xc0012a30 0x00121704
0xc0012a34 0x00070c0e
0xc0012a38 0x04131d0f
0xc0012a3c 0x0002330f
0xc0012a40 0x00181b11
0xc0012a44 0x00100c0e
0xc0012a48 0x03141c0f
0xc0012a4c 0x00081708
0xc0012a50 0x00140f03
0xc0012a54 0x00110e08
0xc0012a58 0x03130f03
0xc0012a5c 0x00060e0c
0xc0012a60 0x021a0b0a
0xc0012a64 0x01151010
0xc0012a68 0x0218020d
0xc0012a6c 0x00050f09
0xc0012a70 0x06170012
0xc0012a74 0x00005b0b
0xc0012a78 0x011a000f
0xc0012a7c 0x00080112
0xc0012a80 0x071a000c
0xc0012a84 0x02094f18
0xc0012a88 0x0021030f
0xc0012a8c 0x07110026
0xc0012a90 0x0a1e0111
0xc0012a94 0x0a0c4f16
0xc0012a98 0x031f0315
0xc0012a9c 0x000a060c
0xc0012aa0 0x081e0a1a
0xc0012aa4 0x000f3b07
0xc0012aa8 0x001c1113
0xc0012aac 0x00190005
0xc0012ab0 0x00141c08
0xc0012ab4 0x000d0d03
0xc0012ab8 0x0112270c
0xc0012abc 0x00092402
0xc0012ac0 0x0015270c
0xc0012ac4 0x00130503
0xc0012ac8 0x00132608
0xc0012acc 0x000e1402
0xc0012ad0 0x00142607
0xc0012ad4 0x000d0b08
0xc0012ad8 0x00142105
0xc0012adc 0x000f1209
0xc0012ae0 0x00142105
0xc0012ae4 0x000e110a
0xc0012ae8 0x0016230a
0xc0012aec 0x0011120b
0xc0012af0 0x00151c07
0xc0012af4 0x00130b0a
0xc0012af8 0x03121b0c
0xc0012afc 0x00073e0d
0xc0010b00 0x06000007
0xc0010b04 0x00171200
0xc0010b08 0x0e00020b
0xc0010b0c 0x00120700
0xc0010b10 0x0c000011
0xc0010b14 0x00141700
0xc0010b18 0x0d00000c
0xc0010b1c 0x001d1200
0xc0010b20 0x0800000c
0xc0010b24 0x00151301
0xc0010b28 0x08000018
0xc0010b2c 0x000b0f02
0xc0010b30 0x0e000009
0xc0010b34 0x001b1200
0xc0010b38 0x06000011
0xc0010b3c 0x00141a02
0xc0010b40 0x05000013
0xc0010b44 0x00131303
0xc0010b48 0x0700000e
0xc0010b4c 0x00171602
0xc0010b50 0x0700000d
0xc0010b54 0x00151102
0xc0010b58 0x04000012
0xc0010b5c 0x00161304
0xc0010b60 0x0100000e
0xc0010b64 0x00271505
0xc0010b68 0x02000b00
0xc0010b6c 0x00291103
0xc0010b70 0x00000004
0xc0010b74 0x00101109
0xc0010b78 0x0100060c
0xc0010b7c 0x00180d0c
0xc0010b80 0x00000c30
0xc0010b84 0x00001f0e
0xc0010b88 0x13000306
0xc0010b8c 0x000e0006
0xc0010b90 0x0c000007
0xc0010b94 0x002f2507
0xc0010b98 0x01000c05
0xc0010b9c 0x001f0f0b
0xc0010ba0 0x0000051e
0xc0010ba4 0x0007130f
0xc0010ba8 0x03001425
0xc0010bac 0x0008070d
0xc0010bb0 0x0b00000e
0xc0010bb4 0x00180805
0xc0010bb8 0x09000012
0xc0010bbc 0x001b1806
0xc0010bc0 0x03000014
0xc0010bc4 0x00100e06
0xc0010bc8 0x0400001c
0xc0010bcc 0x000d1205
0xc0010bd0 0x08000011
0xc0010bd4 0x00181302
0xc0010bd8 0x0600000b
0xc0010bdc 0x00181502
0xc0010be0 0x0500000f
0xc0010be4 0x00141204
0xc0010be8 0x05000012
0xc0010bec 0x00151405
0xc0010bf0 0x06000010
0xc0010bf4 0x00140e03
0xc0010bf8 0x00000037
0xc0010bfc 0x00001706
0xc0012b00 0x040c1608
0xc0012b04 0x00004a0c
0xc0012b08 0x00131305
0xc0012b0c 0x0015000b
0xc0012b10 0x02101c06
0xc0012b14 0x00052607
0xc0012b18 0x00161c09
0xc0012b1c 0x000e060e
0xc0012b20 0x03141f0a
0xc0012b24 0x0007290a
0xc0012b28 0x01161c0a
0xc0012b2c 0x00100e0a
0xc0012b30 0x00141802
0xc0012b34 0x0010090c
0xc0012b38 0x02151f07
0xc0012b3c 0x03071c10
0xc0012b40 0x011a1f0a
0xc0012b44 0x01121213
0xc0012b48 0x02181f0a
0xc0012b4c 0x000a130f
0xc0012b50 0x0218180a
0xc0012b54 0x000e1b0e
0xc0012b58 0x03170f09
0xc0012b5c 0x00081810
0xc0012b60 0x041a0a0b
0xc0012b64 0x0204201a
0xc0012b68 0x031a0104
0xc0012b6c 0x050a1d1e
0xc0012b70 0x03190009
0xc0012b74 0x07060d18
0xc0012b78 0x011c000b
0xc0012b7c 0x05132b16
0xc0012b80 0x031d0a16
0xc0012b84 0x00121c13
0xc0012b88 0x0020000c
0xc0012b8c 0x0026000a
0xc0012b90 0x0917040b
0xc0012b94 0x00005b07
0xc0012b98 0x04240012
0xc0012b9c 0x00100019
0xc0012ba0 0x0a1f0c1d
0xc0012ba4 0x0004430c
0xc0012ba8 0x0120111c
0xc0012bac 0x00180307
0xc0012bb0 0x0115160c
0xc0012bb4 0x000c1900
0xc0012bb8 0x0014250e
0xc0012bbc 0x00031007
0xc0012bc0 0x02182811
0xc0012bc4 0x000c1c0b
0xc0012bc8 0x0217270d
0xc0012bcc 0x000c120a
0xc0012bd0 0x00172509
0xc0012bd4 0x000c000e
0xc0012bd8 0x02162509
0xc0012bdc 0x00091e0e
0xc0012be0 0x0117210b
0xc0012be4 0x000b0d0e
0xc0012be8 0x0117220f
0xc0012bec 0x0009160c
0xc0012bf0 0x01171c0a
0xc0012bf4 0x00101a0b
0xc0012bf8 0x03161a0d
0xc0012bfc 0x000b1d0f
0xc0010c00 0x0c000000
0xc0010c04 0x00171300
0xc0010c08 0x0a00000e
0xc0010c0c 0x001b0f01
0xc0010c10 0x08000014
0xc0010c14 0x000f1402
0xc0010c18 0x0c00000b
0xc0010c1c 0x00160e00
0xc0010c20 0x0800000d
0xc0010c24 0x001a1702
0xc0010c28 0x02000017
0xc0010c2c 0x00111404
0xc0010c30 0x0800000f
0xc0010c34 0x00111002
0xc0010c38 0x09000011
0xc0010c3c 0x000c1302
0xc0010c40 0x0b000013
0xc0010c44 0x00121502
0xc0010c48 0x0900000d
0xc0010c4c 0x00161402
0xc0010c50 0x0700000e
0xc0010c54 0x00171803
0xc0010c58 0x05000017
0xc0010c5c 0x00041204
0xc0010c60 0x0e000013
0xc0010c64 0x00081202
0xc0010c68 0x13000000
0xc0010c6c 0x001d1502
0xc0010c70 0x03000007
0xc0010c74 0x00231407
0xc0010c78 0x00000e11
0xc0010c7c 0x001f1d0a
0xc0010c80 0x00000510
0xc0010c84 0x000b0b0e
0xc0010c88 0x0400140e
0xc0010c8c 0x001e0709
0xc0010c90 0x05000016
0xc0010c94 0x000e160a
0xc0010c98 0x0a000000
0xc0010c9c 0x00211008
0xc0010ca0 0x00000013
0xc0010ca4 0x0012180e
0xc0010ca8 0x00000d1e
0xc0010cac 0x00130a0f
0xc0010cb0 0x0000011a
0xc0010cb4 0x0013110a
0xc0010cb8 0x03000015
0xc0010cbc 0x000e0f07
0xc0010cc0 0x04000013
0xc0010cc4 0x00151b06
0xc0010cc8 0x0000001c
0xc0010ccc 0x00011306
0xc0010cd0 0x09000014
0xc0010cd4 0x00101203
0xc0010cd8 0x0800000d
0xc0010cdc 0x00171902
0xc0010ce0 0x0600000d
0xc0010ce4 0x00141603
0xc0010ce8 0x0500000e
0xc0010cec 0x00141405
0xc0010cf0 0x03000016
0xc0010cf4 0x00121606
0xc0010cf8 0x0000033a
0xc0010cfc 0x00001607
0xc0012c00 0x030c1705
0xc0012c04 0x02002c0a
0xc0012c08 0x00151b0b
0xc0012c0c 0x000f260b
0xc0012c10 0x02141f0a
0xc0012c14 0x0008110a
0xc0012c18 0x00161c07
0xc0012c1c 0x00100b0c
0xc0012c20 0x02142008
0xc0012c24 0x00041c0c
0xc0012c28 0x0218210d
0xc0012c2c 0x000c1a11
0xc0012c30 0x00171f08
0xc0012c34 0x0010090e
0xc0012c38 0x02152008
0xc0012c3c 0x000b120a
0xc0012c40 0x01182209
0xc0012c44 0x000f120c
0xc0012c48 0x02181f07
0xc0012c4c 0x000b120e
0xc0012c50 0x02181c09
0xc0012c54 0x000a1710
0xc0012c58 0x0319140a
0xc0012c5c 0x0012190f
0xc0012c60 0x00190b04
0xc0012c64 0x0017000d
0xc0012c68 0x00160502
0xc0012c6c 0x050d0b0c
0xc0012c70 0x04160006
0xc0012c74 0x0a034913
0xc0012c78 0x011d030c
0xc0012c7c 0x070c1421
0xc0012c80 0x051e061e
0xc0012c84 0x00070d15
0xc0012c88 0x071e0015
0xc0012c8c 0x00135908
0xc0012c90 0x061d000c
0xc0012c94 0x0007000e
0xc0012c98 0x0522000d
0xc0012c9c 0x03121912
0xc0012ca0 0x091f0717
0xc0012ca4 0x0002340c
0xc0012ca8 0x04230b1a
0xc0012cac 0x00121c0f
0xc0012cb0 0x021b1710
0xc0012cb4 0x000d1d0d
0xc0012cb8 0x00191e0a
0xc0012cbc 0x000f0011
0xc0012cc0 0x01192a0b
0xc0012cc4 0x010b1813
0xc0012cc8 0x021b2a0e
0xc0012ccc 0x00111011
0xc0012cd0 0x00192508
0xc0012cd4 0x0013080e
0xc0012cd8 0x01172406
0xc0012cdc 0x01091110
0xc0012ce0 0x02192309
0xc0012ce4 0x010d1512
0xc0012ce8 0x0219210a
0xc0012cec 0x000c1210
0xc0012cf0 0x021a230c
0xc0012cf4 0x000d1a10
0xc0012cf8 0x041a1f10
0xc0012cfc 0x00102013
0xc0010d00 0x0c000000
0xc0010d04 0x001d1100
0xc0010d08 0x06000012
0xc0010d0c 0x000f0f03
0xc0010d10 0x08000013
0xc0010d14 0x00161703
0xc0010d18 0x0600000d
0xc0010d1c 0x00100e02
0xc0010d20 0x07000013
0xc0010d24 0x00111503
0xc0010d28 0x04000015
0xc0010d2c 0x00101603
0xc0010d30 0x0400000f
0xc0010d34 0x00191303
0xc0010d38 0x01000011
0xc0010d3c 0x00151603
0xc0010d40 0x02000011
0xc0010d44 0x000e1003
0xc0010d48 0x06000011
0xc0010d4c 0x00121502
0xc0010d50 0x0700000c
0xc0010d54 0x00151503
0xc0010d58 0x02000014
0xc0010d5c 0x00131605
0xc0010d60 0x0700060f
0xc0010d64 0x00160f05
0xc0010d68 0x0a000001
0xc0010d6c 0x001b0603
0xc0010d70 0x07000018
0xc0010d74 0x00081707
0xc0010d78 0x0e000008
0xc0010d7c 0x00100c08
0xc0010d80 0x0f000000
0xc0010d84 0x00251507
0xc0010d88 0x0200001b
0xc0010d8c 0x00000d0f
0xc0010d90 0x0d000217
0xc0010d94 0x000f0f0d
0xc0010d98 0x0c000001
0xc0010d9c 0x001c0c09
0xc0010da0 0x03000012
0xc0010da4 0x001b1a0e
0xc0010da8 0x00000a1b
0xc0010dac 0x00090d0e
0xc0010db0 0x00000021
0xc0010db4 0x000d120d
0xc0010db8 0x0100001c
0xc0010dbc 0x00101507
0xc0010dc0 0x04000010
0xc0010dc4 0x00101505
0xc0010dc8 0x02000014
0xc0010dcc 0x000d1705
0xc0010dd0 0x05000017
0xc0010dd4 0x000a1204
0xc0010dd8 0x09000010
0xc0010ddc 0x000f1303
0xc0010de0 0x0800000e
0xc0010de4 0x00161603
0xc0010de8 0x0500000e
0xc0010dec 0x00171804
0xc0010df0 0x01000015
0xc0010df4 0x000b1505
0xc0010df8 0x0000003a
0xc0010dfc 0x00001707
0xc0012d00 0x040c1603
0xc0012d04 0x0100390b
0xc0012d08 0x01151a08
0xc0012d0c 0x000c180e
0xc0012d10 0x0016210b
0xc0012d14 0x00090c10
0xc0012d18 0x02171e08
0xc0012d1c 0x000e1e0f
0xc0012d20 0x01162005
0xc0012d24 0x000b0d0f
0xc0012d28 0x01172208
0xc0012d2c 0x030c1114
0xc0012d30 0x01171f08
0xc0012d34 0x030a1915
0xc0012d38 0x0217220a
0xc0012d3c 0x01071f16
0xc0012d40 0x0319210a
0xc0012d44 0x000d0d14
0xc0012d48 0x02192107
0xc0012d4c 0x000c1312
0xc0012d50 0x01191c07
0xc0012d54 0x010b0813
0xc0012d58 0x0318180e
0xc0012d5c 0x00072611
0xc0012d60 0x01180f11
0xc0012d64 0x000c110f
0xc0012d68 0x01140007
0xc0012d6c 0x000a2309
0xc0012d70 0x01150307
0xc0012d74 0x000c1d0d
0xc0012d78 0x0019000a
0xc0012d7c 0x02130010
0xc0012d80 0x0115040e
0xc0012d84 0x00064b07
0xc0012d88 0x041a0116
0xc0012d8c 0x000b2107
0xc0012d90 0x021f0218
0xc0012d94 0x00130406
0xc0012d98 0x071c000e
0xc0012d9c 0x000a2b04
0xc0012da0 0x07200314
0xc0012da4 0x00041d0c
0xc0012da8 0x06240815
0xc0012dac 0x00152011
0xc0012db0 0x031f1211
0xc0012db4 0x000f0e0f
0xc0012db8 0x021d1e0c
0xc0012dbc 0x00121d15
0xc0012dc0 0x011b2508
0xc0012dc4 0x040e0016
0xc0012dc8 0x031a2a0e
0xc0012dcc 0x020b2511
0xc0012dd0 0x011a240c
0xc0012dd4 0x00120e0f
0xc0012dd8 0x01172107
0xc0012ddc 0x000d0a0d
0xc0012de0 0x02182007
0xc0012de4 0x010a170f
0xc0012de8 0x021a2308
0xc0012dec 0x030b1714
0xc0012df0 0x031b260b
