0x00081000 0x0a1812f3
0x00081004 0x0abff6d5
0x00081008 0x0ebaf7b0
0x0008100c 0xfd1c1655
0x00081010 0x06b8fe94
0x00081014 0xff980baf
0x00081018 0x22741407
0x0008101c 0x00900973
0x00026000 0x000e1f18
0x00026004 0x00000000
0x00026008 0x0010221a
0x0002600c 0x00000000
0x00026010 0x0014261e
0x00026014 0x00000000
0x00080000 0x23050f02
0x00080004 0xf14404ec
0x00026018 0x00102317
0x0002601c 0x00000000
0x00080008 0xfdfb01d7
0x0008000c 0x07050102
0x00026020 0x00112011
0x00026024 0x00000000
0x00080010 0xe611f50a
0x00080014 0x04020401
0x00026028 0x00142410
0x0002602c 0x00000000
0x00080018 0x130b0b02
0x0008001c 0xe228dbc5
0x00026030 0x00061a00
0x00026034 0x00000000
0x00080020 0xfffc000f
0x00080024 0x18050303
0x00026038 0x000c2005
0x0002603c 0x00000000
0x00080028 0xe3120316
0x0008002c 0xf7f5f7de
0x00026040 0x0024331d
0x00026044 0x00000000
0x00080030 0x30f3eaf7
0x00080034 0xecf1dfee
0x00026048 0x000d1c05
0x0002604c 0x00000000
0x00080038 0x0b020421
0x0008003c 0x02fbfdfb
0x00026050 0x00172b0c
0x00026054 0x00000000
0x00080040 0x0217fff6
0x00080044 0xf7f6f8ee
0x00026058 0x00132705
0x0002605c 0x00000000
0x00080048 0x2413190c
0x0008004c 0xfb3c3205
0x00026060 0x00132304
0x00026064 0x00000000
0x00080050 0xeaf0f2ce
0x00080054 0xe4090406
0x00083000 0x0cbf03ff
0x00083004 0x18c716df
0x00026068 0x00101f03
0x0002606c 0x00000000
0x00080058 0xdfdef4f9
0x0008005c 0x020202f7
0x00083008 0xefd9fc35
0x0008300c 0xf5d3ff61
0x00026070 0x0013240b
0x00026074 0x00000000
0x00080060 0x250a0700
0x00080064 0xc8e918ee
0x00083010 0x391f218a
0x00083014 0x076bf4c1
0x00026078 0x0013250e
0x0002607c 0x00000000
0x00080068 0xe7e9e8ea
0x0008006c 0x00080507
0x00083018 0x094e2dd2
0x0008301c 0xd3ea19c3
0x00026080 0x0014240f
0x00026084 0x00000000
0x00080070 0x0519110d
0x00080074 0xf4f8f80a
0x00026088 0x00172a11
0x0002608c 0x00000000
0x00080078 0x15e5dde6
0x0008007c 0xf4cbe9e4
0x00026090 0x000d2806
0x00026094 0x00000000
0x00080080 0x0601fd2f
0x00080084 0xf6020100
0x00026098 0x00183911
0x0002609c 0x00000000
0x00080088 0x313408f5
0x0008008c 0xfc02001e
0x000260a0 0x0046683e
0x000260a4 0x00000000
0x00080090 0xdc0f120b
0x00080094 0x131121ec
0x000260a8 0x0016320f
0x000260ac 0x00000000
0x00080098 0x001215dc
0x0008009c 0xff040204
0x000260b0 0x00091902
0x000260b4 0x00000000
0x000800a0 0x0ff50618
0x000800a4 0x0102fe1f
0x000260b8 0x0015210d
0x000260bc 0x00000000
0x000800a8 0xe3fffe00
0x000800ac 0xfddc18df
0x000260c0 0x0014230a
0x000260c4 0x00000000
0x000800b0 0xff0c0904
0x000800b4 0xdf010103
0x000260c8 0x002e3e27
0x000260cc 0x00000000
0x000800b8 0xe3cff5f1
0x000800bc 0xf80000fb
0x000260d0 0x000c1a0a
0x000260d4 0x00000000
0x000800c0 0x06eff0fc
0x000800c4 0x16c20ffa
0x000260d8 0x000b190a
0x000260dc 0x00000000
0x000800c8 0x110e0440
0x000800cc 0xfb00feff
0x000260e0 0x00304329
0x000260e4 0x00000000
0x000800d0 0x06eb0e03
0x000800d4 0x0009060c
0x000260e8 0x00162a0c
0x000260ec 0x00000000
0x000800d8 0xfefe080e
0x000800dc 0x050cf61a
0x000260f0 0x0014270d
0x000260f4 0x00000000
0x000800e0 0xfffc0203
0x000800e4 0x1cfd110b
0x000260f8 0x00203319
0x000260fc 0x00000000
0x000800e8 0x13142f0f
0x000800ec 0x0e100bff
0x00026100 0x000f2018
0x00026104 0x00000000
0x000800f0 0xf1fcf9fa
0x000800f4 0xfdfcf524
0x00026108 0x0013241b
0x0002610c 0x00000000
0x000800f8 0x08fcf905
0x000800fc 0xd8030b07
0x00026110 0x00112317
0x00026114 0x00000000
0x00080100 0xfb05e7e2
0x00080104 0x14190fee
0x00026118 0x00132516
0x0002611c 0x00000000
0x00080108 0xe8f4ebed
0x0008010c 0xfc05f00b
0x00026120 0x0020301d
0x00026124 0x00000000
0x00080110 0x04fafafe
0x00080114 0xe4020504
0x00026128 0x000f2009
0x0002612c 0x00000000
0x00080118 0x0b1d0c03
0x0008011c 0x080d0400
0x00026130 0x00304328
0x00026134 0x00000000
0x00080120 0xe1070708
0x00080124 0x07fbf617
0x00026138 0x00182c0e
0x0002613c 0x00000000
0x00080128 0x07fafa18
0x0008012c 0xcf0c1112
0x00026140 0x0014270c
0x00026144 0x00000000
0x00080130 0x1212b7a6
0x00080134 0xf9f9ff08
0x00026148 0x00293c20
0x0002614c 0x00000000
0x00080138 0xe5160802
0x0008013c 0xfeeaf82f
0x00026150 0x00192f0c
0x00026154 0x00000000
0x00080140 0x1a03f818
0x00080144 0x7f0e090f
0x00026158 0x00182b09
0x0002615c 0x00000000
0x00080148 0xebef3953
0x0008014c 0xff0101e7
0x00026160 0x00424c30
0x00026164 0x00000000
0x00080150 0xe20efcf4
0x00080154 0xfaf6f214
0x00026168 0x00131b03
0x0002616c 0x00000000
0x00080158 0x0efaf30b
0x0008015c 0x04040108
0x00026170 0x00132209
0x00026174 0x00000000
0x00080160 0xeef7f6ef
0x00080164 0x000605ee
0x00026178 0x00162910
0x0002617c 0x00000000
0x00080168 0xeb02ff05
0x0008016c 0xfdebf917
0x00026180 0x00162812
0x00026184 0x00000000
0x00080170 0x05f9f710
0x00080174 0x0df2eaf1
0x00026188 0x0011250b
0x0002618c 0x00000000
0x00080178 0x01f0f8e7
0x0008017c 0xebeaf209
0x00026190 0x001a3513
0x00026194 0x00000000
0x00080180 0xe61002fe
0x00080184 0xfce2e621
0x00026198 0x00203f18
0x0002619c 0x00000000
0x00080188 0x14fff217
0x0008018c 0x27ebdee6
0x000261a0 0x0013310a
0x000261a4 0x00000000
0x00080190 0x0bf92207
0x00080194 0xefeff10e
0x000261a8 0x002c4523
0x000261ac 0x00000000
0x00080198 0x041303fb
0x0008019c 0xfdf3f125
0x000261b0 0x00112309
0x000261b4 0x00000000
0x000801a0 0x0cf8f10f
0x000801a4 0xdef8f1ff
0x000261b8 0x00112008
0x000261bc 0x00000000
0x000801a8 0x03f9f5da
0x000801ac 0xf5f8f70f
0x000261c0 0x00182b0f
0x000261c4 0x00000000
0x000261c8 0x002a3c22
0x000261cc 0x00000000
0x000261d0 0x000c1c09
0x000261d4 0x00000000
0x000261d8 0x000d1d0c
0x000261dc 0x00000000
0x000261e0 0x00394c32
0x000261e4 0x00000000
0x000261e8 0x001f3315
0x000261ec 0x00000000
0x000261f0 0x000f2406
0x000261f4 0x00000000
0x000261f8 0x002a3e20
0x000261fc 0x00000000
0x00026200 0x000b1e15
0x00026204 0x00000000
0x00026208 0x000e2013
0x0002620c 0x00000000
0x00026210 0x001b2b19
0x00026214 0x00000000
0x00026218 0x0015230d
0x0002621c 0x00000000
0x00026220 0x0013220b
0x00026224 0x00000000
0x00026228 0x0017280d
0x0002622c 0x00000000
0x00026230 0x001b2e10
0x00026234 0x00000000
0x00026238 0x00435936
0x0002623c 0x00000000
0x00026240 0x00102a04
0x00026244 0x00000000
0x00026248 0x00203a12
0x0002624c 0x00000000
0x00026250 0x00223b14
0x00026254 0x00000000
0x00026258 0x00273615
0x0002625c 0x00000000
0x00026260 0x00504c38
0x00026264 0x00000000
0x00026268 0x00797462
0x0002626c 0x00000000
0x00026270 0x00212f15
0x00026274 0x00000000
0x00026278 0x0013280c
0x0002627c 0x00000000
0x00026280 0x00142911
0x00026284 0x00000000
0x00026288 0x000e240a
0x0002628c 0x00000000
0x00026290 0x0015300e
0x00026294 0x00000000
0x00026298 0x001c3711
0x0002629c 0x00000000
0x000262a0 0x000c2300
0x000262a4 0x00000000
0x000262a8 0x00617553
0x000262ac 0x00000000
0x000262b0 0x002e4223
0x000262b4 0x00000000
0x000262b8 0x00283d1d
0x000262bc 0x00000000
0x000262c0 0x001e3714
0x000262c4 0x00000000
0x000262c8 0x00233c1b
0x000262cc 0x00000000
0x000262d0 0x00162a12
0x000262d4 0x00000000
0x000262d8 0x001a2c17
0x000262dc 0x00000000
0x000262e0 0x00283b23
0x000262e4 0x00000000
0x000262e8 0x001b2f12
0x000262ec 0x00000000
0x000262f0 0x00162d09
0x000262f4 0x00000000
0x000262f8 0x003b552e
0x000262fc 0x00000000
0x00026300 0x00091a0f
0x00026304 0x00000000
0x00026308 0x00091a0b
0x0002630c 0x00000000
0x00026310 0x0022301c
0x00026314 0x00000000
0x00026318 0x00243218
0x0002631c 0x00000000
0x00026320 0x002d3c22
0x00026324 0x00000000
0x00026328 0x00142408
0x0002632c 0x00000000
0x00026330 0x000f2102
0x00026334 0x00000000
0x00026338 0x00354a28
0x0002633c 0x00000000
0x00026340 0x00254019
0x00026344 0x00000000
0x00026348 0x001c390f
0x0002634c 0x00000000
0x00026350 0x00163109
0x00026354 0x00000000
0x00026358 0x00374424
0x0002635c 0x00000000
0x00026360 0x00544a3a
0x00026364 0x00000000
0x00026368 0x005d5042
0x0002636c 0x00000000
0x00026370 0x00323921
0x00026374 0x00000000
0x00026378 0x001b2d11
0x0002637c 0x00000000
0x00026380 0x0034472d
0x00026384 0x00000000
0x00026388 0x001d3318
0x0002638c 0x00000000
0x00026390 0x00142b0b
0x00026394 0x00000000
0x00026398 0x00233716
0x0002639c 0x00000000
0x000263a0 0x00525e40
0x000263a4 0x00000000
0x000263a8 0x004c5839
0x000263ac 0x00000000
0x000263b0 0x002f4320
0x000263b4 0x00000000
0x000263b8 0x000b2400
0x000263bc 0x00000000
0x000263c0 0x0036522b
0x000263c4 0x00000000
0x000263c8 0x00233f1b
0x000263cc 0x00000000
0x000263d0 0x00253d20
0x000263d4 0x00000000
0x000263d8 0x002c4128
0x000263dc 0x00000000
0x000263e0 0x0012250c
0x000263e4 0x00000000
0x000263e8 0x00304327
0x000263ec 0x00000000
0x000263f0 0x003a522d
0x000263f4 0x00000000
0x000263f8 0x003c562d
0x000263fc 0x00000000
0x00026400 0x000c180e
0x00026404 0x00000000
0x00026408 0x000a1709
0x0002640c 0x00000000
0x00026410 0x0014210d
0x00026414 0x00000000
0x00026418 0x00202f16
0x0002641c 0x00000000
0x00026420 0x0038492d
0x00026424 0x00000000
0x00026428 0x001a2c0d
0x0002642c 0x00000000
0x00026430 0x001b2c0f
0x00026434 0x00000000
0x00026438 0x001e3013
0x0002643c 0x00000000
0x00026440 0x00142b0c
0x00026444 0x00000000
0x00026448 0x000b2503
0x0002644c 0x00000000
0x00026450 0x00122c07
0x00026454 0x00000000
0x00026458 0x003f4e2e
0x0002645c 0x00000000
0x00026460 0x004d4330
0x00026464 0x00000000
0x00026468 0x005b4c3d
0x0002646c 0x00000000
0x00026470 0x004c4b36
0x00026474 0x00000000
0x00026478 0x001a2209
0x0002647c 0x00000000
0x00026480 0x00212f14
0x00026484 0x00000000
0x00026488 0x0038482c
0x0002648c 0x00000000
0x00026490 0x003f4e30
0x00026494 0x00000000
0x00026498 0x00353e22
0x0002649c 0x00000000
0x000264a0 0x0056543c
0x000264a4 0x00000000
0x000264a8 0x004c4c32
0x000264ac 0x00000000
0x000264b0 0x00263614
0x000264b4 0x00000000
0x000264b8 0x00031d00
0x000264bc 0x00000000
0x000264c0 0x0029451d
0x000264c4 0x00000000
0x000264c8 0x0029461e
0x000264cc 0x00000000
0x000264d0 0x003f5c38
0x000264d4 0x00000000
0x000264d8 0x00344d2e
0x000264dc 0x00000000
0x000264e0 0x001d3116
0x000264e4 0x00000000
0x000264e8 0x0018290e
0x000264ec 0x00000000
0x000264f0 0x002b401f
0x000264f4 0x00000000
0x000264f8 0x00253c18
0x000264fc 0x00000000
0x00026500 0x000e170d
0x00026504 0x00000000
0x00026508 0x000d180b
0x0002650c 0x00000000
0x00026510 0x00101d0b
0x00026514 0x00000000
0x00026518 0x0014220b
0x0002651c 0x00000000
0x00026520 0x002d3f22
0x00026524 0x00000000
0x00026528 0x002d3f20
0x0002652c 0x00000000
0x00026530 0x00132307
0x00026534 0x00000000
0x00026538 0x0017280d
0x0002653c 0x00000000
0x00026540 0x000c2005
0x00026544 0x00000000
0x00026548 0x000c2204
0x0002654c 0x00000000
0x00026550 0x001a300e
0x00026554 0x00000000
0x00026558 0x00152202
0x0002655c 0x00000000
0x00026560 0x004a412d
0x00026564 0x00000000
0x00026568 0x00554434
0x0002656c 0x00000000
0x00026570 0x006a604d
0x00026574 0x00000000
0x00026578 0x00403d26
0x0002657c 0x00000000
0x00026580 0x003c3e24
0x00026584 0x00000000
0x00026588 0x00292e13
0x0002658c 0x00000000
0x00026590 0x00181c03
0x00026594 0x00000000
0x00026598 0x0057553f
0x0002659c 0x00000000
0x000265a0 0x00685d4a
0x000265a4 0x00000000
0x000265a8 0x005c563f
0x000265ac 0x00000000
0x000265b0 0x00283615
0x000265b4 0x00000000
0x000265b8 0x00132d04
0x000265bc 0x00000000
0x000265c0 0x002b481d
0x000265c4 0x00000000
0x000265c8 0x00365429
0x000265cc 0x00000000
0x000265d0 0x003c5a32
0x000265d4 0x00000000
0x000265d8 0x00425c38
0x000265dc 0x00000000
0x000265e0 0x002d4122
0x000265e4 0x00000000
0x000265e8 0x001a2c0d
0x000265ec 0x00000000
0x000265f0 0x00304423
0x000265f4 0x00000000
0x000265f8 0x00182e0b
0x000265fc 0x00000000
0x00026600 0x0010190e
0x00026604 0x00000000
0x00026608 0x000d170a
0x0002660c 0x00000000
0x00026610 0x000f1a0c
0x00026614 0x00000000
0x00026618 0x000e1b08
0x0002661c 0x00000000
0x00026620 0x002c3b20
0x00026624 0x00000000
0x00026628 0x0028391b
0x0002662c 0x00000000
0x00026630 0x001e3012
0x00026634 0x00000000
0x00026638 0x00182a0d
0x0002663c 0x00000000
0x00026640 0x00172a0e
0x00026644 0x00000000
0x00026648 0x0016290c
0x0002664c 0x00000000
0x00026650 0x001b2c0a
0x00026654 0x00000000
0x00026658 0x00475132
0x0002665c 0x00000000
0x00026660 0x003b341e
0x00026664 0x00000000
0x00026668 0x00493a28
0x0002666c 0x00000000
0x00026670 0x0062523e
0x00026674 0x00000000
0x00026678 0x0065553f
0x0002667c 0x00000000
0x00026680 0x00675941
0x00026684 0x00000000
0x00026688 0x006c5e48
0x0002668c 0x00000000
0x00026690 0x00695d4c
0x00026694 0x00000000
0x00026698 0x005f5244
0x0002669c 0x00000000
0x000266a0 0x00695a4c
0x000266a4 0x00000000
0x000266a8 0x00655e49
0x000266ac 0x00000000
0x000266b0 0x003a4927
0x000266b4 0x00000000
0x000266b8 0x00153106
0x000266bc 0x00000000
0x000266c0 0x001f3c0e
0x000266c4 0x00000000
0x000266c8 0x00274617
0x000266cc 0x00000000
0x000266d0 0x00163409
0x000266d4 0x00000000
0x000266d8 0x00435e36
0x000266dc 0x00000000
0x000266e0 0x00223812
0x000266e4 0x00000000
0x000266e8 0x00253a15
0x000266ec 0x00000000
0x000266f0 0x002e441e
0x000266f4 0x00000000
0x000266f8 0x00213812
0x000266fc 0x00000000
0x00026700 0x000f190d
0x00026704 0x00000000
0x00026708 0x000b1509
0x0002670c 0x00000000
0x00026710 0x000b160b
0x00026714 0x00000000
0x00026718 0x000d1909
0x0002671c 0x00000000
0x00026720 0x000b1800
0x00026724 0x00000000
0x00026728 0x001c2a0e
0x0002672c 0x00000000
0x00026730 0x001b2b10
0x00026734 0x00000000
0x00026738 0x0027391e
0x0002673c 0x00000000
0x00026740 0x0013240b
0x00026744 0x00000000
0x00026748 0x000b1a00
0x0002674c 0x00000000
0x00026750 0x001f2d10
0x00026754 0x00000000
0x00026758 0x005c6246
0x0002675c 0x00000000
0x00026760 0x00362f19
0x00026764 0x00000000
0x00026768 0x0051422f
0x0002676c 0x00000000
0x00026770 0x0053402c
0x00026774 0x00000000
0x00026778 0x00634e39
0x0002677c 0x00000000
0x00026780 0x006f5942
0x00026784 0x00000000
0x00026788 0x005f4a35
0x0002678c 0x00000000
0x00026790 0x005e493b
0x00026794 0x00000000
0x00026798 0x005f4c41
0x0002679c 0x00000000
0x000267a0 0x0069594d
0x000267a4 0x00000000
0x000267a8 0x007b7863
0x000267ac 0x00000000
0x000267b0 0x00273815
0x000267b4 0x00000000
0x000267b8 0x000d2900
0x000267bc 0x00000000
0x000267c0 0x00203c0f
0x000267c4 0x00000000
0x000267c8 0x00223e11
0x000267cc 0x00000000
0x000267d0 0x001c380e
0x000267d4 0x00000000
0x000267d8 0x00253e17
0x000267dc 0x00000000
0x000267e0 0x00223a12
0x000267e4 0x00000000
0x000267e8 0x0021370f
0x000267ec 0x00000000
0x000267f0 0x00243a14
0x000267f4 0x00000000
0x000267f8 0x002b421b
0x000267fc 0x00000000
0x00026800 0x000d190c
0x00026804 0x00000000
0x00026808 0x000b160a
0x0002680c 0x00000000
0x00026810 0x000c150b
0x00026814 0x00000000
0x00026818 0x000c1609
0x0002681c 0x00000000
0x00026820 0x00091400
0x00026824 0x00000000
0x00026828 0x000f1b04
0x0002682c 0x00000000
0x00026830 0x001e2c15
0x00026834 0x00000000
0x00026838 0x002a3923
0x0002683c 0x00000000
0x00026840 0x000b1b06
0x00026844 0x00000000
0x00026848 0x00111e0a
0x0002684c 0x00000000
0x00026850 0x0029321b
0x00026854 0x00000000
0x00026858 0x0042452e
0x0002685c 0x00000000
0x00026860 0x004d432f
0x00026864 0x00000000
0x00026868 0x004b3a29
0x0002686c 0x00000000
0x00026870 0x00624f3e
0x00026874 0x00000000
0x00026878 0x00624e3b
0x0002687c 0x00000000
0x00026880 0x00644f38
0x00026884 0x00000000
0x00026888 0x006a543f
0x0002688c 0x00000000
0x00026890 0x005d4736
0x00026894 0x00000000
0x00026898 0x005a4839
0x0002689c 0x00000000
0x000268a0 0x005a503f
0x000268a4 0x00000000
0x000268a8 0x003c3e27
0x000268ac 0x00000000
0x000268b0 0x001e2f0d
0x000268b4 0x00000000
0x000268b8 0x001f3911
0x000268bc 0x00000000
0x000268c0 0x00203b12
0x000268c4 0x00000000
0x000268c8 0x00243f17
0x000268cc 0x00000000
0x000268d0 0x001f3613
0x000268d4 0x00000000
0x000268d8 0x00142907
0x000268dc 0x00000000
0x000268e0 0x00203710
0x000268e4 0x00000000
0x000268e8 0x002d441c
0x000268ec 0x00000000
0x000268f0 0x002c421c
0x000268f4 0x00000000
0x000268f8 0x002b411c
0x000268fc 0x00000000
0x00026900 0x000c190b
0x00026904 0x00000000
0x00026908 0x000b1809
0x0002690c 0x00000000
0x00026910 0x00162012
0x00026914 0x00000000
0x00026918 0x000e1806
0x0002691c 0x00000000
0x00026920 0x00131e08
0x00026924 0x00000000
0x00026928 0x00152009
0x0002692c 0x00000000
0x00026930 0x001e2b14
0x00026934 0x00000000
0x00026938 0x002a3820
0x0002693c 0x00000000
0x00026940 0x00091801
0x00026944 0x00000000
0x00026948 0x000f1c05
0x0002694c 0x00000000
0x00026950 0x000c1500
0x00026954 0x00000000
0x00026958 0x0050513b
0x0002695c 0x00000000
0x00026960 0x004e4432
0x00026964 0x00000000
0x00026968 0x005b4a3a
0x0002696c 0x00000000
0x00026970 0x00463326
0x00026974 0x00000000
0x00026978 0x00604e3f
0x0002697c 0x00000000
0x00026980 0x006e5d4a
0x00026984 0x00000000
0x00026988 0x0073604d
0x0002698c 0x00000000
0x00026990 0x005b4533
0x00026994 0x00000000
0x00026998 0x00655240
0x0002699c 0x00000000
0x000269a0 0x00504734
0x000269a4 0x00000000
0x000269a8 0x002c2f16
0x000269ac 0x00000000
0x000269b0 0x001f300d
0x000269b4 0x00000000
0x000269b8 0x00263e15
0x000269bc 0x00000000
0x000269c0 0x001b350b
0x000269c4 0x00000000
0x000269c8 0x001c340b
0x000269cc 0x00000000
0x000269d0 0x00203511
0x000269d4 0x00000000
0x000269d8 0x00273b18
0x000269dc 0x00000000
0x000269e0 0x00344922
0x000269e4 0x00000000
0x000269e8 0x00395027
0x000269ec 0x00000000
0x000269f0 0x00263b16
0x000269f4 0x00000000
0x000269f8 0x00314522
0x000269fc 0x00000000
0x00026a00 0x000e1b0c
0x00026a04 0x00000000
0x00026a08 0x000c1907
0x00026a0c 0x00000000
0x00026a10 0x002c381f
0x00026a14 0x00000000
0x00026a18 0x001d2a0d
0x00026a1c 0x00000000
0x00026a20 0x00253213
0x00026a24 0x00000000
0x00026a28 0x00233011
0x00026a2c 0x00000000
0x00026a30 0x00263315
0x00026a34 0x00000000
0x00026a38 0x00445132
0x00026a3c 0x00000000
0x00026a40 0x002c3b19
0x00026a44 0x00000000
0x00026a48 0x00313e1c
0x00026a4c 0x00000000
0x00026a50 0x002b3415
0x00026a54 0x00000000
0x00026a58 0x003f4127
0x00026a5c 0x00000000
0x00026a60 0x003d3521
0x00026a64 0x00000000
0x00026a68 0x003f3121
0x00026a6c 0x00000000
0x00026a70 0x007d6c61
0x00026a74 0x00000000
0x00026a78 0x0067564d
0x00026a7c 0x00000000
0x00026a80 0x007d7166
0x00026a84 0x00000000
0x00026a88 0x0044372a
0x00026a8c 0x00000000
0x00026a90 0x006c5848
0x00026a94 0x00000000
0x00026a98 0x0065523e
0x00026a9c 0x00000000
0x00026aa0 0x00675c47
0x00026aa4 0x00000000
0x00026aa8 0x002d2d12
0x00026aac 0x00000000
0x00026ab0 0x0021310b
0x00026ab4 0x00000000
0x00026ab8 0x00344c1f
0x00026abc 0x00000000
0x00026ac0 0x00213a0a
0x00026ac4 0x00000000
0x00026ac8 0x00233a0a
0x00026acc 0x00000000
0x00026ad0 0x00263c0f
0x00026ad4 0x00000000
0x00026ad8 0x002a3e13
0x00026adc 0x00000000
0x00026ae0 0x0031441a
0x00026ae4 0x00000000
0x00026ae8 0x0030421a
0x00026aec 0x00000000
0x00026af0 0x0021310e
0x00026af4 0x00000000
0x00026af8 0x003b4b29
0x00026afc 0x00000000
0x00026b00 0x0035422d
0x00026b04 0x00000000
0x00026b08 0x00101d04
0x00026b0c 0x00000000
0x00026b10 0x002c3a18
0x00026b14 0x00000000
0x00026b18 0x00202e09
0x00026b1c 0x00000000
0x00026b20 0x00394721
0x00026b24 0x00000000
0x00026b28 0x002c3a15
0x00026b2c 0x00000000
0x00026b30 0x0025330f
0x00026b34 0x00000000
0x00026b38 0x00394721
0x00026b3c 0x00000000
0x00026b40 0x00313f15
0x00026b44 0x00000000
0x00026b48 0x0036441a
0x00026b4c 0x00000000
0x00026b50 0x003b4521
0x00026b54 0x00000000
0x00026b58 0x003f4124
0x00026b5c 0x00000000
0x00026b60 0x0049432d
0x00026b64 0x00000000
0x00026b68 0x005c5040
0x00026b6c 0x00000000
0x00026b70 0x0064544a
0x00026b74 0x00000000
0x00026b78 0x0065574e
0x00026b7c 0x00000000
0x00026b80 0x006a5e55
0x00026b84 0x00000000
0x00026b88 0x00180b00
0x00026b8c 0x00000000
0x00026b90 0x00786552
0x00026b94 0x00000000
0x00026b98 0x00614d38
0x00026b9c 0x00000000
0x00026ba0 0x007f6f59
0x00026ba4 0x00000000
0x00026ba8 0x00494429
0x00026bac 0x00000000
0x00026bb0 0x003b4921
0x00026bb4 0x00000000
0x00026bb8 0x00425929
0x00026bbc 0x00000000
0x00026bc0 0x00425924
0x00026bc4 0x00000000
0x00026bc8 0x003c541f
0x00026bcc 0x00000000
0x00026bd0 0x002b420f
0x00026bd4 0x00000000
0x00026bd8 0x003d5121
0x00026bdc 0x00000000
0x00026be0 0x003a4c1f
0x00026be4 0x00000000
0x00026be8 0x003f4f25
0x00026bec 0x00000000
0x00026bf0 0x003c4c25
0x00026bf4 0x00000000
0x00026bf8 0x00374722
0x00026bfc 0x00000000
0x00026c00 0x00293716
0x00026c04 0x00000000
0x00026c08 0x002e3d1a
0x00026c0c 0x00000000
0x00026c10 0x0034421c
0x00026c14 0x00000000
0x00026c18 0x0027360d
0x00026c1c 0x00000000
0x00026c20 0x003b4a20
0x00026c24 0x00000000
0x00026c28 0x003b4b21
0x00026c2c 0x00000000
0x00026c30 0x00304017
0x00026c34 0x00000000
0x00026c38 0x00324217
0x00026c3c 0x00000000
0x00026c40 0x00314212
0x00026c44 0x00000000
0x00026c48 0x00344315
0x00026c4c 0x00000000
0x00026c50 0x00414a24
0x00026c54 0x00000000
0x00026c58 0x00414425
0x00026c5c 0x00000000
0x00026c60 0x002e2a13
0x00026c64 0x00000000
0x00026c68 0x00332b19
0x00026c6c 0x00000000
0x00026c70 0x005e5245
0x00026c74 0x00000000
0x00026c78 0x00685b4f
0x00026c7c 0x00000000
0x00026c80 0x00554839
0x00026c84 0x00000000
0x00026c88 0x0073624f
0x00026c8c 0x00000000
0x00026c90 0x005c4631
0x00026c94 0x00000000
0x00026c98 0x005d4730
0x00026c9c 0x00000000
0x00026ca0 0x007e6a54
0x00026ca4 0x00000000
0x00026ca8 0x0061583c
0x00026cac 0x00000000
0x00026cb0 0x0058633c
0x00026cb4 0x00000000
0x00026cb8 0x003a5020
0x00026cbc 0x00000000
0x00026cc0 0x00485f28
0x00026cc4 0x00000000
0x00026cc8 0x003d551d
0x00026ccc 0x00000000
0x00026cd0 0x002d420f
0x00026cd4 0x00000000
0x00026cd8 0x00384a1a
0x00026cdc 0x00000000
0x00026ce0 0x003f4e20
0x00026ce4 0x00000000
0x00026ce8 0x00414f21
0x00026cec 0x00000000
0x00026cf0 0x00465727
0x00026cf4 0x00000000
0x00026cf8 0x00394c1c
0x00026cfc 0x00000000
0x00026d00 0x00374520
0x00026d04 0x00000000
0x00026d08 0x0036441d
0x00026d0c 0x00000000
0x00026d10 0x0035441b
0x00026d14 0x00000000
0x00026d18 0x0037461c
0x00026d1c 0x00000000
0x00026d20 0x0036471a
0x00026d24 0x00000000
0x00026d28 0x00334418
0x00026d2c 0x00000000
0x00026d30 0x0034441a
0x00026d34 0x00000000
0x00026d38 0x00415126
0x00026d3c 0x00000000
0x00026d40 0x00374817
0x00026d44 0x00000000
0x00026d48 0x003b4a1a
0x00026d4c 0x00000000
0x00026d50 0x00374219
0x00026d54 0x00000000
0x00026d58 0x00484c2c
0x00026d5c 0x00000000
0x00026d60 0x00413f28
0x00026d64 0x00000000
0x00026d68 0x00494132
0x00026d6c 0x00000000
0x00026d70 0x005a5245
0x00026d74 0x00000000
0x00026d78 0x002f2418
0x00026d7c 0x00000000
0x00026d80 0x006c5f50
0x00026d84 0x00000000
0x00026d88 0x006f604e
0x00026d8c 0x00000000
0x00026d90 0x0057432f
0x00026d94 0x00000000
0x00026d98 0x0068513c
0x00026d9c 0x00000000
0x00026da0 0x007d644f
0x00026da4 0x00000000
0x00026da8 0x006e5e43
0x00026dac 0x00000000
0x00026db0 0x0050542f
0x00026db4 0x00000000
0x00026db8 0x00475629
0x00026dbc 0x00000000
0x00026dc0 0x00354a14
0x00026dc4 0x00000000
0x00026dc8 0x00455a23
0x00026dcc 0x00000000
0x00026dd0 0x00384b1a
0x00026dd4 0x00000000
0x00026dd8 0x00334415
0x00026ddc 0x00000000
0x00026de0 0x003b491b
0x00026de4 0x00000000
0x00026de8 0x00455423
0x00026dec 0x00000000
0x00026df0 0x0041541f
0x00026df4 0x00000000
0x00026df8 0x003a4d18
0x00026dfc 0x00000000
0x00026e00 0x00364120
0x00026e04 0x00000000
0x00026e08 0x003e4b28
0x00026e0c 0x00000000
0x00026e10 0x002b3a12
0x00026e14 0x00000000
0x00026e18 0x003e4f24
0x00026e1c 0x00000000
0x00026e20 0x00324518
0x00026e24 0x00000000
0x00026e28 0x002d4014
0x00026e2c 0x00000000
0x00026e30 0x002b3a16
0x00026e34 0x00000000
0x00026e38 0x002a3813
0x00026e3c 0x00000000
0x00026e40 0x00364518
0x00026e44 0x00000000
0x00026e48 0x00334313
0x00026e4c 0x00000000
0x00026e50 0x00374418
0x00026e54 0x00000000
0x00026e58 0x003f4625
0x00026e5c 0x00000000
0x00026e60 0x003e3c2a
0x00026e64 0x00000000
0x00026e68 0x005b534a
0x00026e6c 0x00000000
0x00026e70 0x004c4339
0x00026e74 0x00000000
0x00026e78 0x00534c41
0x00026e7c 0x00000000
0x00026e80 0x00635c53
0x00026e84 0x00000000
0x00026e88 0x007f766b
0x00026e8c 0x00000000
0x00026e90 0x00665749
0x00026e94 0x00000000
0x00026e98 0x007f6b59
0x00026e9c 0x00000000
0x00026ea0 0x00705640
0x00026ea4 0x00000000
0x00026ea8 0x00786449
0x00026eac 0x00000000
0x00026eb0 0x005e5638
0x00026eb4 0x00000000
0x00026eb8 0x003e421d
0x00026ebc 0x00000000
0x00026ec0 0x00354413
0x00026ec4 0x00000000
0x00026ec8 0x0040531f
0x00026ecc 0x00000000
0x00026ed0 0x003e4c20
0x00026ed4 0x00000000
0x00026ed8 0x003e4a20
0x00026edc 0x00000000
0x00026ee0 0x003c4b1d
0x00026ee4 0x00000000
0x00026ee8 0x00354614
0x00026eec 0x00000000
0x00026ef0 0x003f521d
0x00026ef4 0x00000000
0x00026ef8 0x00394c16
0x00026efc 0x00000000
0x00026f00 0x00364121
0x00026f04 0x00000000
0x00026f08 0x003f4c29
0x00026f0c 0x00000000
0x00026f10 0x0032401a
0x00026f14 0x00000000
0x00026f18 0x002e3f15
0x00026f1c 0x00000000
0x00026f20 0x00223609
0x00026f24 0x00000000
0x00026f28 0x00304218
0x00026f2c 0x00000000
0x00026f30 0x00303d1b
0x00026f34 0x00000000
0x00026f38 0x0033411d
0x00026f3c 0x00000000
0x00026f40 0x0034441a
0x00026f44 0x00000000
0x00026f48 0x0038471b
0x00026f4c 0x00000000
0x00026f50 0x003b471d
0x00026f54 0x00000000
0x00026f58 0x00454b2b
0x00026f5c 0x00000000
0x00026f60 0x00484535
0x00026f64 0x00000000
0x00026f68 0x004e4840
0x00026f6c 0x00000000
0x00026f70 0x004a433b
0x00026f74 0x00000000
0x00026f78 0x00575148
0x00026f7c 0x00000000
0x00026f80 0x007b766d
0x00026f84 0x00000000
0x00026f88 0x007f7a70
0x00026f8c 0x00000000
0x00026f90 0x007f7266
0x00026f94 0x00000000
0x00026f98 0x007f6c5c
0x00026f9c 0x00000000
0x00026fa0 0x006c543e
0x00026fa4 0x00000000
0x00026fa8 0x00755e45
0x00026fac 0x00000000
0x00026fb0 0x006c5f43
0x00026fb4 0x00000000
0x00026fb8 0x004b4928
0x00026fbc 0x00000000
0x00026fc0 0x00313d11
0x00026fc4 0x00000000
0x00026fc8 0x002e3f10
0x00026fcc 0x00000000
0x00026fd0 0x00354218
0x00026fd4 0x00000000
0x00026fd8 0x0038431a
0x00026fdc 0x00000000
0x00026fe0 0x00364517
0x00026fe4 0x00000000
0x00026fe8 0x00344614
0x00026fec 0x00000000
0x00026ff0 0x00314410
0x00026ff4 0x00000000
0x00026ff8 0x002c3f0a
0x00026ffc 0x00000000
0x00027000 0x003b4924
0x00027004 0x00000000
0x00027008 0x0036441e
0x0002700c 0x00000000
0x00027010 0x00394721
0x00027014 0x00000000
0x00027018 0x002e3c16
0x0002701c 0x00000000
0x00027020 0x002e3c16
0x00027024 0x00000000
0x00027028 0x002c3a14
0x0002702c 0x00000000
0x00027030 0x00384720
0x00027034 0x00000000
0x00027038 0x002a3a13
0x0002703c 0x00000000
0x00027040 0x004b5b36
0x00027044 0x00000000
0x00027048 0x00313f1a
0x0002704c 0x00000000
0x00027050 0x0039421d
0x00027054 0x00000000
0x00027058 0x00494c2d
0x0002705c 0x00000000
0x00027060 0x00403c29
0x00027064 0x00000000
0x00027068 0x00474136
0x0002706c 0x00000000
0x00027070 0x00555148
0x00027074 0x00000000
0x00027078 0x00555148
0x0002707c 0x00000000
0x00027080 0x006e655a
0x00027084 0x00000000
0x00027088 0x007e7265
0x0002708c 0x00000000
0x00027090 0x00736455
0x00027094 0x00000000
0x00027098 0x00715f4d
0x0002709c 0x00000000
0x000270a0 0x0069533e
0x000270a4 0x00000000
0x000270a8 0x00735f47
0x000270ac 0x00000000
0x000270b0 0x0071654b
0x000270b4 0x00000000
0x000270b8 0x00373717
0x000270bc 0x00000000
0x000270c0 0x0038421d
0x000270c4 0x00000000
0x000270c8 0x002e3d14
0x000270cc 0x00000000
0x000270d0 0x002e3c12
0x000270d4 0x00000000
0x000270d8 0x00364419
0x000270dc 0x00000000
0x000270e0 0x00344315
0x000270e4 0x00000000
0x000270e8 0x00304112
0x000270ec 0x00000000
0x000270f0 0x002e400f
0x000270f4 0x00000000
0x000270f8 0x003b4d1c
0x000270fc 0x00000000
0x00027100 0x002b3915
0x00027104 0x00000000
0x00027108 0x002b3914
0x0002710c 0x00000000
0x00027110 0x00293611
0x00027114 0x00000000
0x00027118 0x0037421e
0x0002711c 0x00000000
0x00027120 0x003a4523
0x00027124 0x00000000
0x00027128 0x0025310e
0x0002712c 0x00000000
0x00027130 0x002c3b13
0x00027134 0x00000000
0x00027138 0x002a3a12
0x0002713c 0x00000000
0x00027140 0x0042512e
0x00027144 0x00000000
0x00027148 0x00323e1d
0x0002714c 0x00000000
0x00027150 0x003e4423
0x00027154 0x00000000
0x00027158 0x00444428
0x0002715c 0x00000000
0x00027160 0x00524d3b
0x00027164 0x00000000
0x00027168 0x004d473c
0x0002716c 0x00000000
0x00027170 0x00646159
0x00027174 0x00000000
0x00027178 0x006e6a60
0x0002717c 0x00000000
0x00027180 0x007f7468
0x00027184 0x00000000
0x00027188 0x0067594a
0x0002718c 0x00000000
0x00027190 0x00705f4f
0x00027194 0x00000000
0x00027198 0x00715e4b
0x0002719c 0x00000000
0x000271a0 0x006f5944
0x000271a4 0x00000000
0x000271a8 0x0076634b
0x000271ac 0x00000000
0x000271b0 0x0073684e
0x000271b4 0x00000000
0x000271b8 0x00353416
0x000271bc 0x00000000
0x000271c0 0x006e7656
0x000271c4 0x00000000
0x000271c8 0x002c3914
0x000271cc 0x00000000
0x000271d0 0x00303d17
0x000271d4 0x00000000
0x000271d8 0x002e3c13
0x000271dc 0x00000000
0x000271e0 0x00303f15
0x000271e4 0x00000000
0x000271e8 0x0029390e
0x000271ec 0x00000000
0x000271f0 0x0036461a
0x000271f4 0x00000000
0x000271f8 0x002d3f12
0x000271fc 0x00000000
0x00027200 0x00323c1f
0x00027204 0x00000000
0x00027208 0x00232e0e
0x0002720c 0x00000000
0x00027210 0x00333e1c
0x00027214 0x00000000
0x00027218 0x003e4827
0x0002721c 0x00000000
0x00027220 0x00475033
0x00027224 0x00000000
0x00027228 0x002c3617
0x0002722c 0x00000000
0x00027230 0x002e3b16
0x00027234 0x00000000
0x00027238 0x0032401a
0x0002723c 0x00000000
0x00027240 0x0035431f
0x00027244 0x00000000
0x00027248 0x003d4828
0x0002724c 0x00000000
0x00027250 0x00404628
0x00027254 0x00000000
0x00027258 0x00484831
0x0002725c 0x00000000
0x00027260 0x004c4739
0x00027264 0x00000000
0x00027268 0x00625c54
0x0002726c 0x00000000
0x00027270 0x0069645e
0x00027274 0x00000000
0x00027278 0x006b655c
0x0002727c 0x00000000
0x00027280 0x006d6354
0x00027284 0x00000000
0x00027288 0x00685a48
0x0002728c 0x00000000
0x00027290 0x00655443
0x00027294 0x00000000
0x00027298 0x00705c4a
0x0002729c 0x00000000
0x000272a0 0x00765f4a
0x000272a4 0x00000000
0x000272a8 0x00725f48
0x000272ac 0x00000000
0x000272b0 0x00776d53
0x000272b4 0x00000000
0x000272b8 0x004a4a2d
0x000272bc 0x00000000
0x000272c0 0x00303718
0x000272c4 0x00000000
0x000272c8 0x00475232
0x000272cc 0x00000000
0x000272d0 0x002d3816
0x000272d4 0x00000000
0x000272d8 0x003c4826
0x000272dc 0x00000000
0x000272e0 0x00293615
0x000272e4 0x00000000
0x000272e8 0x00414e2c
0x000272ec 0x00000000
0x000272f0 0x002d3b15
0x000272f4 0x00000000
0x000272f8 0x0035441c
0x000272fc 0x00000000
0x00027300 0x002d361b
0x00027304 0x00000000
0x00027308 0x002c3619
0x0002730c 0x00000000
0x00027310 0x00333e1d
0x00027314 0x00000000
0x00027318 0x00374121
0x0002731c 0x00000000
0x00027320 0x00343d22
0x00027324 0x00000000
0x00027328 0x00464f32
0x0002732c 0x00000000
0x00027330 0x00404c28
0x00027334 0x00000000
0x00027338 0x00394620
0x0002733c 0x00000000
0x00027340 0x00283510
0x00027344 0x00000000
0x00027348 0x002f3a18
0x0002734c 0x00000000
0x00027350 0x0044492b
0x00027354 0x00000000
0x00027358 0x004e4f38
0x0002735c 0x00000000
0x00027360 0x00464134
0x00027364 0x00000000
0x00027368 0x00524b43
0x0002736c 0x00000000
0x00027370 0x0068635d
0x00027374 0x00000000
0x00027378 0x00696359
0x0002737c 0x00000000
0x00027380 0x00685e4e
0x00027384 0x00000000
0x00027388 0x00655743
0x0002738c 0x00000000
0x00027390 0x006f5d4b
0x00027394 0x00000000
0x00027398 0x0074604d
0x0002739c 0x00000000
0x000273a0 0x00614c36
0x000273a4 0x00000000
0x000273a8 0x007f6d55
0x000273ac 0x00000000
0x000273b0 0x007c745b
0x000273b4 0x00000000
0x000273b8 0x00444528
0x000273bc 0x00000000
0x000273c0 0x00283011
0x000273c4 0x00000000
0x000273c8 0x00343f1f
0x000273cc 0x00000000
0x000273d0 0x003b4524
0x000273d4 0x00000000
0x000273d8 0x00374221
0x000273dc 0x00000000
0x000273e0 0x00374124
0x000273e4 0x00000000
0x000273e8 0x00333f20
0x000273ec 0x00000000
0x000273f0 0x002c3916
0x000273f4 0x00000000
0x000273f8 0x00273510
0x000273fc 0x00000000
0x00027400 0x00434a2f
0x00027404 0x00000000
0x00027408 0x0030391c
0x0002740c 0x00000000
0x00027410 0x00313b1b
0x00027414 0x00000000
0x00027418 0x00343e1e
0x0002741c 0x00000000
0x00027420 0x003b4528
0x00027424 0x00000000
0x00027428 0x001e2809
0x0002742c 0x00000000
0x00027430 0x00303c17
0x00027434 0x00000000
0x00027438 0x002a3810
0x0002743c 0x00000000
0x00027440 0x0034421b
0x00027444 0x00000000
0x00027448 0x00323d19
0x0002744c 0x00000000
0x00027450 0x003b4322
0x00027454 0x00000000
0x00027458 0x003f4228
0x0002745c 0x00000000
0x00027460 0x00373525
0x00027464 0x00000000
0x00027468 0x00524d43
0x0002746c 0x00000000
0x00027470 0x00655f56
0x00027474 0x00000000
0x00027478 0x00686055
0x0002747c 0x00000000
0x00027480 0x00594f3f
0x00027484 0x00000000
0x00027488 0x00685c48
0x0002748c 0x00000000
0x00027490 0x0072604e
0x00027494 0x00000000
0x00027498 0x00786350
0x0002749c 0x00000000
0x000274a0 0x0069543e
0x000274a4 0x00000000
0x000274a8 0x007f725a
0x000274ac 0x00000000
0x000274b0 0x0079735b
0x000274b4 0x00000000
0x000274b8 0x005c5e43
0x000274bc 0x00000000
0x000274c0 0x004b5334
0x000274c4 0x00000000
0x000274c8 0x0037421f
0x000274cc 0x00000000
0x000274d0 0x00313c17
0x000274d4 0x00000000
0x000274d8 0x00333e1a
0x000274dc 0x00000000
0x000274e0 0x003f4a29
0x000274e4 0x00000000
0x000274e8 0x00354120
0x000274ec 0x00000000
0x000274f0 0x003d4a27
0x000274f4 0x00000000
0x000274f8 0x002e3b16
0x000274fc 0x00000000
0x00027500 0x0040472c
0x00027504 0x00000000
0x00027508 0x001e270a
0x0002750c 0x00000000
0x00027510 0x00343e21
0x00027514 0x00000000
0x00027518 0x00475233
0x0002751c 0x00000000
0x00027520 0x00354021
0x00027524 0x00000000
0x00027528 0x00374221
0x0002752c 0x00000000
0x00027530 0x00313d18
0x00027534 0x00000000
0x00027538 0x00303c16
0x0002753c 0x00000000
0x00027540 0x0036431e
0x00027544 0x00000000
0x00027548 0x002f3b17
0x0002754c 0x00000000
0x00027550 0x003b4421
0x00027554 0x00000000
0x00027558 0x00303518
0x0002755c 0x00000000
0x00027560 0x00444330
0x00027564 0x00000000
0x00027568 0x00585446
0x0002756c 0x00000000
0x00027570 0x00655f53
0x00027574 0x00000000
0x00027578 0x005c5548
0x0002757c 0x00000000
0x00027580 0x0058503f
0x00027584 0x00000000
0x00027588 0x00645846
0x0002758c 0x00000000
0x00027590 0x00685644
0x00027594 0x00000000
0x00027598 0x006a5643
0x0002759c 0x00000000
0x000275a0 0x005b4732
0x000275a4 0x00000000
0x000275a8 0x007f715b
0x000275ac 0x00000000
0x000275b0 0x007d7962
0x000275b4 0x00000000
0x000275b8 0x0050543b
0x000275bc 0x00000000
0x000275c0 0x00384122
0x000275c4 0x00000000
0x000275c8 0x00333f1c
0x000275cc 0x00000000
0x000275d0 0x002d3813
0x000275d4 0x00000000
0x000275d8 0x003b4620
0x000275dc 0x00000000
0x000275e0 0x00404a2a
0x000275e4 0x00000000
0x000275e8 0x00485333
0x000275ec 0x00000000
0x000275f0 0x00485530
0x000275f4 0x00000000
0x000275f8 0x00313f18
0x000275fc 0x00000000
0x00027600 0x002e371b
0x00027604 0x00000000
0x00027608 0x002b3519
0x0002760c 0x00000000
0x00027610 0x002f3b1e
0x00027614 0x00000000
0x00027618 0x00394527
0x0002761c 0x00000000
0x00027620 0x00303c1d
0x00027624 0x00000000
0x00027628 0x00273312
0x0002762c 0x00000000
0x00027630 0x002f3b17
0x00027634 0x00000000
0x00027638 0x002a3612
0x0002763c 0x00000000
0x00027640 0x00263111
0x00027644 0x00000000
0x00027648 0x00404b2b
0x0002764c 0x00000000
0x00027650 0x00182200
0x00027654 0x00000000
0x00027658 0x00313819
0x0002765c 0x00000000
0x00027660 0x0040422b
0x00027664 0x00000000
0x00027668 0x00535140
0x0002766c 0x00000000
0x00027670 0x00635d50
0x00027674 0x00000000
0x00027678 0x00615a4d
0x0002767c 0x00000000
0x00027680 0x00625a4d
0x00027684 0x00000000
0x00027688 0x00635849
0x0002768c 0x00000000
0x00027690 0x00625241
0x00027694 0x00000000
0x00027698 0x00695644
0x0002769c 0x00000000
0x000276a0 0x00604f3b
0x000276a4 0x00000000
0x000276a8 0x007f7660
0x000276ac 0x00000000
0x000276b0 0x007f7e67
0x000276b4 0x00000000
0x000276b8 0x0032381e
0x000276bc 0x00000000
0x000276c0 0x003e4829
0x000276c4 0x00000000
0x000276c8 0x002b3615
0x000276cc 0x00000000
0x000276d0 0x0036401e
0x000276d4 0x00000000
0x000276d8 0x00323c1b
0x000276dc 0x00000000
0x000276e0 0x001d2708
0x000276e4 0x00000000
0x000276e8 0x00293414
0x000276ec 0x00000000
0x000276f0 0x002a3712
0x000276f4 0x00000000
0x000276f8 0x002f3d15
0x000276fc 0x00000000
0x00027700 0x00313b1f
0x00027704 0x00000000
0x00027708 0x00303b1e
0x0002770c 0x00000000
0x00027710 0x00243013
0x00027714 0x00000000
0x00027718 0x001e2b0e
0x0002771c 0x00000000
0x00027720 0x00233010
0x00027724 0x00000000
0x00027728 0x00354121
0x0002772c 0x00000000
0x00027730 0x0034401e
0x00027734 0x00000000
0x00027738 0x00374121
0x0002773c 0x00000000
0x00027740 0x00454f32
0x00027744 0x00000000
0x00027748 0x00313b1c
0x0002774c 0x00000000
0x00027750 0x002a3313
0x00027754 0x00000000
0x00027758 0x002b3213
0x0002775c 0x00000000
0x00027760 0x0032361c
0x00027764 0x00000000
0x00027768 0x00363420
0x0002776c 0x00000000
0x00027770 0x00575243
0x00027774 0x00000000
0x00027778 0x00655d51
0x0002777c 0x00000000
0x00027780 0x006a6257
0x00027784 0x00000000
0x00027788 0x0062584a
0x0002778c 0x00000000
0x00027790 0x005b4a3a
0x00027794 0x00000000
0x00027798 0x005f4d3a
0x0002779c 0x00000000
0x000277a0 0x00665844
0x000277a4 0x00000000
0x000277a8 0x00756c58
0x000277ac 0x00000000
0x000277b0 0x007a7964
0x000277b4 0x00000000
0x000277b8 0x00393f27
0x000277bc 0x00000000
0x000277c0 0x00242e11
0x000277c4 0x00000000
0x000277c8 0x002c3716
0x000277cc 0x00000000
0x000277d0 0x002c3514
0x000277d4 0x00000000
0x000277d8 0x00323a1a
0x000277dc 0x00000000
0x000277e0 0x00283112
0x000277e4 0x00000000
0x000277e8 0x0025300f
0x000277ec 0x00000000
0x000277f0 0x002a3511
0x000277f4 0x00000000
0x000277f8 0x002d3913
0x000277fc 0x00000000
0x00027800 0x00323b20
0x00027804 0x00000000
0x00027808 0x00222c10
0x0002780c 0x00000000
0x00027810 0x001d290c
0x00027814 0x00000000
0x00027818 0x002c381b
0x0002781c 0x00000000
0x00027820 0x001d280c
0x00027824 0x00000000
0x00027828 0x001b2609
0x0002782c 0x00000000
0x00027830 0x00313b1d
0x00027834 0x00000000
0x00027838 0x00343d20
0x0002783c 0x00000000
0x00027840 0x0032391f
0x00027844 0x00000000
0x00027848 0x00383f24
0x0002784c 0x00000000
0x00027850 0x004a5135
0x00027854 0x00000000
0x00027858 0x0022290b
0x0002785c 0x00000000
0x00027860 0x002e3116
0x00027864 0x00000000
0x00027868 0x0033321b
0x0002786c 0x00000000
0x00027870 0x00473f2f
0x00027874 0x00000000
0x00027878 0x00534a3d
0x0002787c 0x00000000
0x00027880 0x00665d53
0x00027884 0x00000000
0x00027888 0x004d4337
0x0002788c 0x00000000
0x00027890 0x004f402e
0x00027894 0x00000000
0x00027898 0x005c4c37
0x0002789c 0x00000000
0x000278a0 0x00594b38
0x000278a4 0x00000000
0x000278a8 0x00766d5c
0x000278ac 0x00000000
0x000278b0 0x00666454
0x000278b4 0x00000000
0x000278b8 0x00393d28
0x000278bc 0x00000000
0x000278c0 0x00363d23
0x000278c4 0x00000000
0x000278c8 0x00192102
0x000278cc 0x00000000
0x000278d0 0x00222a07
0x000278d4 0x00000000
0x000278d8 0x00353c17
0x000278dc 0x00000000
0x000278e0 0x003a421e
0x000278e4 0x00000000
0x000278e8 0x00272f0c
0x000278ec 0x00000000
0x000278f0 0x002a3211
0x000278f4 0x00000000
0x000278f8 0x002e3617
0x000278fc 0x00000000
0x00027900 0x002c3419
0x00027904 0x00000000
0x00027908 0x00272f14
0x0002790c 0x00000000
0x00027910 0x001e280c
0x00027914 0x00000000
0x00027918 0x0020290e
0x0002791c 0x00000000
0x00027920 0x00202911
0x00027924 0x00000000
0x00027928 0x001b230c
0x0002792c 0x00000000
0x00027930 0x00575d44
0x00027934 0x00000000
0x00027938 0x002e331a
0x0002793c 0x00000000
0x00027940 0x00353a22
0x00027944 0x00000000
0x00027948 0x003a3f27
0x0002794c 0x00000000
0x00027950 0x002e331a
0x00027954 0x00000000
0x00027958 0x00363a21
0x0002795c 0x00000000
0x00027960 0x0036371f
0x00027964 0x00000000
0x00027968 0x003a3822
0x0002796c 0x00000000
0x00027970 0x00473e2c
0x00027974 0x00000000
0x00027978 0x00493e31
0x0002797c 0x00000000
0x00027980 0x0051483e
0x00027984 0x00000000
0x00027988 0x0041372b
0x0002798c 0x00000000
0x00027990 0x00453624
0x00027994 0x00000000
0x00027998 0x005e4e3a
0x0002799c 0x00000000
0x000279a0 0x00716454
0x000279a4 0x00000000
0x000279a8 0x007e7465
0x000279ac 0x00000000
0x000279b0 0x002e2a1c
0x000279b4 0x00000000
0x000279b8 0x001b1c0c
0x000279bc 0x00000000
0x000279c0 0x002d301a
0x000279c4 0x00000000
0x000279c8 0x0024280e
0x000279cc 0x00000000
0x000279d0 0x002b2f11
0x000279d4 0x00000000
0x000279d8 0x00262a0b
0x000279dc 0x00000000
0x000279e0 0x00393d1e
0x000279e4 0x00000000
0x000279e8 0x004e5234
0x000279ec 0x00000000
0x000279f0 0x0043472d
0x000279f4 0x00000000
0x000279f8 0x00353a22
0x000279fc 0x00000000
0x00027a00 0x00282e15
0x00027a04 0x00000000
0x00027a08 0x001d230a
0x00027a0c 0x00000000
0x00027a10 0x001e240c
0x00027a14 0x00000000
0x00027a18 0x00181e07
0x00027a1c 0x00000000
0x00027a20 0x001a1e0b
0x00027a24 0x00000000
0x00027a28 0x00181b09
0x00027a2c 0x00000000
0x00027a30 0x00474a36
0x00027a34 0x00000000
0x00027a38 0x0020210d
0x00027a3c 0x00000000
0x00027a40 0x002a2b17
0x00027a44 0x00000000
0x00027a48 0x003e3f2b
0x00027a4c 0x00000000
0x00027a50 0x00383925
0x00027a54 0x00000000
0x00027a58 0x0042422e
0x00027a5c 0x00000000
0x00027a60 0x00373522
0x00027a64 0x00000000
0x00027a68 0x004f4a37
0x00027a6c 0x00000000
0x00027a70 0x004f4433
0x00027a74 0x00000000
0x00027a78 0x00625546
0x00027a7c 0x00000000
0x00027a80 0x00382e22
0x00027a84 0x00000000
0x00027a88 0x0052473b
0x00027a8c 0x00000000
0x00027a90 0x00514331
0x00027a94 0x00000000
0x00027a98 0x005f513d
0x00027a9c 0x00000000
0x00027aa0 0x007c6e5f
0x00027aa4 0x00000000
0x00027aa8 0x007f7a6d
0x00027aac 0x00000000
0x00027ab0 0x00605a4e
0x00027ab4 0x00000000
0x00027ab8 0x00767366
0x00027abc 0x00000000
0x00027ac0 0x00616050
0x00027ac4 0x00000000
0x00027ac8 0x006b6b5a
0x00027acc 0x00000000
0x00027ad0 0x00656453
0x00027ad4 0x00000000
0x00027ad8 0x00706e5e
0x00027adc 0x00000000
0x00027ae0 0x006d6b5a
0x00027ae4 0x00000000
0x00027ae8 0x006e6c5c
0x00027aec 0x00000000
0x00027af0 0x006f6e60
0x00027af4 0x00000000
0x00027af8 0x00747467
0x00027afc 0x00000000
0x00027b00 0x00252913
0x00027b04 0x00000000
0x00027b08 0x00222611
0x00027b0c 0x00000000
0x00027b10 0x0021230f
0x00027b14 0x00000000
0x00027b18 0x00232413
0x00027b1c 0x00000000
0x00027b20 0x00232414
0x00027b24 0x00000000
0x00027b28 0x00585749
0x00027b2c 0x00000000
0x00027b30 0x00545244
0x00027b34 0x00000000
0x00027b38 0x005d5b4d
0x00027b3c 0x00000000
0x00027b40 0x005e5b4b
0x00027b44 0x00000000
0x00027b48 0x004c4a3a
0x00027b4c 0x00000000
0x00027b50 0x004a4938
0x00027b54 0x00000000
0x00027b58 0x003f3c2d
0x00027b5c 0x00000000
0x00027b60 0x004a4739
0x00027b64 0x00000000
0x00027b68 0x004f4839
0x00027b6c 0x00000000
0x00027b70 0x00524737
0x00027b74 0x00000000
0x00027b78 0x005d5142
0x00027b7c 0x00000000
0x00027b80 0x00372d21
0x00027b84 0x00000000
0x00027b88 0x0040362a
0x00027b8c 0x00000000
0x00027b90 0x00554837
0x00027b94 0x00000000
0x00027b98 0x00635644
0x00027b9c 0x00000000
0x00027ba0 0x007f796c
0x00027ba4 0x00000000
0x00027ba8 0x00685e53
0x00027bac 0x00000000
0x00027bb0 0x00655e53
0x00027bb4 0x00000000
0x00027bb8 0x006b655b
0x00027bbc 0x00000000
0x00027bc0 0x006a665b
0x00027bc4 0x00000000
0x00027bc8 0x00747064
0x00027bcc 0x00000000
0x00027bd0 0x006d6960
0x00027bd4 0x00000000
0x00027bd8 0x00716d64
0x00027bdc 0x00000000
0x00027be0 0x006c655c
0x00027be4 0x00000000
0x00027be8 0x00645e54
0x00027bec 0x00000000
0x00027bf0 0x00615c56
0x00027bf4 0x00000000
0x00027bf8 0x00615d57
0x00027bfc 0x00000000
0x00027c00 0x00272917
0x00027c04 0x00000000
0x00027c08 0x003e3f2f
0x00027c0c 0x00000000
0x00027c10 0x004b493c
0x00027c14 0x00000000
0x00027c18 0x00555246
0x00027c1c 0x00000000
0x00027c20 0x0058554a
0x00027c24 0x00000000
0x00027c28 0x0047433a
0x00027c2c 0x00000000
0x00027c30 0x00514d44
0x00027c34 0x00000000
0x00027c38 0x00534f46
0x00027c3c 0x00000000
0x00027c40 0x004e483e
0x00027c44 0x00000000
0x00027c48 0x00474136
0x00027c4c 0x00000000
0x00027c50 0x004c483d
0x00027c54 0x00000000
0x00027c58 0x00585449
0x00027c5c 0x00000000
0x00027c60 0x00605a52
0x00027c64 0x00000000
0x00027c68 0x004a4339
0x00027c6c 0x00000000
0x00027c70 0x004f4337
0x00027c74 0x00000000
0x00027c78 0x005e5144
0x00027c7c 0x00000000
0x00027c80 0x0033291d
0x00027c84 0x00000000
0x00027c88 0x0041382b
0x00027c8c 0x00000000
0x00027c90 0x00534839
0x00027c94 0x00000000
0x00027c98 0x00655a4b
0x00027c9c 0x00000000
0x00027ca0 0x007a7166
0x00027ca4 0x00000000
0x00027ca8 0x007f7b73
0x00027cac 0x00000000
0x00027cb0 0x004d443d
0x00027cb4 0x00000000
0x00027cb8 0x004a423a
0x00027cbc 0x00000000
0x00027cc0 0x00686258
0x00027cc4 0x00000000
0x00027cc8 0x00625c52
0x00027ccc 0x00000000
0x00027cd0 0x004d493f
0x00027cd4 0x00000000
0x00027cd8 0x00666157
0x00027cdc 0x00000000
0x00027ce0 0x006b6258
0x00027ce4 0x00000000
0x00027ce8 0x00766e66
0x00027cec 0x00000000
0x00027cf0 0x00756e6a
0x00027cf4 0x00000000
0x00027cf8 0x00716c69
0x00027cfc 0x00000000
0x00027d00 0x00303223
0x00027d04 0x00000000
0x00027d08 0x00515044
0x00027d0c 0x00000000
0x00027d10 0x005a564c
0x00027d14 0x00000000
0x00027d18 0x005e574f
0x00027d1c 0x00000000
0x00027d20 0x005e574f
0x00027d24 0x00000000
0x00027d28 0x00524c43
0x00027d2c 0x00000000
0x00027d30 0x004e4841
0x00027d34 0x00000000
0x00027d38 0x0068625b
0x00027d3c 0x00000000
0x00027d40 0x005e574f
0x00027d44 0x00000000
0x00027d48 0x005a544b
0x00027d4c 0x00000000
0x00027d50 0x00433f35
0x00027d54 0x00000000
0x00027d58 0x00423e35
0x00027d5c 0x00000000
0x00027d60 0x00443f37
0x00027d64 0x00000000
0x00027d68 0x005e584f
0x00027d6c 0x00000000
0x00027d70 0x00766a61
0x00027d74 0x00000000
0x00027d78 0x00685d52
0x00027d7c 0x00000000
0x00027d80 0x00241b10
0x00027d84 0x00000000
0x00027d88 0x004e473b
0x00027d8c 0x00000000
0x00027d90 0x00726a5d
0x00027d94 0x00000000
0x00027d98 0x007f7e73
0x00027d9c 0x00000000
0x00027da0 0x005f5950
0x00027da4 0x00000000
0x00027da8 0x0069615a
0x00027dac 0x00000000
0x00027db0 0x00685f59
0x00027db4 0x00000000
0x00027db8 0x00574e47
0x00027dbc 0x00000000
0x00027dc0 0x006d655d
0x00027dc4 0x00000000
0x00027dc8 0x00494339
0x00027dcc 0x00000000
0x00027dd0 0x00575349
0x00027dd4 0x00000000
0x00027dd8 0x00565046
0x00027ddc 0x00000000
0x00027de0 0x007c746b
0x00027de4 0x00000000
0x00027de8 0x006f675f
0x00027dec 0x00000000
0x00027df0 0x007a736e
0x00027df4 0x00000000
0x00027df8 0x0076706c
0x00027dfc 0x00000000
0x00027e00 0x001c1c0f
0x00027e04 0x00000000
0x00027e08 0x0057564a
0x00027e0c 0x00000000
0x00027e10 0x005e584e
0x00027e14 0x00000000
0x00027e18 0x00585147
0x00027e1c 0x00000000
0x00027e20 0x00544d43
0x00027e24 0x00000000
0x00027e28 0x00645d53
0x00027e2c 0x00000000
0x00027e30 0x00544d45
0x00027e34 0x00000000
0x00027e38 0x00544e46
0x00027e3c 0x00000000
0x00027e40 0x005c564e
0x00027e44 0x00000000
0x00027e48 0x00544e46
0x00027e4c 0x00000000
0x00027e50 0x00444137
0x00027e54 0x00000000
0x00027e58 0x003b382d
0x00027e5c 0x00000000
0x00027e60 0x00454235
0x00027e64 0x00000000
0x00027e68 0x00464134
0x00027e6c 0x00000000
0x00027e70 0x006f665d
0x00027e74 0x00000000
0x00027e78 0x00736a61
0x00027e7c 0x00000000
0x00027e80 0x00231c11
0x00027e84 0x00000000
0x00027e88 0x004a453b
0x00027e8c 0x00000000
0x00027e90 0x00767067
0x00027e94 0x00000000
0x00027e98 0x007f7c74
0x00027e9c 0x00000000
0x00027ea0 0x0057524c
0x00027ea4 0x00000000
0x00027ea8 0x00706a64
0x00027eac 0x00000000
0x00027eb0 0x006c635c
0x00027eb4 0x00000000
0x00027eb8 0x00625a52
0x00027ebc 0x00000000
0x00027ec0 0x005f584f
0x00027ec4 0x00000000
0x00027ec8 0x00655f56
0x00027ecc 0x00000000
0x00027ed0 0x00757269
0x00027ed4 0x00000000
0x00027ed8 0x00656158
0x00027edc 0x00000000
0x00027ee0 0x005d544d
0x00027ee4 0x00000000
0x00027ee8 0x00645b53
0x00027eec 0x00000000
0x00027ef0 0x00666058
0x00027ef4 0x00000000
0x00027ef8 0x00736f66
0x00027efc 0x00000000
0x00027f00 0x001a1a0e
0x00027f04 0x00000000
0x00027f08 0x00545247
0x00027f0c 0x00000000
0x00027f10 0x00544f44
0x00027f14 0x00000000
0x00027f18 0x005b5449
0x00027f1c 0x00000000
0x00027f20 0x0060584e
0x00027f24 0x00000000
0x00027f28 0x005d554b
0x00027f2c 0x00000000
0x00027f30 0x005f574f
0x00027f34 0x00000000
0x00027f38 0x00575148
0x00027f3c 0x00000000
0x00027f40 0x00605951
0x00027f44 0x00000000
0x00027f48 0x00645e56
0x00027f4c 0x00000000
0x00027f50 0x005f5c52
0x00027f54 0x00000000
0x00027f58 0x004e4c40
0x00027f5c 0x00000000
0x00027f60 0x005a5849
0x00027f64 0x00000000
0x00027f68 0x00656254
0x00027f6c 0x00000000
0x00027f70 0x00615a50
0x00027f74 0x00000000
0x00027f78 0x004e463e
0x00027f7c 0x00000000
0x00027f80 0x00595349
0x00027f84 0x00000000
0x00027f88 0x004f4b41
0x00027f8c 0x00000000
0x00027f90 0x00524d47
0x00027f94 0x00000000
0x00027f98 0x00706c66
0x00027f9c 0x00000000
0x00027fa0 0x0077746f
0x00027fa4 0x00000000
0x00027fa8 0x00746f6a
0x00027fac 0x00000000
0x00027fb0 0x006b635b
0x00027fb4 0x00000000
0x00027fb8 0x006d645c
0x00027fbc 0x00000000
0x00027fc0 0x00645e54
0x00027fc4 0x00000000
0x00027fc8 0x00635f55
0x00027fcc 0x00000000
0x00027fd0 0x0069665d
0x00027fd4 0x00000000
0x00027fd8 0x00656059
0x00027fdc 0x00000000
0x00027fe0 0x00665e57
0x00027fe4 0x00000000
0x00027fe8 0x00595149
0x00027fec 0x00000000
0x00027ff0 0x005d584f
0x00027ff4 0x00000000
0x00027ff8 0x006b675c
0x00027ffc 0x00000000
0x00010000 0x0a000507
0x00010004 0x001d0a00
0x00010008 0x0900070f
0x0001000c 0x001a0900
0x00010010 0x08000811
0x00010014 0x00190a00
0x00082000 0xe105dbef
0x00082004 0xf62dfe0c
0x00010018 0x0a000911
0x0001001c 0x00160a00
0x00082008 0x23020705
0x0008200c 0x06f111fe
0x00010020 0x0a000512
0x00010024 0x00150800
0x00082010 0x16ed1f10
0x00082014 0xfcebe007
0x00010028 0x0e000913
0x0001002c 0x00171100
0x00082018 0x0aedf511
0x0008201c 0xfd0906fb
0x00010030 0x0e000211
0x00010034 0x000c0500
0x00082020 0x05f4dc25
0x00082024 0x05fc01fe
0x00010038 0x1200000e
0x0001003c 0x00271000
0x00082028 0x10d014f1
0x0008202c 0x01fff7fd
0x00010040 0x09000811
0x00010044 0x001c1200
0x00082030 0xf9111417
0x00082034 0x05ff03f9
0x00010048 0x0b000712
0x0001004c 0x00110500
0x00082038 0x02020524
0x0008203c 0x09f8f907
0x00010050 0x0e000113
0x00010054 0x001e1100
0x00082040 0xcbe927f5
0x00082044 0xf12c0c15
0x00010058 0x0f00080e
0x0001005c 0x00181000
0x00082048 0x1c24ee04
0x0008204c 0xfee7f801
0x00010060 0x0d000114
0x00010064 0x000d0600
0x00082050 0x1c1202f0
0x00082054 0x03deeb0a
0x00085000 0x0feaf670
0x00085004 0xfd2801da
0x00010068 0x10000418
0x0001006c 0x00231400
0x00082058 0x0d04e8fb
0x0008205c 0x02fa0bfb
0x00085008 0x1026145b
0x0008500c 0x0b1bf5b0
0x00010070 0x0900070e
0x00010074 0x001d0e00
0x00082060 0x1709ea17
0x00082064 0x110306f9
0x00085010 0x0219ffe2
0x00085014 0x24df1282
0x00010078 0x09000710
0x0001007c 0x001a0c00
0x00082068 0x10f92507
0x0008206c 0x03e9f1ff
0x00085018 0xe9001455
0x0008501c 0x086e0255
0x00010080 0x09000511
0x00010084 0x001c0c00
0x00082070 0xf0140510
0x00082074 0x0505fff9
0x00010088 0x0a000712
0x0001008c 0x001a0e00
0x00082078 0x170eca07
0x0008207c 0x01f21903
0x00010090 0x0c00020c
0x00010094 0x001a0a00
0x00082080 0xcaf428e1
0x00082084 0xf1f4eb17
0x00010098 0x0c000000
0x0001009c 0x00340a00
0x00082088 0x0a19f7f6
0x0008208c 0x1f2924fc
0x000100a0 0x00000c14
0x000100a4 0x00241501
0x00082090 0x16f502e7
0x00082094 0x0dfd0416
0x000100a8 0x00001422
0x000100ac 0x00000101
0x00082098 0x0cffe5f8
0x0008209c 0x03f90d00
0x000100b0 0x0e000418
0x000100b4 0x001b0f00
0x000820a0 0x1705eaff
0x000820a4 0x0d0d0c02
0x000100b8 0x0b00050e
0x000100bc 0x001e1000
0x000820a8 0x1513ff04
0x000820ac 0xfff5e6f8
0x000100c0 0x0c000505
0x000100c4 0x00260c00
0x000820b0 0xf9fde407
0x000820b4 0x060710fa
0x000100c8 0x03000817
0x000100cc 0x00150c00
0x000820b8 0x1efae10b
0x000820bc 0x0810100e
0x000100d0 0x0700101e
0x000100d4 0x00130b00
0x000820c0 0x0113f31e
0x000820c4 0x07d1fa07
0x000100d8 0x11000400
0x000100dc 0x00290d00
0x000820c8 0xfe0302dc
0x000820cc 0x0c35f204
0x000100e0 0x0700030d
0x000100e4 0x00150900
0x000820d0 0x0a29fef5
0x000820d4 0xf136f916
0x000100e8 0x09000a1e
0x000100ec 0x00150a00
0x000820d8 0x02eb1c00
0x000820dc 0xfef9ee00
0x000100f0 0x0d00060c
0x000100f4 0x00241000
0x000820e0 0x1aece011
0x000820e4 0x11ffedff
0x000100f8 0x03000a1d
0x000100fc 0x00090a00
0x000820e8 0x1eee3ff9
0x000820ec 0x061b0af9
0x00012000 0x00070c02
0x00012004 0x0002340d
0x000820f0 0xef171d17
0x000820f4 0x08f4fdfc
0x00012008 0x00070c05
0x0001200c 0x0004220c
0x000820f8 0x00f4150a
0x000820fc 0x0c15e014
0x00012010 0x00080d06
0x00012014 0x0004230d
0x00082100 0x0b0de509
0x00082104 0x04e9140a
0x00012018 0x00090f07
0x0001201c 0x0008180c
0x00082108 0xf8001405
0x0008210c 0x08eaeb0b
0x00012020 0x000a0e07
0x00012024 0x00072009
0x00082110 0xf21c0de1
0x00082114 0xf920111f
0x00012028 0x000c1608
0x0001202c 0x00091308
0x00082118 0x0af707f2
0x0008211c 0xfefcf2ff
0x00012030 0x000c1307
0x00012034 0x000d1502
0x00082120 0x2eede309
0x00082124 0x1114f6f9
0x00012038 0x000b1305
0x0001203c 0x00041a03
0x00082128 0x24183bfa
0x0008212c 0x081cfffd
0x00012040 0x000d1809
0x00012044 0x0004280a
0x00082130 0xf60f201f
0x00082134 0x10fbf3fc
0x00012048 0x000e1209
0x0001204c 0x000c0a06
0x00082138 0x05fce4fe
0x0008213c 0x0200e80d
0x00012050 0x000d1708
0x00012054 0x00062105
0x00082140 0xfbf3f2d6
0x00082144 0x03060514
0x00012058 0x00101b0a
0x0001205c 0x000b0706
0x00082148 0xf5150e01
0x0008214c 0x13f9f508
0x00012060 0x020f1209
0x00012064 0x000c2400
0x00082150 0xeb0528f3
0x00082154 0xfb00ff23
0x00012068 0x000f1306
0x0001206c 0x00071105
0x00082158 0x0afd02f4
0x0008215c 0x01080704
0x00012070 0x000e1506
0x00012074 0x00061c0d
0x00082160 0x1ffcf4fb
0x00082164 0x0511ff03
0x00012078 0x000d1406
0x0001207c 0x00071b0b
0x00082168 0x261f04fd
0x0008216c 0xff1202fa
0x00012080 0x000c1306
0x00012084 0x00061c0b
0x00082170 0x04fbfb13
0x00082174 0x0ff5f3fb
0x00012088 0x000d1707
0x0001208c 0x00061a0b
0x00082178 0x01f1ed07
0x0008217c 0x04100517
0x00012090 0x000c1a07
0x00012094 0x00080e08
0x00082180 0x07101613
0x00082184 0x291cfe02
0x00012098 0x000a1808
0x0001209c 0x00002107
0x00082188 0x0c1002d1
0x0008218c 0x012fff07
0x000120a0 0x010d210f
0x000120a4 0x00003d0e
0x00082190 0xfe29f5e0
0x00082194 0xf4fd0718
0x000120a8 0x0012150d
0x000120ac 0x0013000d
0x00082198 0xf0fa25f0
0x0008219c 0xf006f00a
0x000120b0 0x000e1306
0x000120b4 0x000a0708
0x000821a0 0x0cedfff7
0x000821a4 0x092ff309
0x000120b8 0x000d1506
0x000120bc 0x0005200b
0x000821a8 0xf7fc27e1
0x000821ac 0x05100ff9
0x000120c0 0x000d1308
0x000120c4 0x0004110a
0x000821b0 0xf503f30b
0x000821b4 0x04f90bfb
0x000120c8 0x020c130a
0x000120cc 0x00033e08
0x000821b8 0xfde80d1a
0x000821bc 0xff36f918
0x000120d0 0x000e0f07
0x000120d4 0x000d000e
0x000821c0 0x08092bfe
0x000821c4 0x2814e306
0x000120d8 0x000b1306
0x000120dc 0x00030b0b
0x000821c8 0xf5fafb09
0x000821cc 0xfaf41b0a
0x000120e0 0x020a140c
0x000120e4 0x00014603
0x000821d0 0xf70fd9ce
0x000821d4 0xfdd8161f
0x000120e8 0x000f120a
0x000120ec 0x000b0607
0x000821d8 0xf5012efd
0x000821dc 0xf30d0209
0x000120f0 0x000e1708
0x000120f4 0x00050e0a
0x000821e0 0x0ce5ff04
0x000821e4 0xfe2dfd01
0x000120f8 0x020d1008
0x000120fc 0x0009370a
0x000821e8 0x061c16ee
0x000821ec 0xfc1a06fe
0x00010100 0x0a000005
0x00010104 0x001d0e00
0x000821f0 0xf2f11416
0x000821f4 0x0907fafb
0x00010108 0x0900020e
0x0001010c 0x00161000
0x000821f8 0xf4e21afd
0x000821fc 0xfffa0f11
0x00010110 0x08000011
0x00010114 0x00120e00
0x00082200 0xf3f4f5e1
0x00082204 0x0c1ffe13
0x00010118 0x09000010
0x0001011c 0x001c1100
0x00082208 0xf1041701
0x0008220c 0x0fc2e3fe
0x00010120 0x05000214
0x00010124 0x00141200
0x00082210 0xf3e6dcf2
0x00082214 0xffe21220
0x00010128 0x0800000b
0x0001012c 0x001c0d00
0x00082218 0xf3021bf9
0x0008221c 0xfce6f70a
0x00010130 0x0900010b
0x00010134 0x001b1400
0x00082220 0x00fffdf5
0x00082224 0xfd12f506
0x00010138 0x08000015
0x0001013c 0x00000200
0x00082228 0x0711d9e5
0x0008222c 0xf0ec01f9
0x00010140 0x10000014
0x00010144 0x00211a00
0x00082230 0xf8ec1e1b
0x00082234 0x0d07fbfa
0x00010148 0x0600000f
0x0001014c 0x00151100
0x00082238 0xf9e70ef1
0x0008223c 0x0cd7fb13
0x00010150 0x09000016
0x00010154 0x000b0f00
0x00082240 0x081103fb
0x00082244 0xf2f0e409
0x00010158 0x11000003
0x0001015c 0x00211100
0x00082248 0xfcfb1404
0x0008224c 0x0912dcea
0x00010160 0x0e00000e
0x00010164 0x00071200
0x00082250 0xe2e5c5fa
0x00082254 0x01fdf4f8
0x00010168 0x10000020
0x0001016c 0x00000002
0x00082258 0x010607f6
0x0008225c 0xecf6f5ef
0x00010170 0x1800001d
0x00010174 0x00201800
0x00082260 0xf1df14f5
0x00082264 0x0cfd070b
0x00010178 0x0a000012
0x0001017c 0x00171300
0x00082268 0x06e6f0f1
0x0008226c 0x03d5231a
0x00010180 0x07000013
0x00010184 0x00101000
0x00082270 0x0bfbdaf2
0x00082274 0xf3040ef7
0x00010188 0x09000010
0x0001018c 0x00161100
0x00082278 0x01180808
0x0008227c 0xfe27d1e3
0x00010190 0x09000008
0x00010194 0x001a1000
0x00082280 0x0e16050a
0x00082284 0xf8f04334
0x00010198 0x0700000d
0x0001019c 0x000f1000
0x00082288 0xfde4fe12
0x0008228c 0x0605f0d6
0x000101a0 0x0f000009
0x000101a4 0x00122000
0x00082290 0xeadad00f
0x00082294 0x01ff1fdc
0x000101a8 0x07000017
0x000101ac 0x00000802
0x00082298 0x01f904f7
0x0008229c 0xf5ededfc
0x000101b0 0x14000022
0x000101b4 0x000c1001
0x000822a0 0xf0e5faf8
0x000822a4 0x0a08e30c
0x000101b8 0x12000011
0x000101bc 0x00131000
0x000822a8 0xfcede1f9
0x000822ac 0x03e22627
0x000101c0 0x11000006
0x000101c4 0x00201100
0x000822b0 0x06f0f5e7
0x000822b4 0xfa040e01
0x000101c8 0x0500001c
0x000101cc 0x00091601
0x000822b8 0x090c2707
0x000822bc 0xff06e2e0
0x000101d0 0x0900061d
0x000101d4 0x000b0e00
0x000822c0 0x150a0308
0x000822c4 0xf702e326
0x000101d8 0x13000000
0x000101dc 0x00270c00
0x000822c8 0xfae30c06
0x000822cc 0xfcf80fe1
0x000101e0 0x04000010
0x000101e4 0x00141701
0x000822d0 0xfaf3fd20
0x000822d4 0xf40cfed6
0x000101e8 0x02000421
0x000101ec 0x00060e02
0x000822d8 0x07000102
0x000822dc 0xf1f0fbff
0x000101f0 0x10000006
0x000101f4 0x001a1100
0x000822e0 0xfbf3dc05
0x000822e4 0x0ef20ef8
0x000101f8 0x02000024
0x000101fc 0x00001100
0x000822e8 0xf3e4f1f3
0x000822ec 0xf9f52715
0x00012100 0x00060d00
0x00012104 0x04042b12
0x000822f0 0x06e81fed
0x000822f4 0x0afce614
0x00012108 0x00091100
0x0001210c 0x010c1c14
0x000822f8 0x0814160b
0x000822fc 0xf3091ae6
0x00012110 0x000b1102
0x00012114 0x010e1b12
0x00082300 0x09060cef
0x00082304 0xfb1bfaf6
0x00012118 0x000d1303
0x0001211c 0x000b1d13
0x00082308 0x05060501
0x0008230c 0xe5eee506
0x00012120 0x000e1704
0x00012124 0x000b2515
0x00082310 0xece9e601
0x00082314 0x02fe34e7
0x00012128 0x000f1705
0x0001212c 0x00090713
0x00082318 0xfbfffbfd
0x0008231c 0xf3fad7ee
0x00012130 0x000e210b
0x00012134 0x0006300d
0x00082320 0xeedf1700
0x00082324 0x0907f2ed
0x00012138 0x000f1504
0x0001213c 0x00141007
0x00082328 0x01f1f4f2
0x0008232c 0xfa1012f8
0x00012140 0x000d1d04
0x00012144 0x0005020a
0x00082330 0x0d0de000
0x00082334 0xfb00f5fe
0x00012148 0x00102007
0x0001214c 0x000b3210
0x00082338 0xf8fb041b
0x0008233c 0xfcff12ed
0x00012150 0x00111e07
0x00012154 0x000d060d
0x00082340 0xfcfdfbf4
0x00082344 0x1202cbf7
0x00012158 0x00111d09
0x0001215c 0x00080909
0x00082348 0x0b00fc0b
0x0008234c 0xd2f563ee
0x00012160 0x02111f13
0x00012164 0x00093200
0x00082350 0xfdfc061b
0x00082354 0xfefe1fe4
0x00012168 0x00110d0d
0x0001216c 0x00190700
0x00082358 0xfef1f9fb
0x0008235c 0xf2f7f9e9
0x00012170 0x000c1603
0x00012174 0x00081600
0x00082360 0xf2ec01fd
0x00082364 0xfe1100e0
0x00012178 0x000d1a02
0x0001217c 0x000a1b0f
0x00082368 0xf9f6ecff
0x0008236c 0xf71209f6
0x00012180 0x000d1901
0x00012184 0x000c1b12
0x00082370 0x09f8f9ef
0x00082374 0xef04f7e9
0x00012188 0x000d1d02
0x0001218c 0x01091013
0x00082378 0x01f0190b
0x0008237c 0xf3f10de4
0x00012190 0x000d2002
0x00012194 0x01092112
0x00082380 0x07ee02fc
0x00082384 0x0ef536fa
0x00012198 0x000e1e00
0x0001219c 0x05111c15
0x00082388 0xfd08f7f4
0x0008238c 0xda01b5fc
0x000121a0 0x00102b04
0x000121a4 0x070b0015
0x00082390 0x0b262820
0x00082394 0xf81bceea
0x000121a8 0x00112411
0x000121ac 0x00144e03
0x00082398 0x0800ff01
0x0008239c 0xebf0f5f3
0x000121b0 0x000f1a0a
0x000121b4 0x00140100
0x000823a0 0x0105e70e
0x000823a4 0xf6f306d2
0x000121b8 0x000c1903
0x000121bc 0x000b1203
0x000823a8 0xf3ef04fc
0x000823ac 0xee0d1feb
0x000121c0 0x000d1800
0x000121c4 0x000b180a
0x000823b0 0x00e718e6
0x000823b4 0xef08e5e7
0x000121c8 0x000d1d06
0x000121cc 0x0007240f
0x000823b8 0x00f81102
0x000823bc 0xe8f5f8f7
0x000121d0 0x00111807
0x000121d4 0x00150911
0x000823c0 0x120323f6
0x000823c4 0xf7f803ed
0x000121d8 0x000a1100
0x000121dc 0x000a110d
0x000823c8 0x080f0400
0x000823cc 0xe606fa25
0x000121e0 0x000b1a05
0x000121e4 0x00003910
0x000823d0 0xfcfff6ec
0x000823d4 0xe1f7faf9
0x000121e8 0x00131c0a
0x000121ec 0x00140e16
0x000823d8 0xfd09ed0a
0x000823dc 0xf8fc0a02
0x000121f0 0x000f1e03
0x000121f4 0x000f000f
0x000823e0 0xfafa050d
0x000823e4 0xea010cf8
0x000121f8 0x020e1909
0x000121fc 0x00084209
0x000823e8 0xfef1faf3
0x000823ec 0xfcfacef6
0x00010200 0x0a000007
0x00010204 0x001b0f00
0x000823f0 0x1515fe05
0x000823f4 0xfcf30a05
0x00010208 0x0b00000b
0x0001020c 0x001a1200
0x000823f8 0xf6ece60b
0x000823fc 0xf9f41d1e
0x00010210 0x0900000e
0x00010214 0x00110f00
0x00082400 0x02f4faf9
0x00082404 0xf20d06e4
0x00010218 0x0e000011
0x0001021c 0x000f1000
0x00082408 0x0f0f100d
0x0008240c 0xece80928
0x00010220 0x0c000015
0x00010224 0x000e1000
0x00082410 0x0d1e1df7
0x00082414 0xf8f5bf06
0x00010228 0x0d000010
0x0001022c 0x001d1300
0x00082418 0x0401f307
0x0008241c 0xf2fa1aff
0x00010230 0x0b000000
0x00010234 0x00271800
0x00082420 0x020f040a
0x00082424 0xee0708fb
0x00010238 0x00000016
0x0001023c 0x000a1102
0x00082428 0xf9fefc02
0x0008242c 0xfc02d4f0
0x00010240 0x0a000018
0x00010244 0x000a0900
0x00082430 0x12020f05
0x00082434 0xf0f4fef6
0x00010248 0x0a000011
0x0001024c 0x00181800
0x00082438 0x01eb0f05
0x0008243c 0x18f90e3f
0x00010250 0x08000010
0x00010254 0x00151500
0x00082440 0x0bf5f9fb
0x00082444 0xe8ea2ae6
0x00010258 0x0f000000
0x0001025c 0x001d0d00
0x00082448 0x070cfcf6
0x0008244c 0xdc19062f
0x00010260 0x08000000
0x00010264 0x002e1506
0x00082450 0x203a45f9
0x00082454 0xf009ea15
0x00010268 0x00001925
0x0001026c 0x000f0c0b
0x00082458 0x0d11f802
0x0008245c 0xf304f408
0x00010270 0x0000172b
0x00010274 0x00000206
0x00082460 0x0f23ed0d
0x00082464 0xe4f309e3
0x00010278 0x0e000012
0x0001027c 0x00131200
0x00082468 0xf6fe1df6
0x0008246c 0xfcfedbe1
0x00010280 0x0c000013
0x00010284 0x00070c00
0x00082470 0x09f229f6
0x00082474 0xea04fef7
0x00010288 0x10000014
0x0001028c 0x00141000
0x00082478 0xfaf409fa
0x0008247c 0x1018d639
0x00010290 0x0d00000b
0x00010294 0x00181500
0x00082480 0x0bf7f1e6
0x00082484 0xfe0c09f0
0x00010298 0x0d000010
0x0001029c 0x00061600
0x00082488 0xd017fe12
0x0008248c 0x09ebf006
0x000102a0 0x18000000
0x000102a4 0x00220400
0x00082490 0xf8ff1704
0x00082494 0x0eff0a04
0x000102a8 0x04000016
0x000102ac 0x001f1d06
0x00082498 0x02eef8f1
0x0008249c 0xe6f50004
0x000102b0 0x00000d29
0x000102b4 0x00090707
0x000824a0 0xfb10e507
0x000824a4 0xe61619f1
0x000102b8 0x07000313
0x000102bc 0x001b1400
0x000824a8 0x0428f328
0x000824ac 0x02cff804
0x000102c0 0x08000009
0x000102c4 0x000b0700
0x000824b0 0x06ff05da
0x000824b4 0x010508ff
0x000102c8 0x0a00001b
0x000102cc 0x000e1702
0x000824b8 0x090e06f5
0x000824bc 0xfd00020c
0x000102d0 0x0b000015
0x000102d4 0x000f0d00
0x000824c0 0x0cecf6fd
0x000824c4 0x03ff04ef
0x000102d8 0x0e000008
0x000102dc 0x001a0a00
0x000824c8 0xe40c28e5
0x000824cc 0xff3d1701
0x000102e0 0x0a000013
0x000102e4 0x00141c00
0x000824d0 0x01f40f02
0x000824d4 0x0609080a
0x000102e8 0x08000015
0x000102ec 0x00010d01
0x000824d8 0xf5f81ffd
0x000824dc 0xf21a170a
0x000102f0 0x15000002
0x000102f4 0x001c0a00
0x000824e0 0xffedf1f5
0x000824e4 0xe30e1bef
0x000102f8 0x0100002d
0x000102fc 0x00001804
0x000824e8 0x0808d302
0x000824ec 0xffec16f8
0x00012200 0x00070d00
0x00012204 0x05062913
0x000824f0 0xfffafad5
0x000824f4 0xfafffe04
0x00012208 0x000b1301
0x0001220c 0x030b1415
0x000824f8 0x050ff90b
0x000824fc 0xfaf90f08
0x00012210 0x000d1504
0x00012214 0x000d2510
0x00082500 0x06f9e212
0x00082504 0xfef90eec
0x00012218 0x000f1503
0x0001221c 0x00120d0c
0x00082508 0xf9ef14cc
0x0008250c 0xf5e7e601
0x00012220 0x000e1704
0x00012224 0x000c1a09
0x00082510 0xfcfb09f6
0x00082514 0x0706000b
0x00012228 0x00101600
0x0001222c 0x000f2011
0x00082518 0xf51510eb
0x0008251c 0xfbe8f105
0x00012230 0x000f1d02
0x00012234 0x06010016
0x00082520 0xf2cef21d
0x00082524 0xe11a18f9
0x00012238 0x0211230d
0x0001223c 0x00094c11
0x00082528 0x08decc01
0x0008252c 0x050717f9
0x00012240 0x00121b04
0x00012244 0x0017000e
0x00082530 0xf7fa0ddb
0x00082534 0xfe01fa03
0x00012248 0x000e2302
0x0001224c 0x00061b0e
0x00082538 0xff03f60c
0x0008253c 0xfceb0201
0x00012250 0x00132409
0x00012254 0x000c1513
0x00082540 0xf1fbf0da
0x00082544 0x0418eef3
0x00012258 0x00121504
0x0001225c 0x000d0f0d
0x00082548 0xd2ef151b
0x0008254c 0x10a7fa00
0x00012260 0x02120f12
0x00012264 0x0000230a
0x00082550 0x05f8fcf7
0x00082554 0x02e40ef6
0x00012268 0x0618101c
0x0001226c 0x0006620e
0x00082558 0x01f00c14
0x0008255c 0xedec0e06
0x00012270 0x00170e0d
0x00012274 0x00180010
0x00082560 0xe6f5e7f7
0x00082564 0xf5b3d0f4
0x00012278 0x000f1b04
0x0001227c 0x000e040b
0x00082568 0x091c0b06
0x0008256c 0x08d9e80a
0x00012280 0x000c1b05
0x00012284 0x000e2106
0x00082570 0x1b0be8d6
0x00082574 0x09100cfc
0x00012288 0x000c1a01
0x0001228c 0x000e1509
0x00082578 0x03061efd
0x0008257c 0x01f5f10f
0x00012290 0x000d1f00
0x00012294 0x010a140f
0x00082580 0xf1e1edf5
0x00082584 0xfb1202f3
0x00012298 0x000f2808
0x0001229c 0x00100d0c
0x00082588 0x070ae2e9
0x0008258c 0x11f0d4fa
0x000122a0 0x000e1805
0x000122a4 0x000f0401
0x00082590 0x0af4f107
0x00082594 0x01e707fc
0x000122a8 0x020c2010
0x000122ac 0x00006002
0x00082598 0x061b0cf6
0x0008259c 0x03f5f705
0x000122b0 0x00171711
0x000122b4 0x00130215
0x000825a0 0xf0e6bce9
0x000825a4 0xfa9ce9f4
0x000122b8 0x00112108
0x000122bc 0x000a0513
0x000825a8 0x0e0bee0a
0x000825ac 0x03d7e905
0x000122c0 0x000f1b03
0x000122c4 0x000f120c
0x000825b0 0x0bfedfd4
0x000825b4 0x02100a03
0x000122c8 0x000e2108
0x000122cc 0x00081309
0x000825b8 0x0b0d0c03
0x000825bc 0xff05fa08
0x000122d0 0x000f1c09
0x000122d4 0x0012130b
0x000825c0 0xe2ecf00d
0x000825c4 0xf6f702f1
0x000122d8 0x000b1000
0x000122dc 0x000d2009
0x000825c8 0x08dceaec
0x000825cc 0xf52016ff
0x000122e0 0x000c1c02
0x000122e4 0x01050d12
0x000825d0 0x0dfde709
0x000825d4 0x06f10202
0x000122e8 0x0012210c
0x000122ec 0x0014140f
0x000825d8 0x0a02f7d5
0x000825dc 0xf912fe06
0x000122f0 0x000e1b05
0x000122f4 0x000e1001
0x000825e0 0xe8cdb7ff
0x000825e4 0xf3bce3ff
0x000122f8 0x020e1b0c
0x000122fc 0x00034606
0x000825e8 0x0effe00d
0x000825ec 0xf8fb0202
0x00010300 0x0a000009
0x00010304 0x00180f00
0x000825f0 0xfdf4f9dc
0x000825f4 0x020a0303
0x00010308 0x0c000008
0x0001030c 0x001e1000
0x000825f8 0x0e07fd02
0x000825fc 0xfdfafcff
0x00010310 0x0700000a
0x00010314 0x001b1400
0x00082600 0x0808f9fb
0x00082604 0x08f7fcf7
0x00010318 0x08000009
0x0001031c 0x00180f00
0x00082608 0xe9eae513
0x0008260c 0x181610fa
0x00010320 0x05000017
0x00010324 0x00090b00
0x00082610 0xfdf2d803
0x00082614 0xfe0f14f4
0x00010328 0x0b00001d
0x0001032c 0x000c1100
0x00082618 0xff0bf216
0x0008261c 0xfde51002
0x00010330 0x10000000
0x00010334 0x00200f00
0x00082620 0x02171c2c
0x00082624 0xfefce8f9
0x00010338 0x02000012
0x0001033c 0x00171d02
0x00082628 0xf9030afc
0x0008262c 0xfdf20608
0x00010340 0x0000001a
0x00010344 0x000f0e02
0x00082630 0x0f0dfccf
0x00082634 0x0d07f7f6
0x00010348 0x03000015
0x0001034c 0x000d1300
0x00082638 0x04ff27f4
0x0008263c 0xff04f511
0x00010350 0x0b000005
0x00010354 0x00171400
0x00082640 0x0a04f4fb
0x00082644 0xf6f113f6
0x00010358 0x0c000000
0x0001035c 0x001c1000
0x00082648 0xecf21eeb
0x0008264c 0x1e1bddff
0x00010360 0x0a000000
0x00010364 0x001f1503
0x00082650 0xfbe6ed09
0x00082654 0x03fb06f8
0x00010368 0x00000022
0x0001036c 0x0001190c
0x00082658 0x0c1a0ce9
0x0008265c 0x1010e2ff
0x00010370 0x0000112d
0x00010374 0x00020809
0x00082660 0xf63ae9e3
0x00082664 0x01e3e601
0x00010378 0x09000013
0x0001037c 0x00251201
0x00082668 0xfe120108
0x0008266c 0xf9d7fc06
0x00010380 0x0300010d
0x00010384 0x00191300
0x00082670 0x0a0ad9d4
0x00082674 0x010507fb
0x00010388 0x09000313
0x0001038c 0x00040800
0x00082678 0x0b0d2e00
0x0008267c 0xfe0cef0c
0x00010390 0x1200000f
0x00010394 0x000e0c00
0x00082680 0xfa15f4f6
0x00082684 0xf7f409f8
0x00010398 0x13000002
0x0001039c 0x002a1501
0x00082688 0x0012ef13
0x0008268c 0xfee4fd04
0x000103a0 0x09000000
0x000103a4 0x00250a00
0x00082690 0x04eefb0d
0x00082694 0x0cf5f7fe
0x000103a8 0x00000021
0x000103ac 0x00051609
0x00082698 0x0312f2e5
0x0008269c 0xf40b0f02
0x000103b0 0x0000052f
0x000103b4 0x00001307
0x000826a0 0xf413e1e8
0x000826a4 0x0410f00f
0x000103b8 0x0a00000c
0x000103bc 0x001d1400
0x000826a8 0xfe11ed05
0x000826ac 0xfeebfb07
0x000103c0 0x04000007
0x000103c4 0x00161300
0x000826b0 0xfcfff4dc
0x000826b4 0x030301fa
0x000103c8 0x08000014
0x000103cc 0x000c1002
0x000826b8 0x120514fd
0x000826bc 0xfc18f903
0x000103d0 0x0c00000e
0x000103d4 0x00100b01
0x000826c0 0xe8eb00f0
0x000826c4 0x0ff4f6ee
0x000103d8 0x0a00001c
0x000103dc 0x000b1002
0x000826c8 0x0a12f104
0x000826cc 0x011221f8
0x000103e0 0x0b000014
0x000103e4 0x00161101
0x000826d0 0x1a390707
0x000826d4 0x0002ea04
0x000103e8 0x06000007
0x000103ec 0x00271600
0x000826d8 0x132101fa
0x000826dc 0x030420f5
0x000103f0 0x00000005
0x000103f4 0x001c0a01
0x000826e0 0x1b381f0e
0x000826e4 0xf1f90bf0
0x000103f8 0x00000035
0x000103fc 0x00001806
0x000826e8 0xf5efedfe
0x000826ec 0xfc0efef1
0x00012300 0x00080e00
0x00012304 0x04072712
0x000826f0 0x0705f5eb
0x000826f4 0x0900f914
0x00012308 0x000b1100
0x0001230c 0x040b1615
0x000826f8 0x071af507
0x000826fc 0x0afc0008
0x00012310 0x000d1703
0x00012314 0x04052715
0x00082700 0xeef113f7
0x00082704 0xfe08edec
0x00012318 0x00101909
0x0001231c 0x000a1512
0x00082708 0xff01fcfe
0x0008270c 0xf301e922
0x00012320 0x010f1709
0x00012324 0x000b2e0a
0x00082710 0x0d290efe
0x00082714 0xfafcfe04
0x00012328 0x00111904
0x0001232c 0x0011000d
0x00082718 0xff1cfe02
0x0008271c 0xf3f8dc05
0x00012330 0x000f1600
0x00012334 0x050e0a11
0x00082720 0x32452f0c
0x00082724 0xf2e80eeb
0x00012338 0x000e2204
0x0001233c 0x0a002e16
0x00082728 0x030402fc
0x0008272c 0xf2ff0deb
0x00012340 0x00152108
0x00012344 0x0612201d
0x00082730 0x00fae7fc
0x00082734 0xf9f405fb
0x00012348 0x00102300
0x0001234c 0x050b0819
0x00082738 0x030dfb06
0x0008273c 0x18f10c15
0x00012350 0x00112303
0x00012354 0x050c0116
0x00082740 0xf8f304ff
0x00082744 0xf7fd0be1
0x00012358 0x01111404
0x0001235c 0x00092b0e
0x00082748 0x15ec04fd
0x0008274c 0x0710e81b
0x00012360 0x01150402
0x00012364 0x000b1711
0x00082750 0xfa0af5f8
0x00082754 0x03fc0c09
0x00012368 0x031a0e12
0x0001236c 0x03081a14
0x00082758 0x1417170b
0x0008275c 0x06060e0a
0x00012370 0x001c1014
0x00012374 0x001b2910
0x00082760 0x2b4b4117
0x00082764 0xe0edc4e7
0x00012378 0x00121507
0x0001237c 0x000a0710
0x00082768 0x06120ff9
0x0008276c 0xf9fcf2f8
0x00012380 0x000f1e0a
0x00012384 0x00052a12
0x00082770 0x01fdf703
0x00082774 0xed0106f7
0x00012388 0x00101b0b
0x0001238c 0x0014090a
0x00082778 0xf904fc02
0x0008277c 0x1ff61416
0x00012390 0x000d1a06
0x00012394 0x000f0e00
0x00082780 0xe3dbf1ed
0x00082784 0xeed305ff
0x00012398 0x000e1c0c
0x0001239c 0x00021304
0x00082788 0x0a06fd08
0x0008278c 0xf31403ee
0x000123a0 0x01111005
0x000123a4 0x000b440a
0x00082790 0x1b322e04
0x00082794 0x0814e8fb
0x000123a8 0x00141408
0x000123ac 0x00050112
0x00082798 0x0f0f05ff
0x0008279c 0xfaf74d05
0x000123b0 0x001a1d0a
0x000123b4 0x061a1c1c
0x000827a0 0xf9dff0f2
0x000827a4 0xf8d40111
0x000123b8 0x00122002
0x000123bc 0x070f001a
0x000827a8 0xf1e0ed16
0x000827ac 0x06fa47f5
0x000123c0 0x000e2505
0x000123c4 0x05064012
0x000827b0 0x01fb02e9
0x000827b4 0x01f4ec03
0x000123c8 0x0010230a
0x000123cc 0x000f000e
0x000827b8 0x1520f415
0x000827bc 0xf4fc10f5
0x000123d0 0x000d1d0a
0x000123d4 0x000e1e05
0x000827c0 0xeae4fdef
0x000827c4 0xf0de1819
0x000123d8 0x000d1806
0x000123dc 0x000e2306
0x000827c8 0xfef8dff9
0x000827cc 0x0b208dce
0x000123e0 0x000f1603
0x000123e4 0x000c0010
0x000827d0 0x091d24fa
0x000827d4 0xff08e3f1
0x000123e8 0x000f1e08
0x000123ec 0x02022f15
0x000827d8 0xf10ae8f5
0x000827dc 0x0309810c
0x000123f0 0x00111904
0x000123f4 0x00092517
0x000827e0 0x09db01e7
0x000827e4 0x29beed11
0x000123f8 0x02131c0c
0x000123fc 0x00072019
0x000827e8 0xfef6ea10
0x000827ec 0xfdf70adc
0x00010400 0x0a00000a
0x00010404 0x00170f00
0x000827f0 0xfefcf3f7
0x000827f4 0x06e527ff
0x00010408 0x0c00000c
0x0001040c 0x00160f00
0x000827f8 0x0b10f710
0x000827fc 0xfcf503ff
0x00010410 0x0b000009
0x00010414 0x00181300
0x00082800 0xf4ecf4f7
0x00082804 0xf7e8fd17
0x00010418 0x0a000001
0x0001041c 0x00231300
0x00082808 0x14e80b06
0x0008280c 0x00e955d1
0x00010420 0x01000014
0x00010424 0x000a1302
0x00082810 0xeff8fdfb
0x00082814 0x0e02fff8
0x00010428 0x0500001f
0x0001042c 0x00070a02
0x00082818 0x0cf80703
0x0008281c 0x08f056fe
0x00010430 0x0c00000e
0x00010434 0x001c1200
0x00082820 0x0ef413ef
0x00082824 0x13ddcb14
0x00010438 0x04000013
0x0001043c 0x000c1500
0x00082828 0x030a0009
0x0008282c 0xf4f8f3d6
0x00010440 0x0400001a
0x00010444 0x00091500
0x00082830 0x0207f8ff
0x00082834 0x02f5100c
0x00010448 0x09000012
0x0001044c 0x000d1400
0x00082838 0x0306f90d
0x0008283c 0x08f419fe
0x00010450 0x0c000000
0x00010454 0x00211000
0x00082840 0xede5e2f4
0x00082844 0xfef8150a
0x00010458 0x08000000
0x0001045c 0x00271f00
0x00082848 0x0a020302
0x0008284c 0xe6daf9fd
0x00010460 0x01000003
0x00010464 0x00121004
0x00082850 0x11153603
0x00082854 0x04fb0502
0x00010468 0x03000410
0x0001046c 0x00151609
0x00082858 0x08fc0d01
0x0008285c 0x07ebfb03
0x00010470 0x00000f27
0x00010474 0x0000090a
0x00082860 0xe1bda8e8
0x00082864 0xe4043414
0x00010478 0x1000051c
0x0001047c 0x000d0c03
0x00082868 0xf5e2e606
0x0008286c 0xfbf02504
0x00010480 0x0e00000c
0x00010484 0x001d1501
0x00082870 0x01f40bed
0x00082874 0xebf5eef9
0x00010488 0x01000012
0x0001048c 0x00281603
0x00082878 0x1c23f40c
0x0008287c 0xf2f71c05
0x00010490 0x00000c0c
0x00010494 0x001f1502
0x00082880 0xedede4f6
0x00082884 0x1005e41f
0x00010498 0x0a000000
0x0001049c 0x00120400
0x00082888 0x09fbf903
0x0008288c 0xf0fb2b08
0x000104a0 0x0b00000b
0x000104a4 0x00121507
0x00082890 0x030328ff
0x00082894 0x0ef40f15
0x000104a8 0x00000029
0x000104ac 0x0000110a
0x00082898 0xf0f0e3fd
0x0008289c 0x0908d8fa
0x000104b0 0x02000231
0x000104b4 0x00011406
0x000828a0 0xe9aba2e3
0x000828a4 0x0d02311b
0x000104b8 0x11000007
0x000104bc 0x001c0e00
0x000828a8 0x01f9ed08
0x000828ac 0x01fd3206
0x000104c0 0x0d000003
0x000104c4 0x00161800
0x000828b0 0xfef6fdf8
0x000828b4 0xf9e00cf4
0x000104c8 0x0b000008
0x000104cc 0x001a1002
0x000828b8 0x121cf209
0x000828bc 0xf3fb0c09
0x000104d0 0x0800000d
0x000104d4 0x00171204
0x000828c0 0xf3eadff9
0x000828c4 0x09040b10
0x000104d8 0x03000022
0x000104dc 0x00010f07
0x000828c8 0x0dfa0cfa
0x000828cc 0xfbfbc112
0x000104e0 0x0a00001d
0x000104e4 0x000a0d01
0x000828d0 0xe6dffafb
0x000828d4 0x10faf514
0x000104e8 0x10000009
0x000104ec 0x00191600
0x000828d8 0x03e9f108
0x000828dc 0x09eb22fe
0x000104f0 0x0600000d
0x000104f4 0x000e1400
0x000828e0 0xfbc3bfe8
0x000828e4 0xfe042a0d
0x000104f8 0x00000034
0x000104fc 0x00001c04
0x000828e8 0xfd09ec04
0x000828ec 0xf5f101fd
0x00012400 0x00090e00
0x00012404 0x02062911
0x000828f0 0x040302fa
0x000828f4 0x09f0fd04
0x00012408 0x000c1000
0x0001240c 0x020e1813
0x000828f8 0x0811f307
0x000828fc 0xfbf10004
0x00012410 0x000c1300
0x00012414 0x07081815
0x00012418 0x000f1700
0x0001241c 0x08081917
0x00012420 0x01101d0a
0x00012424 0x01062f12
0x00012428 0x0013190b
0x0001242c 0x00120f0f
0x00012430 0x000f1800
0x00012434 0x000d1610
0x00012438 0x000f1c00
0x0001243c 0x09091117
0x00012440 0x00112101
0x00012444 0x0c11171a
0x00012448 0x00102401
0x0001244c 0x080f0f17
0x00012450 0x000f1b00
0x00012454 0x080a1d15
0x00012458 0x01121701
0x0001245c 0x0902221b
0x00012460 0x041a0808
0x00012464 0x090d131b
0x00012468 0x031b0b13
0x0001246c 0x00081d11
0x00012470 0x041b0d17
0x00012474 0x00153208
0x00012478 0x00170e08
0x0001247c 0x001b0005
0x00012480 0x00101404
0x00012484 0x00071909
0x00012488 0x0114170b
0x0001248c 0x01043916
0x00012490 0x00161b0d
0x00012494 0x000a121b
0x00012498 0x00150d07
0x0001249c 0x0012050e
0x000124a0 0x02130e0b
0x000124a4 0x00072305
0x000124a8 0x011a1210
0x000124ac 0x0012210d
0x000124b0 0x00181e0d
0x000124b4 0x00150d11
0x000124b8 0x00121f00
0x000124bc 0x01170011
0x000124c0 0x000b2600
0x000124c4 0x03031f0b
0x000124c8 0x00112309
0x000124cc 0x000d150d
0x000124d0 0x000e210a
0x000124d4 0x0009260a
0x000124d8 0x00111e0f
0x000124dc 0x000f130a
0x000124e0 0x00121706
0x000124e4 0x00180f0c
0x000124e8 0x000e1900
0x000124ec 0x020d0010
0x000124f0 0x00101c00
0x000124f4 0x0c0d2b14
0x000124f8 0x00141e0a
0x000124fc 0x060e1d1a
0x00010500 0x0a00000a
0x00010504 0x00170f00
0x00010508 0x0a000010
0x0001050c 0x00160f00
0x00010510 0x0a00000d
0x00010514 0x00141000
0x00010518 0x0e000000
0x0001051c 0x001f1200
0x00010520 0x0500000a
0x00010524 0x00131500
0x00010528 0x0300001e
0x0001052c 0x00081102
0x00010530 0x09000018
0x00010534 0x000b0e00
0x00010538 0x0a000016
0x0001053c 0x000f1500
0x00010540 0x0a000016
0x00010544 0x000c1100
0x00010548 0x0d00000d
0x0001054c 0x00161100
0x00010550 0x12000006
0x00010554 0x00111500
0x00010558 0x13000001
0x0001055c 0x000d0f00
0x00010560 0x0e000006
0x00010564 0x00261f02
0x00010568 0x03000002
0x0001056c 0x00231407
0x00010570 0x00000c1a
0x00010574 0x000e130c
0x00010578 0x0600171b
0x0001057c 0x000b0509
0x00010580 0x11000311
0x00010584 0x000c0d03
0x00010588 0x16000018
0x0001058c 0x00001003
0x00010590 0x1d000007
0x00010594 0x00171003
0x00010598 0x14000000
0x0001059c 0x002f1804
0x000105a0 0x0300000f
0x000105a4 0x0013100b
0x000105a8 0x0000072a
0x000105ac 0x00000d0d
0x000105b0 0x02000630
0x000105b4 0x00010c08
0x000105b8 0x0e00000c
0x000105bc 0x00211000
0x000105c0 0x08000002
0x000105c4 0x00211700
0x000105c8 0x01000009
0x000105cc 0x001d1202
0x000105d0 0x0100000a
0x000105d4 0x001f1c04
0x000105d8 0x0000001a
0x000105dc 0x00030e07
0x000105e0 0x02000425
0x000105e4 0x000a1305
0x000105e8 0x0b00000a
0x000105ec 0x00160d00
0x000105f0 0x07000013
0x000105f4 0x000e1500
0x000105f8 0x01000030
0x000105fc 0x00001402
0x00012500 0x000a0d00
0x00012504 0x02052911
0x00012508 0x000c1000
0x0001250c 0x000b1c13
0x00012510 0x000c1200
0x00012514 0x030b1b14
0x00012518 0x000d1400
0x0001251c 0x070b0d15
0x00012520 0x000e1b05
0x00012524 0x07032913
0x00012528 0x00131c0b
0x0001252c 0x00112712
0x00012530 0x00111903
0x00012534 0x00110110
0x00012538 0x000f1d02
0x0001253c 0x010c1b0f
0x00012540 0x000f1e03
0x00012544 0x000f1310
0x00012548 0x000e1e02
0x0001254c 0x000c180e
0x00012550 0x000f1f00
0x00012554 0x0011130d
0x00012558 0x00111100
0x0001255c 0x020e0109
0x00012560 0x03160c05
0x00012564 0x0406350f
0x00012568 0x041c050c
0x0001256c 0x05071418
0x00012570 0x071d0e1b
0x00012574 0x00063a10
0x00012578 0x021e0b1a
0x0001257c 0x00180a06
0x00012580 0x02160e0e
0x00012584 0x00131200
0x00012588 0x0016100a
0x0001258c 0x001b0000
0x00012590 0x00140c0a
0x00012594 0x00110100
0x00012598 0x02130a0c
0x0001259c 0x00034a00
0x000125a0 0x03180712
0x000125a4 0x00061d0b
0x000125a8 0x031b1017
0x000125ac 0x0010230b
0x000125b0 0x00191a11
0x000125b4 0x0015080a
0x000125b8 0x00121f02
0x000125bc 0x0010090d
0x000125c0 0x000e2500
0x000125c4 0x03021812
0x000125c8 0x00122100
0x000125cc 0x080b2019
0x000125d0 0x00122505
0x000125d4 0x0808031e
0x000125d8 0x0014210e
0x000125dc 0x040e2d18
0x000125e0 0x00151f0e
0x000125e4 0x00130b13
0x000125e8 0x00121b04
0x000125ec 0x00110210
0x000125f0 0x000f1f04
0x000125f4 0x0009280d
0x000125f8 0x00141b0a
0x000125fc 0x00121213
0x00010600 0x0a00000a
0x00010604 0x00170f00
0x00010608 0x09000112
0x0001060c 0x00140f00
0x00010610 0x09000010
0x00010614 0x00131000
0x00010618 0x0b000004
0x0001061c 0x001f0e00
0x00010620 0x04000008
0x00010624 0x001f1900
0x00010628 0x00000017
0x0001062c 0x000b1201
0x00010630 0x06000115
0x00010634 0x000e0f00
0x00010638 0x08000015
0x0001063c 0x000c0d00
0x00010640 0x08000017
0x00010644 0x00171200
0x00010648 0x0900000e
0x0001064c 0x00171200
0x00010650 0x0f000000
0x00010654 0x00211200
0x00010658 0x07000007
0x0001065c 0x00100900
0x00010660 0x0d000013
0x00010664 0x00161704
0x00010668 0x09000000
0x0001066c 0x001d1103
0x00010670 0x0200000d
0x00010674 0x001f1b0a
0x00010678 0x00000f0e
0x0001067c 0x001c0e0b
0x00010680 0x00000a11
0x00010684 0x001e0c0c
0x00010688 0x00001315
0x0001068c 0x00260e0c
0x00010690 0x00001a0a
0x00010694 0x00210608
0x00010698 0x03000407
0x0001069c 0x00180d09
0x000106a0 0x0500010a
0x000106a4 0x0014120c
0x000106a8 0x00000029
0x000106ac 0x0000090f
0x000106b0 0x00000936
0x000106b4 0x000a120b
0x000106b8 0x06000013
0x000106bc 0x00120f00
0x000106c0 0x0a000006
0x000106c4 0x00141400
0x000106c8 0x06000014
0x000106cc 0x000a1800
0x000106d0 0x0b000006
0x000106d4 0x001b1600
0x000106d8 0x00000016
0x000106dc 0x00101f03
0x000106e0 0x0000001f
0x000106e4 0x00061104
0x000106e8 0x0800000c
0x000106ec 0x001b1200
0x000106f0 0x04000014
0x000106f4 0x00101601
0x000106f8 0x0000032e
0x000106fc 0x00001002
0x00012600 0x000a0d00
0x00012604 0x02052b11
0x00012608 0x000c1000
0x0001260c 0x010b1a14
0x00012610 0x000c1200
0x00012614 0x030a1e14
0x00012618 0x000d0f00
0x0001261c 0x070a1817
0x00012620 0x000e1800
0x00012624 0x0c02251c
0x00012628 0x00141d08
0x0001262c 0x090b191d
0x00012630 0x00131d08
0x00012634 0x00101614
0x00012638 0x000f1a05
0x0001263c 0x000b180d
0x00012640 0x000f1a04
0x00012644 0x000a1e10
0x00012648 0x00101c02
0x0001264c 0x000b1215
0x00012650 0x00101e08
0x00012654 0x0005020f
0x00012658 0x05111009
0x0001265c 0x00094e05
0x00012660 0x01170807
0x00012664 0x000b000e
0x00012668 0x051b0105
0x0001266c 0x070d1e13
0x00012670 0x071d0711
0x00012674 0x03022314
0x00012678 0x07220819
0x0001267c 0x000d2913
0x00012680 0x081e061a
0x00012684 0x0004230b
0x00012688 0x071e081e
0x0001268c 0x0001270d
0x00012690 0x051c0012
0x00012694 0x000b2310
0x00012698 0x0218000b
0x0001269c 0x00070010
0x000126a0 0x011a0512
0x000126a4 0x000b180f
0x000126a8 0x041a0a18
0x000126ac 0x000c3809
0x000126b0 0x001a1a12
0x000126b4 0x00121312
0x000126b8 0x00142202
0x000126bc 0x00140017
0x000126c0 0x000f2600
0x000126c4 0x080b1013
0x000126c8 0x00122700
0x000126cc 0x0a111715
0x000126d0 0x00122200
0x000126d4 0x0e110019
0x000126d8 0x00122706
0x000126dc 0x0e083c1a
0x000126e0 0x0018220b
0x000126e4 0x0415001a
0x000126e8 0x00131f04
0x000126ec 0x010e1b13
0x000126f0 0x00112307
0x000126f4 0x00071512
0x000126f8 0x01141b0c
0x000126fc 0x00122612
0x00010700 0x0a00000b
0x00010704 0x00160f00
0x00010708 0x09000113
0x0001070c 0x00130f00
0x00010710 0x0a000011
0x00010714 0x00131000
0x00010718 0x0a00000e
0x0001071c 0x00110f00
0x00010720 0x0b00000c
0x00010724 0x00141500
0x00010728 0x0800000d
0x0001072c 0x00151700
0x00010730 0x0800000b
0x00010734 0x00141000
0x00010738 0x04000018
0x0001073c 0x000c0e00
0x00010740 0x0700001e
0x00010744 0x000b1300
0x00010748 0x0d00000b
0x0001074c 0x00121100
0x00010750 0x12000000
0x00010754 0x002e0f00
0x00010758 0x0200000f
0x0001075c 0x00101b04
0x00010760 0x05000615
0x00010764 0x000a0906
0x00010768 0x0c000006
0x0001076c 0x001d1603
0x00010770 0x08000007
0x00010774 0x00131007
0x00010778 0x07000009
0x0001077c 0x001d1509
0x00010780 0x01000311
0x00010784 0x0013150b
0x00010788 0x02000414
0x0001078c 0x000d110b
0x00010790 0x03000313
0x00010794 0x0018170b
0x00010798 0x0200060a
0x0001079c 0x001d120a
0x000107a0 0x00000007
0x000107a4 0x0027100c
0x000107a8 0x00000c2d
0x000107ac 0x0009190f
0x000107b0 0x00001132
0x000107b4 0x00000c09
0x000107b8 0x0b000011
0x000107bc 0x000e0e00
0x000107c0 0x0d00000a
0x000107c4 0x00151500
0x000107c8 0x07000016
0x000107cc 0x000b1400
0x000107d0 0x0900000e
0x000107d4 0x00141000
0x000107d8 0x05000014
0x000107dc 0x00101d00
0x000107e0 0x05000012
0x000107e4 0x000c1300
0x000107e8 0x0b00000e
0x000107ec 0x000d1100
0x000107f0 0x0b000010
0x000107f4 0x00121501
0x000107f8 0x0000002f
0x000107fc 0x00001503
0x00012700 0x000a0e00
0x00012704 0x03052911
0x00012708 0x000c1000
0x0001270c 0x010c1a13
0x00012710 0x000c1100
0x00012714 0x020a1d13
0x00012718 0x000d1000
0x0001271c 0x050f1f15
0x00012720 0x000e1400
0x00012724 0x0c0a0918
0x00012728 0x00101c01
0x0001272c 0x0d0a2319
0x00012730 0x00101b05
0x00012734 0x040b1814
0x00012738 0x000e1805
0x0001273c 0x000a320f
0x00012740 0x00101903
0x00012744 0x000f0714
0x00012748 0x000f1a01
0x0001274c 0x030d0a13
0x00012750 0x000e1200
0x00012754 0x03051b0f
0x00012758 0x0512150c
0x0001275c 0x00004010
0x00012760 0x021d060f
0x00012764 0x00160013
0x00012768 0x05190509
0x0001276c 0x0009230c
0x00012770 0x061c000b
0x00012774 0x000c120e
0x00012778 0x061f010e
0x0001277c 0x0009240f
0x00012780 0x07210310
0x00012784 0x000d2213
0x00012788 0x0622000e
0x0001278c 0x00130f13
0x00012790 0x0420000e
0x00012794 0x020e1a14
0x00012798 0x031e000d
0x0001279c 0x030e1f16
0x000127a0 0x031b000b
0x000127a4 0x0704281a
0x000127a8 0x051c1012
0x000127ac 0x08074022
0x000127b0 0x001e1d10
0x000127b4 0x041d0022
0x000127b8 0x00132404
0x000127bc 0x02140c11
0x000127c0 0x000e2700
0x000127c4 0x00091c0d
0x000127c8 0x00102805
0x000127cc 0x000b1410
0x000127d0 0x00111f00
0x000127d4 0x04131614
0x000127d8 0x00102501
0x000127dc 0x0a060918
0x000127e0 0x00152508
0x000127e4 0x07131a17
0x000127e8 0x00112103
0x000127ec 0x000f110e
0x000127f0 0x00112205
0x000127f4 0x000a130d
0x000127f8 0x01131d0c
0x000127fc 0x000d3310
0x00010800 0x0a00000b
0x00010804 0x00170f00
0x00010808 0x0b000211
0x0001080c 0x00131000
0x00010810 0x0a000011
0x00010814 0x00110e00
0x00010818 0x0b000014
0x0001081c 0x00121200
0x00010820 0x0d00000e
0x00010824 0x00120e00
0x00010828 0x0e000009
0x0001082c 0x00191300
0x00010830 0x0c000004
0x00010834 0x001d1100
0x00010838 0x0100001d
0x0001083c 0x00071201
0x00010840 0x0700021f
0x00010844 0x000e1100
0x00010848 0x09000008
0x0001084c 0x001e0f00
0x00010850 0x0f000000
0x00010854 0x002a1600
0x00010858 0x04000006
0x0001085c 0x00091303
0x00010860 0x09000412
0x00010864 0x00131106
0x00010868 0x0700000c
0x0001086c 0x00170d06
0x00010870 0x0500020a
0x00010874 0x00231707
0x00010878 0x02000208
0x0001087c 0x000f0e08
0x00010880 0x0600000e
0x00010884 0x000f110b
0x00010888 0x03000217
0x0001088c 0x000f100c
0x00010890 0x06000915
0x00010894 0x0016130b
0x00010898 0x0400040d
0x0001089c 0x00160f09
0x000108a0 0x00000118
0x000108a4 0x000f1409
0x000108a8 0x0000002d
0x000108ac 0x00001d0b
0x000108b0 0x0200021e
0x000108b4 0x000c1104
0x000108b8 0x0800000e
0x000108bc 0x00140e00
0x000108c0 0x08000010
0x000108c4 0x00161400
0x000108c8 0x04000013
0x000108cc 0x00101500
0x000108d0 0x07000015
0x000108d4 0x00081200
0x000108d8 0x0e00000e
0x000108dc 0x000b1200
0x000108e0 0x10000009
0x000108e4 0x00141300
0x000108e8 0x0a000011
0x000108ec 0x00131101
0x000108f0 0x09000012
0x000108f4 0x00151401
0x000108f8 0x0000002f
0x000108fc 0x00001303
0x00012800 0x000a0e00
0x00012804 0x03052811
0x00012808 0x000c1101
0x0001280c 0x000c1912
0x00012810 0x000c1001
0x00012814 0x000b200f
0x00012818 0x000d1302
0x0001281c 0x000b1b10
0x00012820 0x000e1400
0x00012824 0x000e1710
0x00012828 0x000d1700
0x0001282c 0x0208140f
0x00012830 0x000e1600
0x00012834 0x02092211
0x00012838 0x000f1705
0x0001283c 0x00092e12
0x00012840 0x00121806
0x00012844 0x00110516
0x00012848 0x000e1400
0x0001284c 0x05092116
0x00012850 0x000f1200
0x00012854 0x06090f18
0x00012858 0x04131009
0x0001285c 0x07021e12
0x00012860 0x031b0911
0x00012864 0x00122a0e
0x00012868 0x051a000b
0x0001286c 0x0007140d
0x00012870 0x061c020d
0x00012874 0x00052714
0x00012878 0x061e000e
0x0001287c 0x000c1413
0x00012880 0x061f0213
0x00012884 0x000a160b
0x00012888 0x07200014
0x0001288c 0x000d2d0a
0x00012890 0x04200010
0x00012894 0x000f0c0f
0x00012898 0x041d000b
0x0001289c 0x000f1e10
0x000128a0 0x021b0003
0x000128a4 0x08132417
0x000128a8 0x001c150a
0x000128ac 0x1010021f
0x000128b0 0x001b210e
0x000128b4 0x0a181b1a
0x000128b8 0x00112205
0x000128bc 0x000d240f
0x000128c0 0x00102402
0x000128c4 0x00080f11
0x000128c8 0x00122604
0x000128cc 0x030b1815
0x000128d0 0x00122304
0x000128d4 0x00111113
0x000128d8 0x00112203
0x000128dc 0x0010030d
0x000128e0 0x00102307
0x000128e4 0x000b1c07
0x000128e8 0x00102007
0x000128ec 0x000a2508
0x000128f0 0x00122006
0x000128f4 0x000b0e0e
0x000128f8 0x02131b0b
0x000128fc 0x000c2811
0x00010900 0x0a00000a
0x00010904 0x00170f00
0x00010908 0x0e00010b
0x0001090c 0x00191100
0x00010910 0x0b000010
0x00010914 0x000e0c00
0x00010918 0x10000014
0x0001091c 0x00151100
0x00010920 0x0e00000f
0x00010924 0x00150f00
0x00010928 0x0f00000b
0x0001092c 0x001a1000
0x00010930 0x11000003
0x00010934 0x001d1300
0x00010938 0x0800001c
0x0001093c 0x00001101
0x00010940 0x1200011d
0x00010944 0x000a0f00
0x00010948 0x15000010
0x0001094c 0x000e1100
0x00010950 0x19000000
0x00010954 0x00291300
0x00010958 0x08000002
0x0001095c 0x00241a01
0x00010960 0x00000312
0x00010964 0x00181207
0x00010968 0x05000d0a
0x0001096c 0x00121505
0x00010970 0x0b000006
0x00010974 0x00030407
0x00010978 0x12000007
0x0001097c 0x0020160a
0x00010980 0x0100000f
0x00010984 0x0012080d
0x00010988 0x0100071d
0x0001098c 0x00171b0e
0x00010990 0x00000a0f
0x00010994 0x000a070b
0x00010998 0x06000512
0x0001099c 0x0016130a
0x000109a0 0x00000527
0x000109a4 0x00000d0b
0x000109a8 0x05000428
0x000109ac 0x000e1507
0x000109b0 0x0900000e
0x000109b4 0x00171100
0x000109b8 0x08000011
0x000109bc 0x000d1000
0x000109c0 0x0b000016
0x000109c4 0x00101500
0x000109c8 0x0a000011
0x000109cc 0x00121600
0x000109d0 0x09000011
0x000109d4 0x00161500
0x000109d8 0x09000009
0x000109dc 0x001d1100
0x000109e0 0x06000008
0x000109e4 0x001c1101
0x000109e8 0x00000017
0x000109ec 0x000f1303
0x000109f0 0x06000011
0x000109f4 0x00131402
0x000109f8 0x0000002d
0x000109fc 0x00001204
0x00012900 0x000a0f00
0x00012904 0x02062810
0x00012908 0x000d1403
0x0001290c 0x000b1210
0x00012910 0x000d1305
0x00012914 0x000c2909
0x00012918 0x000f1506
0x0001291c 0x000d0e08
0x00012920 0x000f1705
0x00012924 0x000c1e08
0x00012928 0x000f1502
0x0001292c 0x000b1509
0x00012930 0x000f1702
0x00012934 0x000a100a
0x00012938 0x01101b0b
0x0001293c 0x000d2906
0x00012940 0x0013190a
0x00012944 0x00190304
0x00012948 0x000f1601
0x0001294c 0x00121b01
0x00012950 0x000f0f00
0x00012954 0x000b0007
0x00012958 0x05120e05
0x0001295c 0x05004a10
0x00012960 0x041b060d
0x00012964 0x0209141b
0x00012968 0x041c080e
0x0001296c 0x000f1616
0x00012970 0x041a000c
0x00012974 0x00110806
0x00012978 0x02180211
0x0001297c 0x00052801
0x00012980 0x061a0011
0x00012984 0x00063a09
0x00012988 0x041e0314
0x0001298c 0x00071515
0x00012990 0x06210013
0x00012994 0x00120e13
0x00012998 0x051d0310
0x0001299c 0x000c230a
0x000129a0 0x051d0610
0x000129a4 0x0012200c
0x000129a8 0x001b140d
0x000129ac 0x00130911
0x000129b0 0x00161f07
0x000129b4 0x00101211
0x000129b8 0x00122305
0x000129bc 0x000c220b
0x000129c0 0x00132504
0x000129c4 0x0010080e
0x000129c8 0x00132604
0x000129cc 0x010e0f10
0x000129d0 0x00132408
0x000129d4 0x000c170f
0x000129d8 0x00122108
0x000129dc 0x000a1b0e
0x000129e0 0x00121e06
0x000129e4 0x00071b0f
0x000129e8 0x00141f07
0x000129ec 0x000a1c14
0x000129f0 0x00152007
0x000129f4 0x00100016
0x000129f8 0x03131b0c
0x000129fc 0x000c3811
0x00010a00 0x0d00000a
0x00010a04 0x000c0700
0x00010a08 0x1400000a
0x00010a0c 0x00271500
0x00010a10 0x0600000e
0x00010a14 0x00171200
0x00010a18 0x0b000511
0x00010a1c 0x00191000
0x00010a20 0x0a00000e
0x00010a24 0x00130d00
0x00010a28 0x0b000012
0x00010a2c 0x00191100
0x00010a30 0x0c000002
0x00010a34 0x00281300
0x00010a38 0x00000014
0x00010a3c 0x00161504
0x00010a40 0x04000b17
0x00010a44 0x00160c03
0x00010a48 0x07000112
0x00010a4c 0x00171001
0x00010a50 0x0e000003
0x00010a54 0x001e0a00
0x00010a58 0x0b00000b
0x00010a5c 0x00131902
0x00010a60 0x0b000010
0x00010a64 0x000a1404
0x00010a68 0x0f000000
0x00010a6c 0x00251006
0x00010a70 0x03000505
0x00010a74 0x00281209
0x00010a78 0x00000907
0x00010a7c 0x001c070d
0x00010a80 0x00000225
0x00010a84 0x00040f0f
0x00010a88 0x03000c17
0x00010a8c 0x001d1c0c
0x00010a90 0x00000100
0x00010a94 0x000e0907
0x00010a98 0x06000610
0x00010a9c 0x001b140c
0x00010aa0 0x00000a27
0x00010aa4 0x00000b0d
0x00010aa8 0x09000b2a
0x00010aac 0x00060c08
0x00010ab0 0x11000009
0x00010ab4 0x001b0f00
0x00010ab8 0x0c000012
0x00010abc 0x000e1402
0x00010ac0 0x0e000018
0x00010ac4 0x00080f02
0x00010ac8 0x0f000014
0x00010acc 0x00121300
0x00010ad0 0x0f00000f
0x00010ad4 0x00181700
0x00010ad8 0x0c00000a
0x00010adc 0x00131200
0x00010ae0 0x0c00000f
0x00010ae4 0x00131602
0x00010ae8 0x09000019
0x00010aec 0x00051603
0x00010af0 0x0e00000e
0x00010af4 0x00151002
0x00010af8 0x00000031
0x00010afc 0x00001904
0x00012a00 0x01090e01
0x00012a04 0x00083405
0x00012a08 0x000d1303
0x00012a0c 0x00090b0a
0x00012a10 0x030f1808
0x00012a14 0x0005350d
0x00012a18 0x00141a0a
0x00012a1c 0x000e050d
0x00012a20 0x02121909
0x00012a24 0x000a2007
0x00012a28 0x00121807
0x00012a2c 0x000b1409
0x00012a30 0x00121704
0x00012a34 0x00070c0e
0x00012a38 0x04131d0f
0x00012a3c 0x0002330f
0x00012a40 0x00181b11
0x00012a44 0x00100c0e
0x00012a48 0x03141c0f
0x00012a4c 0x00081708
0x00012a50 0x00140f03
0x00012a54 0x00110e08
0x00012a58 0x03130f03
0x00012a5c 0x00060e0c
0x00012a60 0x021a0b0a
0x00012a64 0x01151010
0x00012a68 0x0218020d
0x00012a6c 0x00050f09
0x00012a70 0x06170012
0x00012a74 0x00005b0b
0x00012a78 0x011a000f
0x00012a7c 0x00080112
0x00012a80 0x071a000c
0x00012a84 0x02094f18
0x00012a88 0x0021030f
0x00012a8c 0x07110026
0x00012a90 0x0a1e0111
0x00012a94 0x0a0c4f16
0x00012a98 0x031f0315
0x00012a9c 0x000a060c
0x00012aa0 0x081e0a1a
0x00012aa4 0x000f3b07
0x00012aa8 0x001c1113
0x00012aac 0x00190005
0x00012ab0 0x00141c08
0x00012ab4 0x000d0d03
0x00012ab8 0x0112270c
0x00012abc 0x00092402
0x00012ac0 0x0015270c
0x00012ac4 0x00130503
0x00012ac8 0x00132608
0x00012acc 0x000e1402
0x00012ad0 0x00142607
0x00012ad4 0x000d0b08
0x00012ad8 0x00142105
0x00012adc 0x000f1209
0x00012ae0 0x00142105
0x00012ae4 0x000e110a
0x00012ae8 0x0016230a
0x00012aec 0x0011120b
0x00012af0 0x00151c07
0x00012af4 0x00130b0a
0x00012af8 0x03121b0c
0x00012afc 0x00073e0d
0x00010b00 0x06000007
0x00010b04 0x00171200
0x00010b08 0x0e00020b
0x00010b0c 0x00120700
0x00010b10 0x0c000011
0x00010b14 0x00141700
0x00010b18 0x0d00000c
0x00010b1c 0x001d1200
0x00010b20 0x0800000c
0x00010b24 0x00151301
0x00010b28 0x08000018
0x00010b2c 0x000b0f02
0x00010b30 0x0e000009
0x00010b34 0x001b1200
0x00010b38 0x06000011
0x00010b3c 0x00141a02
0x00010b40 0x05000013
0x00010b44 0x00131303
0x00010b48 0x0700000e
0x00010b4c 0x00171602
0x00010b50 0x0700000d
0x00010b54 0x00151102
0x00010b58 0x04000012
0x00010b5c 0x00161304
0x00010b60 0x0100000e
0x00010b64 0x00271505
0x00010b68 0x02000b00
0x00010b6c 0x00291103
0x00010b70 0x00000004
0x00010b74 0x00101109
0x00010b78 0x0100060c
0x00010b7c 0x00180d0c
0x00010b80 0x00000c30
0x00010b84 0x00001f0e
0x00010b88 0x13000306
0x00010b8c 0x000e0006
0x00010b90 0x0c000007
0x00010b94 0x002f2507
0x00010b98 0x01000c05
0x00010b9c 0x001f0f0b
0x00010ba0 0x0000051e
0x00010ba4 0x0007130f
0x00010ba8 0x03001425
0x00010bac 0x0008070d
0x00010bb0 0x0b00000e
0x00010bb4 0x00180805
0x00010bb8 0x09000012
0x00010bbc 0x001b1806
0x00010bc0 0x03000014
0x00010bc4 0x00100e06
0x00010bc8 0x0400001c
0x00010bcc 0x000d1205
0x00010bd0 0x08000011
0x00010bd4 0x00181302
0x00010bd8 0x0600000b
0x00010bdc 0x00181502
0x00010be0 0x0500000f
0x00010be4 0x00141204
0x00010be8 0x05000012
0x00010bec 0x00151405
0x00010bf0 0x06000010
0x00010bf4 0x00140e03
0x00010bf8 0x00000037
0x00010bfc 0x00001706
0x00012b00 0x040c1608
0x00012b04 0x00004a0c
0x00012b08 0x00131305
0x00012b0c 0x0015000b
0x00012b10 0x02101c06
0x00012b14 0x00052607
0x00012b18 0x00161c09
0x00012b1c 0x000e060e
0x00012b20 0x03141f0a
0x00012b24 0x0007290a
0x00012b28 0x01161c0a
0x00012b2c 0x00100e0a
0x00012b30 0x00141802
0x00012b34 0x0010090c
0x00012b38 0x02151f07
0x00012b3c 0x03071c10
0x00012b40 0x011a1f0a
0x00012b44 0x01121213
0x00012b48 0x02181f0a
0x00012b4c 0x000a130f
0x00012b50 0x0218180a
0x00012b54 0x000e1b0e
0x00012b58 0x03170f09
0x00012b5c 0x00081810
0x00012b60 0x041a0a0b
0x00012b64 0x0204201a
0x00012b68 0x031a0104
0x00012b6c 0x050a1d1e
0x00012b70 0x03190009
0x00012b74 0x07060d18
0x00012b78 0x011c000b
0x00012b7c 0x05132b16
0x00012b80 0x031d0a16
0x00012b84 0x00121c13
0x00012b88 0x0020000c
0x00012b8c 0x0026000a
0x00012b90 0x0917040b
0x00012b94 0x00005b07
0x00012b98 0x04240012
0x00012b9c 0x00100019
0x00012ba0 0x0a1f0c1d
0x00012ba4 0x0004430c
0x00012ba8 0x0120111c
0x00012bac 0x00180307
0x00012bb0 0x0115160c
0x00012bb4 0x000c1900
0x00012bb8 0x0014250e
0x00012bbc 0x00031007
0x00012bc0 0x02182811
0x00012bc4 0x000c1c0b
0x00012bc8 0x0217270d
0x00012bcc 0x000c120a
0x00012bd0 0x00172509
0x00012bd4 0x000c000e
0x00012bd8 0x02162509
0x00012bdc 0x00091e0e
0x00012be0 0x0117210b
0x00012be4 0x000b0d0e
0x00012be8 0x0117220f
0x00012bec 0x0009160c
0x00012bf0 0x01171c0a
0x00012bf4 0x00101a0b
0x00012bf8 0x03161a0d
0x00012bfc 0x000b1d0f
0x00010c00 0x0c000000
0x00010c04 0x00171300
0x00010c08 0x0a00000e
0x00010c0c 0x001b0f01
0x00010c10 0x08000014
0x00010c14 0x000f1402
0x00010c18 0x0c00000b
0x00010c1c 0x00160e00
0x00010c20 0x0800000d
0x00010c24 0x001a1702
0x00010c28 0x02000017
0x00010c2c 0x00111404
0x00010c30 0x0800000f
0x00010c34 0x00111002
0x00010c38 0x09000011
0x00010c3c 0x000c1302
0x00010c40 0x0b000013
0x00010c44 0x00121502
0x00010c48 0x0900000d
0x00010c4c 0x00161402
0x00010c50 0x0700000e
0x00010c54 0x00171803
0x00010c58 0x05000017
0x00010c5c 0x00041204
0x00010c60 0x0e000013
0x00010c64 0x00081202
0x00010c68 0x13000000
0x00010c6c 0x001d1502
0x00010c70 0x03000007
0x00010c74 0x00231407
0x00010c78 0x00000e11
0x00010c7c 0x001f1d0a
0x00010c80 0x00000510
0x00010c84 0x000b0b0e
0x00010c88 0x0400140e
0x00010c8c 0x001e0709
0x00010c90 0x05000016
0x00010c94 0x000e160a
0x00010c98 0x0a000000
0x00010c9c 0x00211008
0x00010ca0 0x00000013
0x00010ca4 0x0012180e
0x00010ca8 0x00000d1e
0x00010cac 0x00130a0f
0x00010cb0 0x0000011a
0x00010cb4 0x0013110a
0x00010cb8 0x03000015
0x00010cbc 0x000e0f07
0x00010cc0 0x04000013
0x00010cc4 0x00151b06
0x00010cc8 0x0000001c
0x00010ccc 0x00011306
0x00010cd0 0x09000014
0x00010cd4 0x00101203
0x00010cd8 0x0800000d
0x00010cdc 0x00171902
0x00010ce0 0x0600000d
0x00010ce4 0x00141603
0x00010ce8 0x0500000e
0x00010cec 0x00141405
0x00010cf0 0x03000016
0x00010cf4 0x00121606
0x00010cf8 0x0000033a
0x00010cfc 0x00001607
0x00012c00 0x030c1705
0x00012c04 0x02002c0a
0x00012c08 0x00151b0b
0x00012c0c 0x000f260b
0x00012c10 0x02141f0a
0x00012c14 0x0008110a
0x00012c18 0x00161c07
0x00012c1c 0x00100b0c
0x00012c20 0x02142008
0x00012c24 0x00041c0c
0x00012c28 0x0218210d
0x00012c2c 0x000c1a11
0x00012c30 0x00171f08
0x00012c34 0x0010090e
0x00012c38 0x02152008
0x00012c3c 0x000b120a
0x00012c40 0x01182209
0x00012c44 0x000f120c
0x00012c48 0x02181f07
0x00012c4c 0x000b120e
0x00012c50 0x02181c09
0x00012c54 0x000a1710
0x00012c58 0x0319140a
0x00012c5c 0x0012190f
0x00012c60 0x00190b04
0x00012c64 0x0017000d
0x00012c68 0x00160502
0x00012c6c 0x050d0b0c
0x00012c70 0x04160006
0x00012c74 0x0a034913
0x00012c78 0x011d030c
0x00012c7c 0x070c1421
0x00012c80 0x051e061e
0x00012c84 0x00070d15
0x00012c88 0x071e0015
0x00012c8c 0x00135908
0x00012c90 0x061d000c
0x00012c94 0x0007000e
0x00012c98 0x0522000d
0x00012c9c 0x03121912
0x00012ca0 0x091f0717
0x00012ca4 0x0002340c
0x00012ca8 0x04230b1a
0x00012cac 0x00121c0f
0x00012cb0 0x021b1710
0x00012cb4 0x000d1d0d
0x00012cb8 0x00191e0a
0x00012cbc 0x000f0011
0x00012cc0 0x01192a0b
0x00012cc4 0x010b1813
0x00012cc8 0x021b2a0e
0x00012ccc 0x00111011
0x00012cd0 0x00192508
0x00012cd4 0x0013080e
0x00012cd8 0x01172406
0x00012cdc 0x01091110
0x00012ce0 0x02192309
0x00012ce4 0x010d1512
0x00012ce8 0x0219210a
0x00012cec 0x000c1210
0x00012cf0 0x021a230c
0x00012cf4 0x000d1a10
0x00012cf8 0x041a1f10
0x00012cfc 0x00102013
0x00010d00 0x0c000000
0x00010d04 0x001d1100
0x00010d08 0x06000012
0x00010d0c 0x000f0f03
0x00010d10 0x08000013
0x00010d14 0x00161703
0x00010d18 0x0600000d
0x00010d1c 0x00100e02
0x00010d20 0x07000013
0x00010d24 0x00111503
0x00010d28 0x04000015
0x00010d2c 0x00101603
0x00010d30 0x0400000f
0x00010d34 0x00191303
0x00010d38 0x01000011
0x00010d3c 0x00151603
0x00010d40 0x02000011
0x00010d44 0x000e1003
0x00010d48 0x06000011
0x00010d4c 0x00121502
0x00010d50 0x0700000c
0x00010d54 0x00151503
0x00010d58 0x02000014
0x00010d5c 0x00131605
0x00010d60 0x0700060f
0x00010d64 0x00160f05
0x00010d68 0x0a000001
0x00010d6c 0x001b0603
0x00010d70 0x07000018
0x00010d74 0x00081707
0x00010d78 0x0e000008
0x00010d7c 0x00100c08
0x00010d80 0x0f000000
0x00010d84 0x00251507
0x00010d88 0x0200001b
0x00010d8c 0x00000d0f
0x00010d90 0x0d000217
0x00010d94 0x000f0f0d
0x00010d98 0x0c000001
0x00010d9c 0x001c0c09
0x00010da0 0x03000012
0x00010da4 0x001b1a0e
0x00010da8 0x00000a1b
0x00010dac 0x00090d0e
0x00010db0 0x00000021
0x00010db4 0x000d120d
0x00010db8 0x0100001c
0x00010dbc 0x00101507
0x00010dc0 0x04000010
0x00010dc4 0x00101505
0x00010dc8 0x02000014
0x00010dcc 0x000d1705
0x00010dd0 0x05000017
0x00010dd4 0x000a1204
0x00010dd8 0x09000010
0x00010ddc 0x000f1303
0x00010de0 0x0800000e
0x00010de4 0x00161603
0x00010de8 0x0500000e
0x00010dec 0x00171804
0x00010df0 0x01000015
0x00010df4 0x000b1505
0x00010df8 0x0000003a
0x00010dfc 0x00001707
0x00012d00 0x040c1603
0x00012d04 0x0100390b
0x00012d08 0x01151a08
0x00012d0c 0x000c180e
0x00012d10 0x0016210b
0x00012d14 0x00090c10
0x00012d18 0x02171e08
0x00012d1c 0x000e1e0f
0x00012d20 0x01162005
0x00012d24 0x000b0d0f
0x00012d28 0x01172208
0x00012d2c 0x030c1114
0x00012d30 0x01171f08
0x00012d34 0x030a1915
0x00012d38 0x0217220a
0x00012d3c 0x01071f16
0x00012d40 0x0319210a
0x00012d44 0x000d0d14
0x00012d48 0x02192107
0x00012d4c 0x000c1312
0x00012d50 0x01191c07
0x00012d54 0x010b0813
0x00012d58 0x0318180e
0x00012d5c 0x00072611
0x00012d60 0x01180f11
0x00012d64 0x000c110f
0x00012d68 0x01140007
0x00012d6c 0x000a2309
0x00012d70 0x01150307
0x00012d74 0x000c1d0d
0x00012d78 0x0019000a
0x00012d7c 0x02130010
0x00012d80 0x0115040e
0x00012d84 0x00064b07
0x00012d88 0x041a0116
0x00012d8c 0x000b2107
0x00012d90 0x021f0218
0x00012d94 0x00130406
0x00012d98 0x071c000e
0x00012d9c 0x000a2b04
0x00012da0 0x07200314
0x00012da4 0x00041d0c
0x00012da8 0x06240815
0x00012dac 0x00152011
0x00012db0 0x031f1211
0x00012db4 0x000f0e0f
0x00012db8 0x021d1e0c
0x00012dbc 0x00121d15
0x00012dc0 0x011b2508
0x00012dc4 0x040e0016
0x00012dc8 0x031a2a0e
0x00012dcc 0x020b2511
0x00012dd0 0x011a240c
0x00012dd4 0x00120e0f
0x00012dd8 0x01172107
0x00012ddc 0x000d0a0d
0x00012de0 0x02182007
0x00012de4 0x010a170f
0x00012de8 0x021a2308
0x00012dec 0x030b1714
0x00012df0 0x031b260b
