020cfe0c
0012130c
04040a02
00121200
001e0d00
00080200
00230201
00001000
00000c0b
00101900
00100100
00000903
00240000
00092500
00000d07
00000a25
0020ff18
00120000
00000e00
00002c00
08120000
000f000e
0005ec10
0000110d
00021100
000d0600
00060102
00000031
000a1fff
000304ee
00050604
00020000
0016ff0f
000b0d07
020cf002
00000000
0000070f
00000400
00000d00
00000000
00000c14
00000000
00001422
00000000
00000000
00000030
00280711
00050000
00040014
00001520
00000000
00150c00
0000250f
0000070c
001c001b
00000000
0000070c
00000000
00060000
0000170b
06e4f3e0
00000414
0000290c
00090a00
01110412
001b000c
03030006
00000c18
00000917
00001b00
03040000
00000000
01001f32
00120000
00020000
00002013
00080012
00001000
00000003
00000200
00000010
00000034
00060000
000a010f
00000b3c
0000000b
0005060c
00000900
0000002c
00006100
0000000c
00000000
002b081c
00000000
0a000012
000a03fc
00000b1a
000c0002
00000002
00000720
00080600
001a1000
00000d00
00000102
00000000
00000000
00000007
00000000
0000000b
00000000
00000000
00103b00
0000000b
00080205
0221001a
00076500
00001606
00001804
0005051a
00000000
01f5e8fd
00141701
00002500
00000000
00040017
0000001e
02000024
00001100
011dfd15
001b0210
00000f00
00030000
00000717
00110f00
00000002
00000700
04e0fdef
00000000
00000000
00000e00
00000000
00000031
00000000
000a1102
00000000
00000019
07fef412
00000000
000a0b19
00000000
00002d00
00041f00
08000000
00000500
00001202
00001940
0000000a
00000100
0612f014
00000006
00260009
00000002
000b0b00
00000600
01f9f31f
00000000
010b0600
00000000
0000131c
00000000
0211002a
00000000
00000000
00001900
00240011
00000000
00000000
00000700
00280b00
00000100
00071726
00000000
050c000e
00000000
07f5f60a
0000001b
0000000c
00000000
00000512
00002500
0100002d
00001804
0000000a
00180f00
00110000
00002100
04f8f300
00190002
00000004
00002500
00001225
0000180a
00000000
00000000
000d1c17
00010000
02000012
00171d02
00000000
00000b00
00160631
00002700
00010c0b
0000181e
000e0000
00000600
00000000
00170005
00000022
00000013
0000112d
0000290b
00170000
0000002a
00000201
00000000
00000012
00000000
000d0a00
00000000
00002600
00001614
00071d00
00151d05
00000021
00051609
00000400
00000000
00000c00
00000000
04000000
00001a00
00000005
00000000
09060000
00000000
07d70800
00000000
00070400
00000f2d
06000007
001c0000
00000004
0012cf00
00000035
00000000
00031208
00170509
00000f00
0000000e
031d0012
00130013
00080000
00000718
00000244
00000d00
0000040a
00002400
01000406
0000fb07
04000013
00052100
0400001a
00000015
00131103
00001f1b
002d1700
001e0a0c
02db03f7
00000800
00000a00
00091703
00010000
00110000
00000f27
0000090a
00000b0e
00000109
02000b0c
0008f907
01000012
00180029
00000000
00000000
001b0000
00031a00
00000104
00000000
00000029
0000110a
00030000
00000005
000306f9
00001500
02f90314
00001300
00000000
00002f06
000b0000
00000400
00000750
00001200
00001709
0000000d
01f7f414
0000001d
00031209
00000000
00000034
00000100
0a000000
00000011
02062b00
00000000
03000616
00000000
00000000
00000b0c
00fd02fd
00131500
00001a3b
00041100
00002304
00000e0a
0a000016
000d000b
00002e00
00000000
04ea1503
00000b00
00151d00
00000000
0000251b
00001100
01f80cf6
00000000
00000000
00001319
00000c1a
000e130c
00000016
00003900
00080b14
00024000
000cfc0b
00000000
00001d00
00171003
01240207
002f1804
00001a27
000a000b
0000072a
00000000
00001605
00010c08
001a120f
00001b00
02000013
00000000
00002603
00000000
0100000a
0000001d
0000001a
00002100
00030059
00000000
00000000
00001600
00062f14
000e1500
0000242b
00001402
051e0004
00170f00
00000c00
00000b16
00300003
00080900
000a0001
00020000
03efe319
00000000
00000000
00011500
00060003
00001800
01f7e501
000c0d00
08000017
000e2400
00001600
00000500
00000013
00001e17
00000200
00001f00
00000000
00000013
00050000
001d1103
00000000
001f1b0a
00000f0e
00002202
00000000
000f2b00
00001315
00071500
0000000c
00040001
0214152c
00070000
00000209
00001107
00000029
0000090f
00000000
00000500
001e001b
00000000
00122200
00000000
000f0000
00000500
00000102
0000112b
00000016
00000000
00000004
00000000
061b0000
00000000
04000014
000a000f
0000032e
00001002
00000000
00160f00
020e0000
000b0e01
00190016
00000000
00001900
00001f0e
00000000
00060123
00000000
00150013
00000000
00002105
0000121f
00003110
01000000
00000000
0013110c
00001f08
000a0104
00000e00
00241118
00040600
00000010
00000900
00002700
00000000
000e060a
00131007
0404f912
001d1509
00000800
00000000
0002070f
00000000
00000800
00000429
00181208
00000000
00000000
001f0010
00000c2d
0009190f
00001132
00000000
001b1d1e
00000000
00001d05
00000000
00110602
00000000
00002500
00000000
05000014
00000000
00000500
00040a04
02ee0a0f
00000000
00010500
00040220
0000002f
00001503
0a00000b
00170f00
08020d19
00091000
00050801
00100707
0001f500
00040111
000f0200
00111300
010800fb
00110713
02f2ed0a
0013010c
0100001d
0000481c
00050100
00000f32
0003f807
00110002
00020000
0001000d
00000012
00091303
00000005
00052300
000e0902
00161f07
0308fd04
001a000c
000b0f05
000f0e08
00001606
0003201c
03000217
00001b04
00000000
00000f00
0400040d
00050600
00000118
00002501
0000002d
00001d0b
00232003
0000270a
000e0200
00000000
06000000
000e0014
00130000
0007000a
00120234
00000700
001a0513
00002107
10000009
00121704
0600000e
00001500
04f9fdfd
00001400
0000002f
00000000
07e7f502
0013001a
020ef2e5
00000d14
00000015
000e0c00
00000000
00000000
000a000a
00130c00
011b000f
000b0d03
06120809
00002600
00000043
00001101
00000513
00001e07
04040000
000d1617
00001100
00000000
00090000
00241a01
00000000
0000000c
002e0f12
00000000
0015181e
00003607
040403f7
00001000
00001100
0012080d
0100071d
00000000
00000600
00003600
000e0001
000706ea
0000003e
00000d0b
00121000
00000023
020c1c02
00030406
00000015
000c0d00
000e0000
00000000
0a000011
00000c05
051c1400
00000c01
00110000
00131601
00021700
001c1101
00000017
00000b00
00000005
00000420
0000002d
00001204
02000002
000c0700
00000000
00000b25
051f0000
00171200
00000000
00001b05
00000002
00130d00
00030502
0000110e
00060008
00000000
00000014
000b0000
00000003
00000300
00060000
00000000
00070022
00000000
0600000b
00131902
000e1301
00002307
00003507
00251006
00000000
00010002
00000016
00000005
00000225
00006508
00000000
001d1c0c
00000100
000e0907
00000000
001b140c
0000063e
00000b0d
00000608
00001b13
011a1724
00040b0f
0703fade
00004100
00000217
00002a00
0a0beee6
00003507
07151d15
00020805
080b0000
00000000
060fe60a
00050214
06010700
00020d05
00001218
00001a10
00000031
00001904
0004122b
00150000
00000010
00002100
00000f00
00010000
00040506
00001c21
00000000
00151301
0000000a
00001d00
000b0610
00010408
00001e00
00001500
00120304
00000f13
01011709
00030713
0103000b
00050f00
00000700
00000000
00f2f9f9
00040000
002b3c00
00130000
00000004
00000800
00000000
00000000
00000c30
00000000
0000312a
00003824
071615fd
002f2507
00000000
001f0f0b
0000051e
00000200
0000000d
00003600
03fff3f2
00180805
07000000
00000909
00000a00
00000800
00000e45
00043108
0009000d
00001317
05050200
00181502
0000020a
00061b00
00020200
000f0b00
00000600
00000007
00000037
00000000
0c000000
00000000
00020100
00141300
03000746
000f1402
000a0d19
00001c00
0702f7e0
001a1702
01001730
00000c00
00060019
00001500
05e0e918
00011e13
04001a03
00000800
0900000d
00000e00
0317edf1
00090009
00001b29
00041204
000b130a
00002c06
00003f19
0000143d
0208fef9
00231407
00000e11
00000015
00000510
0000280b
00002200
00000016
05000016
00000013
00031a10
00000000
00000013
00000000
00000d1e
00002300
0000011a
0013110a
00000d00
00000000
04000013
000b0007
0000001c
00001100
000f0b10
00000710
0218f3f5
000f0019
05050000
00000d00
00000000
00000300
03000016
00004108
0000033a
00000600
050d1200
001d1100
0100122d
0000020d
00000000
00000000
00020200
00000300
00e0f007
00000500
02f9f700
00020a17
000f0902
0006101b
00001f00
00000402
00031a06
00041300
00090522
00084100
00090107
00000c23
02000014
000e030c
0000000f
00000000
000b0500
000d0005
00000600
00005c00
00000f00
00000000
0802000b
00050100
00000b65
00000000
0000120c
00001100
070b0003
001c0c09
03000012
00000000
00000a1b
00090d0e
00000021
00000f25
0100001c
00002200
00050002
00000000
01000015
000d1705
00000009
00001900
0011fef9
000b1002
0800000e
00001700
03000808
00050000
00fbeee9
00020000
0000003a
00000d00
0c000000
00000000
02f4f7d8
00000000
00000408
0000141d
00fef7d6
00151703
0003121e
00000000
00000100
00050309
02000000
00001900
00000600
00040e23
00000004
00001100
00210005
00000300
000f0000
000a1000
05000000
00004800
0000140e
00002024
001a0000
00110003
00000000
00090b0a
00000000
00030000
00000014
00090b00
00260003
00003718
00000022
00002800
00000800
000c0004
00000000
00000000
00000417
0010130f
0000000a
00030d0d
03000023
00000e14
001d1100
00080e14
02000010
00141903
00000013
00000000
000d0600
00001000
00070827
00002800
000d0c08
00031319
02000014
00000000
00000037
00000000
03040001
001f1000
04000016
0001250f
00071d00
00011000
07000018
00030a05
00171b0d
00000000
00000502
00050000
0000000f
000a0800
00000000
00000000
00000005
00080c03
00efefe4
00000715
00000300
00001100
0000061a
000e3400
00070002
00002705
0300010e
00001205
00050400
00002c00
00000000
00000400
00091412
00270f0c
00000412
00000f00
00000000
00000200
0000051c
00091311
000e0509
00000f00
0100000f
00000000
00000326
00051600
00000727
00000206
000f0000
00040b00
08000011
00002400
07000010
00000c00
010c000d
00000700
00ff0601
00060000
00080e00
00000900
0000001a
00000000
00000029
00000d00
0705efec
00201400
00060000
0000000c
00000000
00000200
000c000e
00000107
00000000
00070007
00010000
00000000
000a0000
00000006
00000008
00000014
00080000
00075e00
00000000
00001914
002a0000
00000000
001a0000
0000000a
00100000
0000250a
00000000
00020525
00120000
0000001c
0000001b
00061d00
08000005
001a04fa
00000314
000e000f
00000814
00000d00
0000021a
00050000
00000000
00002105
0012000e
00000000
0000022d
00000000
00000002
000a150a
00000000
00000504
00000000
00000700
0000000c
00010021
00010000
00130a10
00080000
00001800
00010004
00001017
000b010b
000d0b10
00000000
00001804
0205efed
00141200
00000000
00000207
000f0000
00001907
00020800
000e1d04
00000548
00004100
00000100
00000000
0114feff
00000023
00050e00
0003150b
00150000
00000000
00000000
00003000
0003000f
00000909
00012108
0000121f
000f0000
000b0b00
0009001f
00053100
00000f00
00000000
0000000b
000e0013
00000612
00023612
00000000
000d1210
01000310
0013010d
00000000
0010120e
000b0000
00051000
0011002d
00000000
00000261
00001211
00000d02
00050000
00000017
00000000
0000041f
00000106
02230efb
00000d10
00001c00
000a1002
00000000
00000718
0021101f
00021200
0000011c
00000000
00000032
00000900
03120000
00151200
00000008
0000250e
04000000
001b1200
00001504
00120001
00060010
00000000
000d0019
00003600
00000900
00000010
020d0800
00000000
00010022
00010021
00001318
000c0000
0000001c
00061c00
00000001
00140f05
0000000e
00211307
02190e00
00250000
00000100
00091025
0200010e
00001b1f
00000018
00000000
00120500
00000000
00080000
000e1314
00150000
00132100
00000000
0000000d
0000001e
00061600
0000002a
0000230b
00070000
0000000a
00051c1b
00000000
00000015
00000029
0000000e
00000000
00130001
00096100
00000010
00002415
00140005
0004f00e
00000001
00000916
00000000
00001704
0c000000
00120e00
000a0b0b
00050008
00000000
00161301
00000000
0001021b
00000000
000f0b2e
00000012
000f0012
0000000c
00004100
00000b00
00000000
0004002f
00000028
00081d27
00080a22
00000001
00000014
00000012
000e370e
00180007
00000206
00000000
00000000
00110000
001a120c
00000314
0000022a
00000515
00010505
00000006
00022200
00000017
0018110c
00000000
00003002
00041500
001b120d
00000000
001d100d
00000000
00001212
00000d17
00000000
001c171a
000d0c04
00000300
00110019
00000718
00140700
00000000
00000213
00010400
00100e02
05030000
00000019
00100b15
00080f02
01000031
00001703
00002405
00190f00
00000000
00000103
00000100
00000002
00000000
00100f03
00170000
00003100
00040000
00001616
0b000013
00000f00
00060d06
0000000a
00020100
00063700
00000012
00050b00
00000600
00052e00
00120800
00000a00
000f0500
00000004
002f0800
00241105
000f0107
00100f11
00000012
00002e27
00060d09
00001c23
00000000
001a120b
00000000
00110418
00000000
00004e16
0009061e
00001008
00000011
0018100d
00000025
00051014
00000803
00001104
0000091d
000c4100
00000800
00000901
001e0007
0000000a
00000a00
00000000
0008050b
00090000
00000010
00000004
0000001e
00000000
0000002d
00001100
0014f9ef
00111800
0005001f
00002f19
08000b0e
001d0308
0000172f
00001006
00000000
00002008
00110b00
00162900
00000013
00000c08
000b1100
000e000b
0000011e
0000001f
00000000
000d0b02
00000000
00000018
00020007
0000000a
00001400
00161500
02120000
001f0e00
00000a35
00001a19
00000e00
00000d0d
010f1b1a
000b1009
0300050b
0015130b
00000000
00000a00
00000018
00004f0b
0000000a
00000c00
00000139
00000300
00000029
00010e13
00000000
0000001e
0000001c
00001405
01000800
0000150a
000f081c
00081e04
0014ee01
00000000
00000000
00020025
0000000b
001b1104
00000014
00032500
00000a35
00001006
0a000001
0012111a
00000604
00150e01
00000000
000d0000
00000013
0000000b
000e0021
00000c00
02150005
00022400
000f0800
00000002
090d0018
00001602
00081310
00001706
00031510
00000000
00000000
00001603
001e101a
00000000
00000600
00000019
00000600
0000000c
0000001d
00000000
00000201
00012a00
00020000
00063802
03000015
00000000
00000000
00000b00
00000313
000f0a00
00001000
00001916
00000700
00000000
00000028
0000000e
00000013
00050f0e
0000021b
00000000
00000000
00000000
00170100
00000000
0000010d
00000006
0000001e
00000d20
00000019
00121a00
00000900
000e1802
00000030
00000000
04001400
001b1000
03000017
00001e14
00100007
00000400
000d0109
0000240c
0000002a
00003602
00030004
00000000
00000a10
00041604
00000000
00091507
00041d1b
00000004
00000002
00000716
00000000
00000000
00000003
00000016
00081d00
0000070b
00000019
00000010
001b0000
00050032
00000606
000a1400
00000512
00000100
0000071b
00000002
00000611
00041105
0100000c
0017120a
000f0b09
00000012
00000001
00060000
00000074
00001814
00000006
00000000
00000000
00091003
01fded05
000c001f
00000000
00010512
00000000
00041f05
000a0000
000e0d01
00000400
000a0010
02feeffa
00141300
0000002d
00001502
00000000
00161300
00010000
00001f0a
00000600
00000001
00000000
0001000c
00000800
00000003
00030300
0000000a
00000000
0000000e
00000000
0000000f
00030700
0000160e
00000000
00050003
0000021b
000e1504
00080700
0000280a
03000805
000a1401
000b2300
00121700
00000713
001d1503
00001100
000e0030
00000316
000d5123
00000005
000b130b
00000003
0002011b
00150009
00000100
0000201d
00000000
00000000
00000000
00000737
000c2012
00001523
00000028
00000000
00010000
00080000
00000705
06f8e7ee
00191400
001a0000
000f002e
00000000
00080000
00000000
00002d08
10000013
00000000
0000080e
00001403
00000000
00181300
00001727
00000018
00000002
00000e00
02000700
00000330
000b0000
00070000
0000000d
00000010
0000000d
0007620b
00000000
0000062d
0415fcfe
00000000
00002101
000b0f02
00001000
0003220a
00020200
000d0000
00000004
00000a0e
0006f11e
00130c02
00000500
00000000
000c0000
00001a00
00040000
00000020
00000000
00050d07
00002000
00010000
00000011
00100b11
00030c00
00090000
0000007e
00001110
00000e00
0000100d
001a401e
00000904
12000000
00031f08
00200d26
00030703
08050003
00001800
000b191b
0001330c
00000007
00010000
070f0205
00000000
00000000
00000300
0600003b
00000609
02f8f405
00141300
0000040b
00041223
00000003
000c001e
00020100
00060011
0c010202
0000000e
00150b26
000a2600
00000000
00071e04
00081923
00000705
0000000a
00140f02
00000c00
00151505
001b010a
00001109
00000024
00050000
000c051d
0000271f
00000110
00010000
0000000b
00000005
0000081a
00005111
00000000
00171208
00000800
001d1405
0000010f
000a1f00
00010b12
00090b11
00000000
00081d17
00000726
000f1815
00000015
00000000
0000140d
0021050c
00000000
00000000
00000946
00000000
00000000
00004100
00000002
00121800
00000000
001b050d
00000310
00000004
00000000
00000309
00001b49
00000911
03f9f5ff
00130615
00000006
00080c00
03f40d16
0000180a
0000000c
00082900
0000200c
00002e12
00000800
00100000
00000000
00000000
00000e10
00030000
00000034
00170809
00000914
00000000
000f0012
00040a00
00000011
00003f00
000aeceb
00000000
0612ec01
00050000
00000000
00010020
00000122
0003120b
00190000
00001811
09000003
000b0000
00000000
00020000
00000000
00000000
00000001
00053718
00000020
00010b13
00001500
00000000
0000050b
00000020
00000008
00051500
00000213
0019110f
00000000
00000000
00000000
00100e0e
00000003
00000000
00000000
00050a00
05000b0f
0000050a
00000550
00001414
05fcfbea
0006190d
01000000
000f0000
00001c00
00131700
00002400
00000000
00011807
00000805
00000002
00000000
021cf1f5
00000000
0000001a
0000001a
00001300
00000008
000c000b
00081915
02001100
00090b29
0000080a
00080000
00000c10
00050000
00000000
00002e00
00001300
00090e00
00000013
00023f00
000c0000
00001717
00000804
00180d01
04000f13
00081403
00000000
00000e00
0300000d
0009002d
00000010
00030f11
0000000a
0000070d
00000000
00000032
0200000a
00083a0c
0000001e
0000001b
00001600
0000071e
00040307
000f001c
00000000
00000000
00000005
000e1b00
00000900
000d0b00
00000000
00000e15
0505ee0a
0003010f
00000014
001b0a03
00000b1d
00000010
0200050f
00000000
0000160d
00000307
00000000
00000000
0000002f
00000000
0000060d
001d130b
00000009
00060000
00000d1a
000a4000
0012000e
00000200
00070000
000a0027
00000300
00001d36
03000300
00000000
00000b06
0000001b
00000b74
00000a10
00001402
00001721
03ff0805
00000001
00000000
00000000
00000001
00002212
00000000
00000016
00000013
00000001
0000001b
00000211
0000001e
00010600
0000000d
000e150c
00020e13
00003512
00000004
00003200
00001000
00081921
00000209
0023160d
00000a0b
00000002
00000a0a
00000000
00000004
00001016
0000001a
00001120
0308e8ee
00221203
00001b3a
00000035
00000011
00000400
00000000
00060000
00000023
0000001a
00000006
00000000
07000004
00000009
00030002
0011110b
00000033
00010000
00000003
00013300
02000001
00002300
0000071c
00000000
00000201
00000002
0000000c
00000410
00001635
0000000a
0000001f
00004100
0303fb0e
000e0000
03000000
0000000b
00000917
0000001b
00000007
00000017
01011200
00000000
0000122e
0000030d
00000001
00001701
00000000
0015120e
00000000
0000000a
0000080f
00093100
00000002
00000002
00000000
000e110d
00000000
00000204
00000000
001b130d
00000f4f
00001514
00000202
001c001a
00000000
00301d00
00000900
001f1507
00000000
00000000
0000120c
00130b00
00000e10
00201408
00000203
00120027
00000709
00000700
00000f0c
00030000
00000000
001a002d
00001c17
00020003
0000160e
00000000
00000d08
00000509
00001307
00000000
00000009
000b390f
00000b1d
0016170b
00001e0f
00160000
00000f05
00220e03
00000000
0014003d
00000000
00301d0b
00001f0c
00010f00
00001811
00200029
00000000
0021130c
00001711
00001804
0000160f
00000000
00001008
001a0029
0000000e
0022180a
00001513
0007002d
00001713
001d1309
0000120f
00110028
00000b06
00000000
00001c3d
0000210d
00070c02
0002340d
00070c05
0004220c
00080d06
0004230d
00090f07
0008180c
000a0e07
00072009
000c1608
00000d00
000c1307
000d1502
000b1305
00001008
000d1809
0004280a
000e1209
000c0a06
000d1708
00003900
00101b0a
000b0706
020f1209
000c2400
000f1306
00000609
000e1506
00061c0d
000d1406
00071b0b
000c1306
00061c0b
000d1707
00061a0b
000c1a07
00080e08
000a1808
00002107
001f0a00
00003d0e
0012150d
0013000d
000e1306
000a0708
00080d00
0005200b
000d1308
0004110a
020c130a
00006200
000e0f07
00000007
000b1306
00030b0b
00121200
00014603
000f120a
00000d03
000e1708
00050e0a
020d1008
0009370a
00060d00
04000e00
00091100
010c1c14
000b1102
010e1b12
000d1303
000b1d13
000e1704
000b2515
000f1705
00090713
000e210b
00000f00
000f1504
00000000
000d1d04
00001804
00102007
000b3210
00111e07
00000400
00111d09
00080909
00003b26
00000000
00110d0d
00000000
000a2b06
00000200
000d1a02
000a1b0f
000d1901
000c1b12
000d1d02
01091013
000d2002
00260d1b
000e1e00
00000300
00102b04
00000906
000f1500
00144e03
000f1a0a
00000000
0000310b
00000000
000d1800
00001a00
000d1d06
0007240f
00111807
00150911
000a1100
00000000
000b1a05
00001400
00131c0a
00140e16
000f1e03
00000000
00002709
00084209
00070d00
05062913
000b1301
030b1415
000d1504
000d2510
000f1503
00000f00
000e1704
000c1a09
000e0000
000f2011
000f1d02
0000000d
00211300
00094c11
00121b04
00000000
00003b0f
00061b0e
00132409
000c1513
000e0003
000d0f0d
02120f12
00001500
00520000
0006620e
00170e0d
00000000
000f1b04
00000000
00000f00
000e2106
000c1a01
00000b03
00032a07
00000016
000f2808
00100d0c
0000001e
000f0401
02002c2b
00001500
00171711
00130215
00112108
00000000
000f1b03
000f120c
000e2108
00000604
000f1c09
0012130b
000b1000
00000000
000c1c02
00000000
000f0c00
0014140f
000e1b05
00000d00
00003302
00005700
00080e00
04072712
000b1100
040b1615
000d1703
04052715
00101909
000a1512
010f1709
00015100
00111904
00000000
000f1600
050e0a11
000e2204
00001808
00152108
0612201d
00102300
00000001
00112303
050c0116
000e0a00
00092b0e
01150402
00000700
031a0e12
03081a14
000f000c
001b2910
00121507
00000000
000b1c00
00052a12
00101b0b
00000000
000d1a06
000f0e00
00002c18
00000000
00060800
00000000
00141408
00002100
00120000
061a1c1c
00122002
0000000d
00004518
05064012
0010230a
00000300
000d1d0a
000e1e05
000d1806
00000c00
000f1603
000b0b07
000f1e08
00000000
00111904
00000400
02131c0c
00002500
00090e00
00000f00
000c1000
00380123
000c1300
0300030e
000f1700
08081917
01101d0a
01062f12
0013190b
00120f0f
000f1800
00000000
000f1c00
03000100
00112101
0c11171a
00000604
080f0f17
00050302
00385111
01121701
00000016
002a0000
090d131b
031b0b13
00002e15
0013da1f
0013480d
00170e08
00000000
00001f16
0000000e
00130300
01043916
00161b0d
00000000
000c0300
00000000
02000d0d
00002900
00170013
0012210d
00181e0d
00000000
00060002
006c002c
00002d0c
01000100
00112309
000d150d
000e210a
00000500
00111e0f
000f130a
00121706
00000000
00051f15
00000000
00081a00
0afe1f16
00141e0a
00e81807
000a0d00
02052911
000c1000
000b1c13
000c1200
00000000
000d1400
00000002
000e1b05
07032913
00131c0b
00112712
00111903
00000000
000f1d02
010c1b0f
000f1e03
000d231a
000e1e02
000c180e
00003d05
00000000
0010f817
00680000
03160c05
0406350f
00090000
01000005
071d0e1b
00063a10
0027000c
00000000
000b0b09
00000000
00000514
000d0000
00140c0a
00110100
00001200
00000000
00220003
00000000
031b1017
0010230b
00191a11
00000000
00121f02
00000000
000e2500
00000800
00122100
06000506
00122505
00000000
0014210e
040e2d18
00151f0e
00000700
00121b04
00110210
000f1f04
00003b00
00141b0a
00121213
000a0d00
02052b11
000c1000
010b1a14
000c1200
02000400
000d0f00
00000008
000e1800
00000000
00141d08
04ec2c0a
00131d08
00101614
000f1a05
000b180d
000f1a04
000a1e10
00101c02
000b1215
00101e08
00000000
00011012
00037900
00180000
00000000
00130000
070d1e13
0613f2f4
00000517
00280000
000d2913
0107ef09
00000000
001b0000
00000003
00480000
00000000
0218000b
00000000
00310019
000b180f
041a0a18
000c3809
001a1a12
00000000
00142202
00000000
000b1600
04001f00
00122700
03ea1e09
00122200
0a000010
00122706
0e083c1a
0015001f
0415001a
00131f04
010e1b13
00112307
00001000
01141b0c
00122612
000a0e00
03052911
000c1000
010c1a13
000c1100
00000e00
000d1000
00000500
000e1400
00000015
00101c01
0d0a2319
00081700
040b1814
000e1805
00004c00
00101903
00000000
000d2b0c
030d0a13
000e1200
00000000
0512150c
00000f00
00270022
00160013
00001d0c
00000000
00160012
000c120e
061f010e
0009240f
00150600
00001100
0622000e
00130f13
0420000e
020e1a14
00000500
030e1f16
00010000
00000000
051c1012
05f00d12
001b001e
000c2007
00132404
02140c11
000e2700
00004300
00102805
00000826
00111f00
00321d28
00102501
0000010e
00152508
07131a17
00112103
00000800
00112205
000a130d
01131d0c
000d3310
000a0e00
03052811
000c1101
000c1912
000c1001
000b200f
000d1302
00000b00
000e1400
000e1710
00000b05
00000008
00080d00
02092211
000f1705
00092e12
00121806
00110516
00001615
00000004
000f1200
00000000
02002500
07021e12
021e0000
00122a0e
051a000b
00000004
061c020d
00000615
00220000
000c1413
000f05fa
000a160b
00100000
00007b02
002b0011
00000002
0014000a
00000000
021b0003
00001005
001c150a
0bdef300
00001200
0a181b1a
00112205
00000000
00102402
00001101
00122604
030b1815
00122304
00111113
00112203
0010030d
00001c09
00004e00
00102007
00003e00
00122006
00000700
0010210a
000c2811
000a0f00
02062810
000d1403
000b1210
000d1305
000c2909
000f1506
00001300
000f1705
00004b04
000f1502
00000000
000f1702
00000000
00002a2e
00053600
0013190a
00000400
00003314
00000000
000f0f00
0000000a
00001f00
03007f00
041b060d
00000013
041c080e
000f1616
002e001c
00110806
00001417
00001900
00250000
00063a09
041e0314
00000000
00120000
00120e13
040f120a
00000e00
00140004
0012200c
001b140d
00000000
00001a00
00101211
00001905
000c220b
00132504
0010080e
00132604
010e0f10
00132408
000c170f
00122108
00005315
00121e06
00000f00
00141f07
000a1c14
00152007
00100016
00122509
000c3811
00081302
00083405
000d1303
00001100
000c1b00
0005350d
00141a0a
00000000
000e1d1f
00074e00
00121807
00001000
00121704
00000000
04131d0f
0002330f
00181b11
00100c0e
03141c0f
00000100
00140f03
00000400
02000b05
00000e00
000a0001
01151010
0218020d
00050f09
00160500
00000000
004d0000
00000600
071a000c
00183705
0021030f
0000000f
00041f00
031e2701
031f0315
00000700
000e1d00
00007100
001c1113
00000000
00112305
000d0d03
00003707
00003d00
0015270c
00130503
00061c0a
00005100
00111500
00000200
000e0e09
000f1209
00142105
000e110a
0016230a
0011120b
00151c07
00130b0a
00002d05
00004e00
040c1608
00000700
00131305
00000c00
02101c06
00001700
0014000b
000e060e
03141f0a
0007290a
01161c0a
00001500
00141802
00000100
0200241c
03001904
001b0000
01121213
02181f0a
00001605
001b0900
000e1b0e
03170f09
00002a08
00150000
0000000c
002c0000
00000000
03190009
00000d00
00170000
05132b16
031d0a16
00000000
00000023
0026000a
0000331e
00000000
00250001
00100019
05001e4e
0004430c
0021001f
00000000
00170a06
00000000
0014250e
00000d00
002d0000
000c1c0b
0217270d
0000030b
00172509
000c000e
02162509
00091e0e
0117210b
000b0d0e
0117220f
00003b0b
01171c0a
00101a0b
03161a0d
00001c00
030c1705
02002c0a
00151b0b
000f260b
02141f0a
00000000
00161c07
00100b0c
02142008
00001700
00240000
000c1a11
00171f08
0010090e
02152008
000b120a
001c1408
000a1216
02181f07
000b120e
02181c09
00001a04
0319140a
0012190f
00190b04
00000701
00090802
050d0b0c
00010500
05007400
011d030c
0000000a
00091b00
00070d15
011b0000
00000000
061d000c
00000000
00070000
03121912
02010617
00000000
002e000d
00121c0f
01e4f407
00000000
00191e0a
000f0011
01192a0b
010b1813
00160900
00111011
00192508
0013080e
0002220d
00000a07
00150700
010d1512
0219210a
000c1210
021a230c
000d1a10
03fe10ff
00102013
040c1603
000a580d
01151a08
000c180e
0016210b
00090c10
00210400
000e1e0f
01162005
00001900
01172208
030c1114
01171f08
030a1915
0217220a
01071f16
0319210a
000d0d14
02070dff
0000081a
01191c07
010b0813
0318180e
00072611
00170003
00000000
00180000
00000400
01000f08
00000004
00000027
02130010
0000101e
00000800
000b0028
000b2107
00530520
00010000
00000600
00077500
07200314
00000000
00240600
00152011
031f1211
00001a09
01150000
00121d15
011b2508
040e0016
03140cf7
020b2511
011a240c
00120e0f
00270701
000d0a0d
000a0e0e
00023405
021a2308
030b1714
031b260b
020d1013
041b2210
00102513
030c1400
0500330d
01151c0a
000c250f
00161b07
000e0411
02162107
04072914
00182307
030e0718
01172106
030f1213
00151e03
003e0010
00151f05
040c0e10
01172208
020d2010
02182209
000d0e0f
00271500
000e130e
00001612
00010900
0016090a
00001306
01140309
00083510
000f0018
00000007
00160000
00000000
00000000
00000000
00081140
00007200
001c001a
00000000
00000e1b
00000000
0010001f
00000003
00021f18
000c2a10
04220013
00151b0d
021d180e
00000200
00261702
030f1313
03182507
07000406
00160a00
040d1617
0219200a
000c1613
02192007
001b0021
002d0503
050d0914
031a2708
070a1e16
041b230e
020e2119
030c1200
0600370c
01161e0b
00091c11
00181b08
000c31e6
00152005
00001102
00060003
04100e12
00152207
000a1e10
001e0000
000b1a0f
00152009
00000000
00000b20
000b1b0a
00161f09
00001702
00231902
000b1011
0217120a
00003d0e
00170706
00000007
0015050a
00000000
000d020c
00101e11
00010902
00000000
0015000d
00053312
011a0017
00000300
021f0017
00112516
06210017
00000300
0117000e
00140a16
000d0625
00091e0f
001c0000
00064114
021f1612
00000000
001b0f1a
01120a13
01172004
040c0e11
00151215
060d1714
02182007
040d1713
02192209
020c1412
00f40807
000b2927
02192807
030e0812
00282705
00102410
040d1400
09003b12
01171b07
060b1019
01181f0a
030d1b17
000b080a
000e0e10
0014050b
00004606
00141c05
00000b05
000f1800
040b2215
00161d07
00000706
03003b1f
00073c10
00171a0a
00000603
001b180c
010b1710
0218130a
00001a03
00180809
00120f0f
000e1510
00000000
0000111e
00006200
00130009
00000700
00000017
00000d00
000d0000
00000307
02220013
0615141b
05220117
01111d14
02080005
00121611
00120105
00000c00
02170031
000d1e0e
00201814
00000000
00021e2d
00103901
00151d08
00000009
000c1000
02003518
02172007
0002051b
02182107
030c1513
00142a0d
010c0e13
00100c00
001e3e04
0417200d
0000291e
030c1300
0900310e
00161d05
050f1314
00151d07
00151d10
00151d0b
000a210b
0214190b
00002a00
00151905
0011020e
00003811
020a160f
00120008
03101311
01131f08
00000900
0018190c
00131112
01151508
00000700
0020040b
0008130f
00160b0e
00004222
0014000c
00000000
00000e1e
00001200
00160011
00000700
011a0010
00000000
01200011
02130119
04200013
040f2317
000e0403
000e1d13
050d000b
000f1b0f
001b050c
00000f00
0218153a
000d2d0d
001e0911
00000000
02005125
00000000
001b160e
00180015
000f3509
00001200
001a0802
000c160e
00152208
000c110e
000f0d09
000c160c
00152106
00001102
02282202
000d1d12
040c1401
04003a0e
00141907
000d0810
01131906
00006500
01141607
00000400
01161c0f
00091e13
0017180d
00140b0b
00021508
00001d00
00141804
00092f0f
00151b05
00000016
00181000
040d1e18
0116130a
000b1311
01160b09
000c1f0e
00150509
0000000b
0015000a
00092a15
0015000c
00000900
0018000d
00111c14
011c0013
020e1916
00110003
000e1c02
00180012
00000000
06200013
000b2910
05220213
00000000
00091700
000e140f
061e0c1b
00002d00
001f0909
00000000
0006110f
00000015
001b1400
08104618
0016170a
00000000
00003511
00005e08
00141909
000b070f
01002e08
0000610d
00161b07
000b0214
03161c0c
000b3016
040b1103
01003808
00110000
000d1a0c
00131604
00000800
00151704
030e1313
01151408
05081b14
0117190c
00000009
002d0000
020a171b
01181d08
00001900
00171a04
02120612
00001b0a
01000e0f
00111200
04092414
02180c08
00001001
00180505
00000007
000b0000
00000008
00070d00
030b2f13
00190010
000f2315
011d0212
000f1517
0024002c
00101613
041e0013
000c220e
021b001d
00000000
00450004
00000003
00001335
0008350c
041e0c19
00001800
001f1218
001d010a
00171107
00170c05
0000130e
00000900
002d0000
020f2414
00161b0a
00000d07
00161707
00112010
00141b09
00001400
00161b09
00131c0d
0215190a
00001500
060c0f03
0300520d
00161608
0000130f
00151907
010d1111
00141508
000c1c0b
00151706
00000a00
00161603
03140010
01161d05
060d260f
00000512
020d0f11
00110c00
0000741b
00161805
00000807
02161303
001b130b
00181207
050e1117
00040600
02412b23
00000200
00000000
0008000c
00001100
001a0110
01102117
001d0210
02110b17
041c0110
010b2813
051f0011
00001103
01140500
000a2617
0117000e
00000000
00000c23
0006260f
031e091a
000a270e
001c000f
00000000
01191410
00000000
01171608
000e0514
00151e0d
020e0913
00010102
010d1510
00151b0b
00000000
00120019
000e0f09
000d2115
00001c00
0216180e
000f1c0e
050d1300
08001000
000c000f
02140015
00121706
0104260f
002d0000
00082c13
0016180c
000a0a15
00220000
00006b31
02151a07
00000025
01161b06
002a0930
01151e07
00001409
001f0000
030d1d12
01171905
0000010b
000d0a00
070e0819
00030800
00000300
000f0400
00000200
0017010c
000d2112
001a0312
00111411
000b0001
00111c0f
0000050b
00000500
041e000e
010e1714
06200212
020f1f13
00450000
00000009
00001118
0004300b
0025000b
00081d14
001e1010
00000000
001a160b
07feec08
00181c0a
010f1713
00110a11
000d1211
02151604
00000903
01171806
00000017
00230700
0a082421
02191c0c
00002100
031a190f
00121b19
030c1402
06002f0d
00151507
000f5613
00121200
00000800
00151904
0c081a1d
00110000
0912131b
00151a07
020f0f11
01151c08
000c2e02
00151c07
00110d0b
00131706
000b1408
02141b08
00004610
00040029
0006f511
00071008
00000100
01150a01
00000014
00170704
02000010
010501f3
070b221a
00190313
000f1d12
00180011
00000d00
021a0010
00000b00
041e0010
000d1715
061f0413
000a1f14
001a0009
00000000
00000b06
00000c00
00260a00
00113813
001e0d10
001c0019
0000351b
060c2b18
00170013
040e0a17
02161906
020b2114
02161803
00001200
00161600
09150115
00151a00
0f0f1b16
00001500
0d0e1517
03181c0d
040f3316
040c1000
05003c0e
00141605
00002b0c
00151802
05110817
00131802
080f1413
00141904
02f40515
001b1000
06072519
011ff20a
01091515
0114170b
00061c11
01141508
00081834
00161b0f
00000c00
00180005
00132b08
000b1507
00000801
00140200
090f1717
00170800
0000001c
01170606
0e062d1b
001a030e
060b231b
021a0010
010c2c17
021c0010
00001200
041f010e
0510111b
02f6fcfa
040b1c16
021d010b
00000002
01190009
04082013
021c0e1a
000a3616
001f0f13
00230219
00151306
0000070a
00090000
060c2117
02171a05
080b0e19
03171d0c
010c1d12
00150008
00111c0c
00021505
00000011
00140e00
0015212b
0010e20b
00090021
040c1100
06003910
00151706
02100e14
00141805
030b1713
01131905
00000500
00131501
0000000b
000e2e00
00000304
000008ed
010c3808
00141304
00000e00
00151507
040b1014
00000108
01082813
0316180d
00000500
00181108
00140011
0000320b
00000a00
00160008
00000009
00000008
00000002
00180005
0b040105
031a010b
0b0c351d
021e010e
08140c1f
041e040d
070f1619
00001100
010e1e11
001a000b
00001100
0000050d
00005b00
001d0a10
00000007
00150200
0e170c2b
0317140a
00004c24
00161605
0000000c
00000a00
04004113
03161b08
0000001b
02111900
000d1c0f
00330d0e
00120a04
00003314
00001500
001a0020
000a2d0b
040d1100
07003511
01161708
020d1b16
01141402
030e1516
01131703
05081516
00110700
050c2217
00111102
00000004
00002f21
00006b00
00180e09
0000000e
00111c0b
02000000
01050008
002908eb
0015140b
000b0610
00140700
00007e0e
01140f0a
00000000
00100200
000c1b09
01160609
00000602
00100000
000f220d
0119060b
00000000
00160500
04161b15
00180007
00000007
00002000
0000350d
00240100
00092a08
02180312
00000000
001c0c15
00260005
00000533
001d1c00
00003a18
00000000
0004000c
00131a00
00002e12
00000000
00000a15
000f0900
00002021
00004c00
00002418
00000000
00111015
00000000
000a081e
000f3200
040d1000
06013110
01141406
010e1313
01131505
000d1e11
01121203
000e1410
00003d0a
00000000
00000000
00131500
00003e17
00001000
00040020
001f0400
00001106
00000000
00003113
00000000
00140b0c
000d1c09
00003b1e
00000016
0010000c
000c0f0b
0315070d
00000200
0016000f
00000700
0519010d
00005e03
001b010b
00000010
02002500
02073615
002d0000
00000000
000d050b
00000700
00060721
0005340c
011b071e
00022513
00121f03
00000000
0213041d
00000000
0014041c
00000000
0012061d
00000000
0012061d
00000000
0012041a
00000000
00130014
00000000
00140315
00000000
0015051a
00022511
0516071e
00095212
020d1103
0101280d
0012130b
000f1906
00081b11
000d1400
00002017
000e1c00
00000023
00000000
00001e00
00000000
00120613
00000000
01150618
00000000
01140211
00000000
0016060f
00000000
0015090e
000e1b0e
0014080f
00000600
000f0212
000c3005
0115020c
00000000
00150d00
000d1813
06190411
00093011
001c010a
00000000
00001323
00000012
000d1000
00092610
00110000
00000000
0017000d
00000000
000e0028
0012140f
001a000c
00000000
0019020d
00000000
000e0300
0610271b
0017000f
00000900
001a000e
00000000
0018000f
040d1f1b
00190011
00131515
0018000f
0015140e
0015000d
00000800
0216071b
000e470d
010b0d04
0000260a
00000b36
00006200
00100714
00000000
00110416
00000000
0012000c
00000100
00120007
00000000
00000300
000f1e11
0015010c
0011200d
0016040f
0011180b
0000000c
0011210c
0014040d
0000000d
0015020d
00062c19
0016040f
00000000
0008000f
0013050d
000b001b
000f1f01
02001e2d
00003e00
000f0003
00000000
00001500
000b1b0c
00000011
00001400
00000000
000a2b01
0015000f
00000000
001c0117
0013361a
001a000d
00120000
00150008
00010005
0000051b
05006600
0019010b
00030008
00000000
0c170c1c
0017030d
00000001
00130700
000f2411
00170015
00000000
00160015
00000000
0317021f
00003c08
000b0900
00000000
00111400
0004300e
0014000d
00002c00
0016000d
000b1d12
00180312
000c1914
0012000d
00141e0f
0014000b
00000001
00002b1d
00063313
00170013
000d1b14
0016000f
00000600
00160007
00000000
00080b0d
00000008
00001400
0a0a1a18
00000e00
00000000
00220006
00000000
041b0a2d
00001000
001b010c
00000000
00002200
00000000
000e0004
00000400
00070b2b
00000600
0018000a
00040000
00000f3e
030b2512
00170000
00006415
0016000d
00000000
00003118
00000000
0000001d
0017000d
00001128
00007e00
000b0000
00000000
0000262b
02073a17
001a000e
0300000b
00180010
030d241a
041a0520
000f4c17
000b0500
00000000
00061000
07004411
0016010d
00000c00
0018000d
00121513
0017000f
000d1810
00170212
00000800
0017000b
00000000
0015000a
00000c00
00160000
00102711
00160313
00001100
00160310
00151d07
0013040c
00000000
00000e25
00000000
00130004
00000f00
0015000b
04023b12
002a0000
00000000
001b000f
00000000
00000e05
00000000
00130006
00000000
00180315
020d2519
00190014
001b050e
00130011
00000000
00180016
00000b00
00180010
00141d0e
00160012
00000000
00170014
00000000
00140013
00000000
0017000d
00000000
0016000a
00000c00
00110000
07122218
0018000a
00000000
051a091e
01006117
000b0000
00000400
020f0100
00000408
00240000
28052041
021a0002
0a0df410
021a0000
14000109
021a0001
1100191b
001a0b00
0f0c08f3
00180002
0df70efd
010406f9
15050b02
00220900
22fd08f8
031a0209
10f8f801
00210005
1600000d
02160003
04000f13
003e0000
09000801
01190000
03000001
01001b00
0600eafc
00280400
17000000
00150000
0000000a
00160000
1008001b
00002600
0508fcf0
00330000
0e0a08fe
011b0002
0000070f
00150900
2e061e4e
021c0004
07f306ec
001b0001
0d00060d
001a0000
07000b0d
011a0000
25001f1c
00150b00
00f5000a
02180000
04030df8
001b0000
03000417
00150800
2b000d0e
051c1012
09f90a02
00000009
00000000
00000000
0000060e
00000000
000a0f06
00000000
01000003
00000000
00000100
00000011
00030007
00000000
00000800
00000000
00220700
00000019
00000000
00000000
00000215
00000000
00060c0c
00000000
00000009
00000001
00000000
00000000
00000300
00000000
00000003
00000000
00000300
0000000b
00000000
00000000
00000000
00000000
00000000
00000000
00000004
00042635
00000000
00000004
00000000
00000000
00000000
00000000
00000006
00000001
00000005
00000000
00000000
00000000
00000000
00050704
00000008
00000000
00000613
0000001d
00000200
000b0000
00000002
00000000
00000700
00000004
00000000
00000000
00000000
00000000
00000000
00080204
00000002
00000003
00000000
00000000
0000000b
00000109
00000c03
00000003
00000000
0000000e
00000000
00000e0d
00000000
0000001f
00000000
00000000
00000000
0000000b
0000083b
00000002
00000000
00000000
00000000
00000000
00000000
00000000
00000000
00000006
00000000
00030900
00000000
00000000
00000000
00000002
00000000
00000000
00000000
00000000
00000c03
00000000
00000300
00000000
00040002
00000000
00000000
00000000
00000000
00030000
00001e3d
00000000
00000000
00000000
00000000
00000016
00000003
00000000
00000000
00000018
00000000
00000004
00000004
00000000
00000000
00000000
00030003
00000000
00000000
02050600
00000000
00000100
00000000
00000002
00000000
00000003
00000000
00000019
00000009
00000000
00000000
00000000
00000006
00000000
00000300
00004b57
00000000
00000021
00000000
00000000
00000000
00000000
00000000
00000000
00000001
00000000
00000000
00000000
0000000d
00000000
00001600
00000000
00000000
00000000
00000000
00000000
00000000
00000003
00000000
00000000
00000000
00000005
00000000
00000000
00000000
0000002e
00000000
0000000a
00000000
0000001c
00000000
00080000
00000000
00020000
00000000
0000000a
00000000
00000000
00000000
00000000
00000001
00000003
00000000
00000000
00000000
00000000
00000003
00000000
00000000
00000400
00000000
0000030c
00000000
01000000
00000000
00001c00
0000002d
00000000
00000000
00000000
00000000
00000a17
00000000
00050000
00000000
00010a1b
00000000
00000000
00000000
00000022
00000000
00000006
00000000
00000000
00000700
00000000
00000007
00000000
00000000
00000000
00000001
00000017
00000000
00000013
00000000
00000000
00000000
00000000
00000000
00000000
00000000
00000000
00000000
00000000
00000000
00001c0b
00000000
00000300
00000000
00000003
00000008
0000001f
00000003
00000016
00000300
00000000
0000001d
00000000
00000000
00000000
00000116
00000000
00000106
00000000
00000500
00000000
00000000
00000000
00000000
00080000
00000000
00000000
00000000
00000000
00000000
00000025
00000000
00000000
00000000
00000000
00000000
00000000
00000000
00000000
00000003
00000000
00000000
000c0405
00000000
00000000
00000000
00000000
0000030c
00000000
00000305
0000000a
00000000
00000000
00000100
00000000
00000005
00000000
00000000
00000008
00000000
00000018
00000000
00000000
00000000
00000000
00000000
0000000a
00000000
00000000
00000008
00000000
00000000
00000000
00000007
00000200
00000000
00000000
00000000
00000000
00000000
00000000
00000007
00000000
00000100
00000000
00000b00
00000000
0000000e
00000000
00000000
00000005
00000000
0000000c
00000000
00001148
00000000
00000000
00000004
00040000
00000300
00000000
00000000
00000000
00000000
00000000
00000008
00000000
00000013
0000001f
00000908
00000000
00000000
00000000
00000006
00000000
00000001
00000000
00000500
00000000
00000000
00000e2d
00000000
00000001
00000000
00000000
0000000f
0000002b
00000014
00000000
00000000
00000008
00000000
0000000b
00000004
00000000
00020712
00000000
00000700
00000132
00000000
0000000e
0000101e
00000008
00001107
00000000
00000600
00000000
00000008
00000003
00031102
00000014
0000000c
00000000
0000000c
00000000
00000000
00000000
00000000
0000000a
00000000
00001211
00000000
00000000
00000007
00000000
00000001
00006800
00004309
00010000
0000000f
00000000
00000000
00000000
00000000
00000000
00000000
00000000
00001500
00000000
00000000
0000000b
00000000
00000000
00070204
00000000
00000000
00000006
00000000
00000714
00000018
00000000
00000021
00000000
00000017
0000000c
00000000
00000000
00000003
00000024
00000002
00000000
00000002
0000000c
00000000
00000002
00000000
00000000
00000003
00000000
0000000a
0000000a
00000000
00000000
00000000
00000000
000e1225
00000013
00000b10
00000000
00000000
04071200
00000000
00000000
000b0e00
00000200
00000000
00000000
00000000
0000050e
00000000
00000000
00000000
00000000
00000000
00000000
00000024
00000001
00000002
00000006
00000000
00000000
00000000
00000000
00000011
00000000
00000400
00000000
00000100
0000001f
00000000
00000403
00000004
00080000
00000000
00000000
00002000
00000d41
00000011
00000005
00000000
00000000
00000000
00000000
00000000
00000000
00021a00
00000000
00000000
00000000
00000000
00000000
00000001
00000001
00000000
00000005
00000000
00000000
00000000
00000000
00000000
00000000
00000000
00000000
00000000
00000000
00000000
00000000
00000000
00000000
00000000
00000005
00000000
00000000
00000000
00000000
00000000
00000000
00000000
00000000
00000000
00000000
00000000
00000000
00000005
00000004
00000000
00000000
00000000
00000000
00000000
00000000
00000000
00000005
00000000
00000000
00000000
00000008
00000101
00000000
00000000
00000000
00000000
00000006
00000000
00000006
00000000
00000000
00000000
00000000
00000000
00000000
00000127
00000000
00000008
00000011
00000009
0000001e
00002a13
00000009
00060000
00000008
00000000
00000003
00000000
00000100
00000117
00000001
00000000
00000000
00000004
00000001
00000000
00000301
00000000
00000007
00000000
00000008
00000000
00000010
02000000
00000000
00000000
00000000
00000311
00000000
00000000
00000000
00000000
00000000
00000000
00000000
00000000
00000000
00000000
00000000
00000000
00050000
00000000
00000000
00000000
00000000
00000000
00000000
00000000
00000000
00000000
00000000
00000000
00000000
00000000
00000000
00000e2f
00000000
00000000
00000000
00000000
00000000
00000000
00000000
00000000
00000000
00000000
00000000
00000000
00000000
00000000
00000000
00000000
00000000
00000000
00000012
00000000
00000000
00000800
00000000
0000144a
00000005
00020000
00000000
00000000
00000000
00000000
00000000
00000000
00000000
00000001
00000000
0000032c
00000004
00000000
00000900
00000000
00000000
00000000
00000000
00000000
00000000
00000500
00000000
00000000
00000000
00000000
00000000
00000005
00000006
00000000
00000000
00000003
00020000
00000000
00000000
00000000
00000000
000a0000
00000000
00000000
00000001
00000006
00000000
0000001f
00000000
00000000
00000000
00000000
00000000
00000000
00000000
00000000
00000003
00000000
00000504
00000000
00000007
0000000d
00000008
00000000
00000000
00000000
00000008
00000000
00000000
00010000
00000000
00000000
00000007
00001500
00000000
00000022
00000000
00000000
0000001d
00000000
0000000c
00000000
00000000
00000100
00000000
00000000
00000000
00000000
00000005
00000014
00003709
00000029
00000b1e
00000009
00000000
00000010
00000000
00000007
00000000
00000008
00010820
00000004
00000000
00000000
00000001
00000003
00000000
00000002
00000000
00000000
00070000
00000000
00000703
00000000
00000000
00001600
00000000
00000000
00002b00
00000009
00020000
00000000
00000000
00000000
00000000
00000000
00000018
00000000
00000000
00000000
00000000
00000001
00000032
00000000
00000000
00000000
00000000
00000001
00000000
00000000
00000000
00000000
00000000
00000000
00000000
00000000
00000000
00000000
00000000
00000000
00000500
0000001d
00000000
00000000
00000000
00000000
00000000
00000000
00000000
00000009
00000000
00000000
00000000
00000003
00001e55
00003100
00000000
00000000
00000100
00000001
00000000
00000000
00000000
00000000
00000000
00000200
00000000
00000000
00000000
00000000
00000000
00001c24
00000000
00000000
00000000
00000009
00000000
00000000
00000000
00000000
00000011
00000300
00000000
00000000
00010000
00000000
00000000
00000000
00000018
0000000b
00000000
00000000
00000000
00000000
00000000
00000000
00000000
00000000
00000000
00000013
00000000
00000000
00000000
00000544
00000015
00000211
00000021
00000000
00000000
00000000
00000000
00000300
00000500
00000000
00000100
00000000
0000001e
00000000
00000000
00003800
00000000
00000000
00000606
00000000
00000005
00000006
00000a00
00000004
00000014
00000100
00000000
00000200
00000700
00000d02
00000000
00000000
00040003
00000000
00000f00
00000000
00000000
00000300
00000100
00000600
00000001
00000000
00000400
00000000
00000000
00000000
000f0000
00000300
0000000a
00000000
00000045
00000200
00000000
00000000
00001300
00000b22
00000000
00000002
00000000
00000000
00000007
00000000
00000511
00000300
0000001b
00010400
0000000a
00000506
00000000
00000000
00000000
00000001
00000000
00000019
00000000
00000000
00000000
0000001b
0000020e
00000700
00000000
00000000
0000003d
00000003
00000000
00000000
00000000
00000000
00000103
00000002
00000000
00000000
00000000
00000000
00000000
00000000
00000000
00000200
00000000
00000000
00000000
0000060a
00000000
00030400
00000000
00000000
00000000
00000000
00000408
00000000
00000000
00000007
00000000
00000000
0000001d
00000000
00000000
00010000
00000014
0000000f
00000000
0000041f
0000000a
00000000
00000000
00000000
00001c00
000a030a
00000005
00000500
0000270d
00000000
00000000
00030000
00000809
00000000
00000000
00030204
00000f05
00000402
00000000
00000000
0000000a
00000004
00000000
00000000
00000000
00000000
00000000
00000003
00000000
00000000
00000000
00000000
00000000
00000000
00000000
00000300
00000000
00000000
00000000
00000000
00000000
00000000
00000000
00000000
00000007
00000002
00000000
00000007
0000000b
00000000
00000000
00000000
00000000
00000000
00000000
00000000
00000000
00000000
00000000
00000000
00000000
00000000
00000000
001d0004
00000000
00000000
00000000
00000000
00000000
00000000
00000000
00000000
00000000
00000000
00000000
00000009
00000000
00000000
0000000a
00000000
00000000
00000000
00000000
00000000
00000000
00000000
00000000
00000000
00000002
00000000
00000005
00000000
00000000
00001200
00000000
00001115
00000000
00000004
00000007
00000000
00000000
00040000
00000000
00000000
00000000
00000000
00000000
00000005
00000000
00000109
0000000f
00000937
00000000
0000000e
00000000
00000000
00000000
00000000
00000000
00000000
00000000
00000000
00000008
00000000
00000000
00000000
00000000
00000000
00000000
00000000
00000000
00000000
00000007
00000000
00000000
00000000
00000000
00000000
00000000
00000000
00000000
00000000
00000000
00000000
00000000
00000000
00000000
00000000
00000000
00000000
00000000
00000000
00000000
00000000
00000000
00000000
00000000
00000000
00000000
00000000
00000000
00000000
00000000
00000000
00000000
00000001
00000020
00000000
00010a04
00000000
00000000
00000000
00000000
00000208
00000009
0000000d
00000000
00000003
00000000
00001d00
00000000
00000007
00000000
00000000
0000010b
00000000
00000007
00000000
00000000
00000010
00000000
00000000
00000000
00000000
00000016
00000000
00000000
00000000
00000035
00000000
00001800
00000000
00000000
00000405
00000000
00000003
00000005
00000012
00000000
00000400
00000000
00000000
00000000
00000100
00000000
00000000
00000000
00000000
00000000
00000000
00000000
00000000
00000000
00000000
00000000
00000000
00000000
00001800
00000000
00000100
00000000
00000000
00000000
00000000
00000000
00000000
00000000
00000000
00000000
00000001
00000000
00000000
00000000
00000000
00000000
00000000
00000000
00000000
00000000
00000000
0001061c
00000000
00000000
00003409
00000000
00000d09
00000000
00000000
00000000
00000017
00000000
00000000
00000100
00000000
00000012
00000000
00010000
00000000
00070016
00000000
00000000
00000300
00000000
00000000
00000002
00000002
00000000
00000000
00000000
00000000
00000000
00000000
00000000
00000000
00000005
00000000
00000000
00000400
00000000
00000002
00000000
00000000
00000000
00000007
00000010
00000000
00000000
00000000
0000000d
00000000
00000000
00000000
00000006
0000000a
00000000
00000000
00000000
00000000
00000000
00000000
00000000
00000000
00000000
00000001
00000000
00000000
00000000
00000000
00000000
00000000
00000000
00000000
00000000
00000000
00000d04
00000000
00012727
00000000
00000000
00000000
0000000e
00000000
00090b00
00000000
00000000
00000000
00000000
00121012
00000000
00000000
00000000
00000000
00000000
00000000
00000000
00000000
00000000
00000000
00000000
00000006
00000000
00000000
00000000
0000000a
00000000
00000000
00000107
00000002
00000511
00000000
00000000
00000000
00000004
00000c07
00000013
00000000
00000007
00000000
00000000
00000010
00000000
00000019
00000000
00000000
00000000
00000000
00000000
00000000
00000025
00000000
00000000
00000000
00000000
00000006
00000000
0000000a
00000000
00000000
00000016
00000000
00000017
00000000
00000000
00000000
00000000
00000100
0000001e
00000000
00000000
00000000
00000000
00000000
00000000
00000000
00000e09
00000200
00000000
00000000
00000000
00000000
00000000
00000000
00000000
00000000
00000000
00000000
00000000
00000000
00000000
00000000
00000000
00000000
00000000
00000105
00000000
00000000
00000000
00000000
00000002
00000000
00000000
00000002
00000000
00000000
0000050a
00000000
00000000
00000c00
00000000
00000304
00000000
00000000
00000000
0000001f
00000002
00000000
00000006
00050a26
00000000
00000600
00000000
0000282a
00000000
00000000
00000000
00000034
00000000
00000200
00000000
00000700
00000000
00000002
00000000
00000000
00000019
00000000
00000000
00000000
00000000
00000000
00000000
00001000
00000000
00000000
0000000d
00000000
0000000d
00000000
0000000b
00000005
00020003
00000000
00000000
00000000
00000000
00000001
00000000
00000000
00000000
00000000
00070000
00000000
00000400
00001300
00000000
00000000
00000021
00000001
00000e00
00000000
00000000
00000000
00000000
00000000
00000000
00000000
00000000
0000000a
00040500
00000000
00000000
00000000
00000000
00000000
00000000
00000000
00000000
00000000
00000000
00000000
00000000
00000016
00000000
00000000
00000000
00000000
00000000
00000003
00000000
0000000e
00000000
00000000
00000000
00000000
00060000
00000000
0000090b
00000000
00010000
00000000
00021800
00000000
00000409
00000a00
00000029
00000000
00000000
00000000
00000004
00000000
00000000
00000000
00000000
00000000
00000000
00000000
00000000
00000104
00050000
00000000
00000000
0000000a
00000000
00000000
00000000
00000000
00000000
00000000
00000000
00000000
00000000
00000000
00000014
00000000
00010000
00000006
00000000
00000002
00000000
00000000
00000006
00000000
00031e2d
00000001
00000018
00000000
0000000a
00000000
00000000
00000000
00000000
00000002
00000000
00000000
0000040a
00000000
00000000
00000000
00070005
00000000
00000000
00000000
00000000
00000000
0000000f
00000000
00000000
00000000
00000013
00000000
00000000
00000000
00000023
00000000
00000000
00000001
00000500
00000000
0000001e
00000000
00000000
00000021
000c0000
00000000
00000000
0000021d
00000006
00000009
00020507
00000000
00000006
00000000
00000000
00000000
0008000d
00000013
00000000
00000009
00000000
00000026
00000003
00000000
00000600
00000000
00000007
00000000
00000000
00000001
00000000
00000c00
000c0005
00000000
00000000
00000001
00000000
00000000
00000000
00000000
00000000
00000000
00000101
00000000
00000000
00000000
00000000
00000000
00000000
00000002
00000003
00000007
00000000
00000000
00000000
00000000
00000000
00000000
00000000
00000000
001e0500
00000000
00000000
00000000
00000000
00000000
000a0000
00000000
0000000b
00000002
00090008
00000000
00000000
00000000
00000000
00000000
00000000
00000600
00000000
00000000
00000000
00000d0f
00000000
00000300
00000000
00000006
00000000
00000c00
00000000
00000016
00000000
00000000
00000000
00000300
00000000
00000700
00000000
00000000
00000000
00000000
00000000
00000009
00000000
00001204
00000000
00000015
00000000
00000000
00000000
00000000
00000000
00000000
00000000
00000000
00000000
00000000
00000000
00000000
00000000
00000000
00000000
00000001
00000000
00000000
00000005
00000000
00000000
00000100
00000000
00000000
00000000
00000000
00000000
00000000
0000000c
00000000
00000000
00000000
00000000
00000008
00000000
00000300
00000000
00000000
00000000
00000008
00000000
00000007
00000016
0000000e
00000000
00000000
00000000
00000007
00000000
00000000
00000000
00001200
00000000
00000000
00000000
00000000
00000000
00000000
00000000
00000000
00000000
00000000
00000003
00000000
00060013
00000000
00030000
0000000a
00000000
00000000
00000000
00000000
00000000
00000000
00004420
00000000
00060200
00000000
00000000
00000007
00000000
00000000
00000000
00000000
00000000
00000000
00000000
00000000
00000000
00000000
00000000
00000000
00000007
00000000
000f0007
00000000
00000000
00000000
00000000
00000000
00000000
00000000
00000000
00000000
00070100
00000000
00000e11
00000500
00000900
00000000
00000000
00000100
00000000
00000000
00000000
00000000
00000000
00000000
00000010
00000000
00000000
00000000
00000000
00000000
0000000b
00000000
00000000
00000100
00000000
00000000
00000000
00000000
00000004
00000000
00000000
00000000
00000004
00000000
00000000
00000000
00000000
00000000
00000000
00000000
00000000
00000000
00000000
00000000
00000000
00000500
00000000
00000000
00000000
00000000
0000000a
00000000
00010602
00000005
00000000
00000007
00002500
00000010
00000000
00030009
00000000
00000000
00000000
00000000
00000000
00000000
00000000
00000000
00000000
00000000
00000000
00000000
00001500
00000000
00000200
00000000
00000000
00000000
00000000
00000000
00000000
00000000
00000000
00000000
00000001
00000000
00000000
00000000
00000c1f
00000000
0000000c
00000008
00000000
00000000
00000000
00000000
00000000
00000000
00000000
00040000
00000000
0000083b
00000000
00080000
00000000
00000000
00000000
00000000
00000000
00000000
00000000
00000000
00000311
00080000
00000000
00000000
00000000
00000000
0000000c
00000000
00000000
00000000
00000000
00000000
00000000
00000000
00000000
00080000
00000000
00001d52
00000000
00000000
00000000
00000000
00000000
00000000
00000000
00000000
00000008
00000000
00000000
00000000
00000600
0000260e
00000000
00000000
00000000
00000000
00000000
00000e00
00000000
00000000
00000000
00001b15
00000000
00000000
00000000
00000000
00000000
00000000
00000000
00000000
00000112
00000000
00000000
00000000
00000000
00000000
00000000
00000000
00000000
00000000
00000000
00000000
00002b22
00000000
00092d01
00000000
00060410
00000000
00000000
00000000
00000000
00000000
00000002
00000000
00000000
00000000
00000000
00000000
00000000
00000000
00000000
00000000
00000000
00000000
00000000
00000000
00000000
00000000
00000000
00000000
00000000
00000000
00000000
00000000
00000000
00000000
00000000
00000000
00000000
00000000
0000000f
00000000
00000000
00000000
00000900
00000300
00000818
00030000
0000000e
00000000
00000000
00021100
00000000
00000500
0000021b
00000000
00000008
00000020
0000001c
00000000
0000060c
00000000
0000000e
00001000
00000000
0000001b
00000000
00000000
00000000
0000000d
00000000
00070c00
00000000
00000000
0000000b
00000006
00010001
00000000
00002001
00000100
00000409
00001001
00000000
000f0000
0001270d
00000000
00000002
00000000
00000000
00000000
00000617
00000000
00000000
00000e00
00000000
00000019
00000000
00000200
00000000
00000000
00110000
0000000d
00000000
00000a00
00000000
00000006
0000000f
0000000c
00000000
00110500
00001406
00051813
00000000
00080004
00000000
00000b00
00000000
00000000
00000000
00020000
00000000
00000000
00000000
00002c14
00000019
00000000
00001f0e
00000000
00000000
00000000
00000000
00000000
00000002
00000000
00000000
00000000
00000b00
00000000
00000011
00000000
00000000
00000000
00000300
00010000
00000000
00000000
00000d18
00000b00
00000000
00000000
0000010e
00000005
00000000
0000371d
00000002
00000000
00000600
00000000
00000013
00000000
00000000
00000000
00000000
00000000
00000007
00000000
00020012
000b0004
00000000
00000000
00000000
00000000
00002400
00000000
00001800
0015000f
00030600
00000000
00000500
00074e19
0000000e
00000001
0000000e
00010000
00000500
00000000
00000000
00000000
00030000
00000000
00000038
00000062
00000000
00000002
00000000
00000405
0000062d
00000000
00030018
00000000
00000000
00000600
00000000
00000025
00000010
00000000
0000002d
00000000
00000000
00000000
00000b00
00000000
00000000
0000000e
00000037
00000000
00000200
00000000
00000000
00000000
00000000
00000000
00000000
00000a0e
00000000
00000000
00000049
00000000
00000000
00020000
00000000
0000000d
00000033
00000008
00000000
00000000
00000000
00006400
00000000
00020500
00000029
00000000
0001060f
000e0007
00000000
00001607
00000000
00000500
00000904
00000000
00000000
00000000
00000004
00000000
00000000
00000002
00000000
0000000d
00000000
00000000
00000000
00000005
00000011
000c0000
00000000
00000003
00000001
00000000
00000000
00000000
00000003
00010400
00000000
00000000
00020000
00000000
00000000
00000001
00000000
00072f00
00000000
0000080a
00000000
00000000
00000000
00000000
00000005
00000300
00000004
00000000
00010d00
00000000
00000000
00000000
00000000
00000000
00000000
00000017
00000000
00000000
00000000
00000013
00000000
00000300
00000000
00000000
00000000
00002e00
00000000
00000000
00000000
00000000
00000000
00000001
00000000
00000000
00000000
00000004
00000000
00000000
00000000
00000000
0000005e
00000000
00000000
00000000
00000001
00000b00
00000000
00000000
00000000
00000000
00000000
00000000
00000000
00000000
00000000
00000005
00000000
00000000
00000b21
00000000
00010000
00000000
00000000
00000005
00000000
00000000
00000000
00000000
00000000
00000000
00000000
00000000
00000000
00000000
00000000
00000600
0000001e
00000000
00000000
00000000
00000000
00000000
00000000
00000000
00000001
00082143
00000000
00000000
00000500
00001600
00000000
00000000
00000000
00000000
0000170b
00000000
00000005
00000009
00000022
00000004
00000000
00000002
00000000
00000000
00000000
0000352b
00000000
00000012
00001900
0014040a
00000000
00000000
00000000
00000000
0000000d
0000120e
00000001
00000000
000a1200
00000000
00000000
00000000
00000005
00000100
00000000
00000000
00000000
00000000
00000000
00000000
0000001b
00000000
0000000f
00000900
00000007
00000000
00000000
00000000
00000000
00000000
00000000
00000000
00000012
00000000
00002400
00000000
00000000
00000000
00000b00
0000000a
00320048
0000000a
00000000
00000000
00000008
00040000
00040017
0000000b
00000000
0000000a
00000000
00000008
00000002
0000000c
00020000
00000000
00000000
00000000
00000000
0000001f
00001906
00037f00
00000000
00000005
00000008
00000000
00080000
00000000
00000200
00000000
00000000
00000600
00000000
00000009
00000000
00000000
00000013
00000600
00000000
0000000d
00000000
00000e03
00000000
00000000
00000002
00000000
00031d00
00000000
00020022
00000000
00000000
00000000
00041300
00010002
00000000
00000000
00000000
00000000
00010000
00000000
0000070e
00000407
0000051a
00000c02
00020017
00000018
00000000
00000000
00000000
00000000
00000003
00000000
00000000
00000000
00000500
00000000
00000000
00000308
00000000
00000000
00000000
00000000
00000900
00000000
00000000
00000400
00000000
00000000
00000000
00000000
00000503
00000012
00000000
00000012
00000000
00000004
00000023
00000000
00000000
00000000
00000000
00000000
00000000
00000000
00000000
00000001
00000000
0000001b
00000000
00000000
00000000
00000000
00162a00
00000000
00000000
00000000
00000000
00000006
00000002
00000000
00000004
00000000
00000f00
00000000
00000000
00000106
00001500
00000410
00000000
00000a0b
00000507
00000000
00000100
00000003
00000e1c
00001000
00060602
00000200
00000d05
00000000
00000000
00000101
00000003
00000000
00050000
00000000
00000000
00000000
00000000
00080720
04023102
00000100
00000014
00000007
00000000
0000000b
00000300
000a0009
00000000
00000004
0000030a
00000c00
00000002
00000039
00000d00
00000000
00000004
00000001
00001c00
00000000
00000000
00000000
00000000
00000000
00000000
00000000
00000000
00000000
00000000
00000002
0000001e
00000000
00092104
00040000
00000000
00000000
00000000
00000000
00000000
00000108
00000000
00000000
00000000
00000000
00000000
00000400
00000700
00000012
00000600
00000000
00002013
00080000
00070d02
00000000
00000000
00000016
00000000
00000000
00003800
00010000
00060d0c
00000013
00000000
000a2b00
00000000
00000000
00000000
00002608
001b001b
00000000
00000800
00000000
00000003
00000000
00002900
0000001d
00000000
00000000
00050c00
00000000
00081b00
00000005
00000d06
00000000
00001300
00000000
00000000
00000000
00000000
00000000
00000000
00000000
000a0008
00000000
00030000
00002303
00000000
00000000
00000001
00000000
00000000
00000000
00000000
00000009
00000706
00000003
00000009
0000000f
00000002
000d0000
00000000
00000000
00000000
00040000
00000000
00002413
00000a00
00000000
00000000
00060000
00000012
00000001
00000000
00000000
0000010e
00000000
00000000
00000000
000becf9
00000002
00000000
00000000
00000010
00000000
0000000f
00000900
00000002
00000006
00000000
00000004
00000000
00001a00
00000000
00000025
00000003
00000700
00000000
0000000c
00000010
00000000
00001c18
00000000
00000100
0000001d
00000001
00000000
00000020
00000000
00000450
00000000
000a0000
00000000
00000200
00000000
00000d1f
00000000
00000011
00000000
00000000
00000000
00000004
00000000
0000000b
00000000
00181007
00000000
00000000
00020000
00000f00
00000000
00000010
00000000
00000000
00040000
00000000
00000000
00000000
00000000
00000003
00000000
00000403
0000000d
00000013
00000000
00000000
00000000
00000000
00000000
00000000
00000000
00000000
00000002
00000000
00000000
00000000
00000000
00000000
00000000
00000000
00000000
00000007
00000414
00000000
00000500
00002100
00000000
00001800
00000000
00000000
00000000
00000b09
00000000
00000000
00000000
00000410
00000000
00000000
00000000
00001300
00000000
00000000
00000000
00000800
00001911
0000050c
00000000
00000000
00000000
00000206
00000000
000c0000
00000003
00000218
00000000
00000005
00000000
00000017
00000000
00000000
00000000
00001c00
00000000
01e004f7
00000000
00000009
00000000
00000000
00000005
00002414
00000000
0000000a
00000005
00000000
0000000a
00000000
00000000
00001316
00000000
00000000
00000700
021c0d00
00000000
00000000
00000001
02000011
00000000
00000000
00000501
00000026
00000000
00001800
00000002
00000000
00000000
00000000
00000000
00000000
00000000
00004c2b
00000000
00000800
00000000
00010000
00000000
00000000
00000000
00000000
00000000
00000a06
00000000
00000000
00000000
00001500
00000000
00000000
00000000
05140d0d
00000000
00001200
00000000
00000b00
00000000
0000000f
00000000
00000000
00000000
00000109
00000000
000f0700
00000a07
00000000
00000000
00000000
00002700
00000000
00000000
000c0300
0000000a
00001206
00000000
00000000
00001a0e
00000003
00000005
00070e00
00000010
00000000
00140017
00000000
00000000
00000000
00000012
00000025
00000000
00000000
00000000
0000000a
00000001
00000002
00000000
00000000
00000000
00201300
00000000
00020a00
00000000
00000200
00000000
00000000
00000001
0000000e
00000000
00000000
00000009
00000016
00000000
00102300
00000001
00000000
00000001
00000000
00000001
00000000
00000004
00040a00
00000000
00000013
00000002
00001200
00000000
00000004
00000000
00000200
00000000
00000000
00000000
0001000a
00070007
00000000
00000000
00000700
00000003
00000000
00000000
00000000
00000000
00000000
00000000
00000000
00000000
0000010f
00000032
00030000
00000003
00000000
00000011
00000000
00000000
00000000
00000000
00000a1a
00000001
00000000
00000000
00000000
00000000
00000003
00000000
00133625
00000000
0000000f
00000000
00000000
00000000
00000000
00000001
00000000
00000000
00000018
00000000
00000000
00000000
000e2315
00000000
00000006
00000000
00141a00
00000000
00000000
00000000
00000000
00020000
00000006
00000000
00000500
00000000
000f1201
00000000
00000000
00000000
00090000
00070006
001b0026
00000000
00000800
00000000
00000002
00170000
00000000
00030300
00000000
00000000
00000000
00000710
00000032
00000000
00090000
002a5200
00000b1f
00000b02
00000000
00000a02
00000400
00000004
00001800
00000000
00003d27
00000001
00000800
00000000
00000200
00000000
00000200
00000000
00000000
00000000
00231300
00000000
00000000
00000d18
00000000
00000004
00000000
00000000
00000000
00000000
00000008
00000000
00000015
00000000
0000200b
00030002
0000030b
00000000
00000014
00000c00
00000011
0000003f
00000300
00000000
00000500
00050001
0011070e
00000000
00000100
00000005
00001100
00111e00
00000024
000c0500
00001b03
00080d00
00000000
00000000
00000000
00000000
00000000
00000712
00000000
00000000
00000000
00000000
00000c08
00000003
00000000
00000012
0000005d
00000600
0000005b
00000002
00000a12
00000000
00000e05
00000002
0000002c
00000002
00000000
00000007
00000a08
00000000
00000000
00000209
00000400
00001605
00000000
00000000
00000a00
00000000
00131700
00000000
00000000
0000000f
00000000
00000001
00063a03
00000004
00000200
00000000
0000003d
00030007
00000015
00000000
00000000
00000002
00001f05
00000014
00000d00
00000000
00000000
000b0000
0000150a
00005c00
00000000
00090200
00000000
00000100
00000000
00000000
00000d00
00000000
00000000
00000d00
00030011
00000000
0000290e
0000000e
00000000
00000000
00000300
00000000
00000000
00000000
00000000
00000511
00000000
00000000
00000000
00000003
00020010
00000000
0006001e
00000003
00000000
00000000
00000300
0000030b
00000000
00003812
00000000
0000000f
00000000
00016516
00000000
00020000
00000000
0000000e
00000021
00000000
00000000
00000000
00000000
00000000
0000003b
00000000
00000000
00000000
00000000
0000101f
00000000
00070000
0004000a
0000000c
00000000
00000000
00000000
0004000d
00000000
00000000
00000000
00000000
0000000e
00000000
00000000
00000005
00051900
00000000
00000300
00000000
00000000
00001800
00080031
00000900
0000002b
00000000
00000000
00000003
00000003
00000005
0000000d
00000018
00073509
00000008
00000000
00000000
00000000
00000005
00000000
00000034
00000000
0000000e
00000000
0000070c
00000000
00000000
00000000
00000000
00000000
00000000
00000022
00000000
00000000
00000000
00000000
00000000
00000000
00000008
00000002
00000000
00000012
00000000
00001200
00000000
00000000
00000000
00000000
00000019
00000000
00000000
00000000
00000000
00000000
0000001f
00000000
00000003
00000000
00000000
00000000
00000000
00000000
00003016
00000000
0000001a
00000000
00002b06
00000000
00001732
00000000
00000000
00000000
00000000
00000000
00000000
00000000
00000000
00000000
00000000
00000000
00000000
00000000
00000006
00000000
00000000
00000000
0000081a
00000000
00002105
00000000
0000002c
00000000
00030003
00000000
00020000
00000000
00000005
00000021
00000000
0000001d
00000007
00000d3d
00000000
000a0019
00000000
00000000
00000000
00000000
00000207
00000000
00000000
00000000
00000000
00000000
00003200
00000000
00000001
00000000
00000004
00000009
00000001
00000008
00000000
00070000
00010000
00000000
00000002
00000000
00000000
00000000
000a0003
00000508
00020000
00000000
00000000
00000000
0000001c
00000000
00000000
00021b08
00000009
0000160f
00000000
000d1100
00000000
00000000
00000000
00000000
00000100
00000009
00000324
00000000
00002101
000b0000
00000006
00000000
00000000
00000033
00000007
00000000
00000000
00000000
00000000
00000300
00000000
00000000
00000000
00000000
00000000
00000007
00000000
00000300
00000006
00000d05
00000000
00211000
00002f00
00000000
00061b00
00000000
00090000
00000000
00000020
00000c13
00000000
00000000
00003116
00000000
00000000
00000000
00000009
00000004
00000002
00000000
00072400
00000000
00000d03
00000000
0000000f
00000000
00000006
00000000
00000000
00000400
00000000
0000000c
00001a02
00000000
00000000
00000000
00000c00
00000000
00000001
00000014
00000507
00000100
0000070d
00000026
00000000
00000000
00000000
0000081e
0001000b
00000000
00000008
00000000
00000000
00000000
00000000
00000000
00000007
00000000
00000000
00000000
00000007
00000b2a
00000000
00000000
00000000
00001600
00150000
00000020
00000000
00000000
00110000
00000000
00000201
00000000
00000000
00000200
00000019
00000000
00000000
00000000
00020000
001a0901
00000200
00000000
00070003
00000013
00000b02
00000012
00000000
00000007
00000005
0000081a
00000000
00010000
00000000
00000000
00000000
00000024
00000000
00000200
00000005
00000000
00000000
00000800
00000008
00000100
00012804
00000000
00000209
00000000
00000006
00000000
00000000
00000000
00000000
00000000
00010000
00000000
00000c24
00000000
00000000
00000000
00000006
00000000
00000010
00000c00
00000000
00000000
00000000
00060048
00000000
00000d00
0000000f
00001b00
00010600
00000000
00001e05
00000000
00000400
00000000
00000015
00000003
00000002
01000000
00070000
010d0b02
00000000
00000000
00371b17
00000000
0000040a
00000013
00000005
00000000
00000000
0001001a
00000000
00000200
00000000
00000000
00000000
00000000
00000000
00001100
00000000
00000000
00000000
00000400
0000050f
00000000
00000000
00000004
0000000a
00000000
00000000
00000000
00000002
0000023b
00000000
000c1408
00000014
0009201e
00110008
00000000
00000000
00000000
00000000
00000504
00000000
00000000
00000000
00000035
00000000
000c3a00
00004014
002d0300
00020017
000b0204
00150000
000b0808
00000004
00000004
00000000
00000010
00000000
00000000
00000000
00050000
000e2e24
00030000
00000000
00000008
00000000
00000000
00000000
00000000
00000000
00000000
00000000
00000000
00000000
0007120f
00000000
00000001
00000000
00000500
00000000
00000000
00000000
00002201
00000000
00001700
00000b12
00000000
00000000
00000000
00000008
00000011
00000000
00080000
00000006
001e0000
00000000
00000012
00000022
00000011
00007f09
0000000e
00000000
00000000
00000000
00070018
00000000
00000000
0000000f
00091200
00000003
00000000
00000000
0004000c
000b0001
00000000
00000000
00030000
0002000b
000f0000
00000000
00000000
00000000
00001011
00000000
0009140d
00000000
00001104
00000000
00000000
00001703
00000007
0000002c
00000815
00000000
00003e17
00000000
00000d16
00000000
00000000
00001118
00010419
00000000
00000013
00030000
00000900
00000c0e
00000007
00000000
00080312
00001e1a
00000700
00000000
001a0100
00000000
00000000
00000000
0000081e
00000000
00000016
00000014
00000700
00000000
00004016
00002300
00000032
00000000
00000000
00000000
00000e05
00000307
00001520
00000000
000a0000
0000050f
00000e1e
00000000
00000909
0000690c
00000000
00000024
00020002
00000301
00000317
00000000
00000300
00090002
00000000
00000000
00000000
00000002
00000d0a
00071a00
00000000
00000006
00000000
00000000
00000000
00000000
00000011
00000000
00000d09
00000000
00000000
00001202
00000000
00000000
00000000
00000007
00000008
00000011
00000000
00000100
00000000
00001e04
00001310
0015051b
00000000
00080811
00000000
00000000
00000d0f
00020b0d
00000710
00000000
0000001d
00002f01
00000400
00040800
00000010
00000400
00000000
00001204
00000000
0000001f
00000000
00000014
00000001
0000020f
00031a06
00000000
00000000
00000709
00000000
00000000
00000000
00000607
00000021
00000000
00011200
00000006
01ba06f2
00000000
00001907
00000000
0000000a
000b000c
00000010
00000012
00000100
00000000
00040021
00000002
00000000
00070000
00000000
00000005
00000004
00000000
00000b00
00030004
00000000
00000009
00000000
00000005
00000000
00000000
00000000
0000150c
00001400
00000000
00020000
00000000
00000100
00000005
00000000
00000000
0000080b
00000000
0000000d
0000002e
00000500
00000000
00000000
00001300
00000000
0000001c
00191037
00000000
02000a00
00000001
00000100
0000000a
00000000
00000000
00000000
00000000
00020609
00000000
00000100
00006400
00001400
00000000
00000000
000e0002
0014001b
00000000
00000000
00111f00
000d0000
00000000
00000000
00000000
00000038
00000002
0000000c
00000000
00010500
00000008
00000000
00000007
00001215
00000000
00000011
00000000
00010000
00000000
00000500
00000000
00000000
00000000
00000003
00105b11
00000d00
00000000
00000000
001e0005
00000000
00000000
00010000
00000000
00020000
00000002
00000825
00000000
00080705
00000100
0000000a
00050000
00000306
00000000
00000000
00000b03
00000000
00000018
00000404
00000008
00020000
00000000
00000d00
00000000
00000000
00020700
00000004
0000310d
00000a26
00000000
00000000
00100000
001e0021
00000000
00000000
00000000
00000002
0000001f
00001a00
00000000
00000000
00000c00
00000512
00010000
00000000
00000000
00000018
00000026
00001923
00040500
00000307
00150013
0000000a
00000000
00000b0a
00030000
00120000
00000000
00000000
00001600
00001308
00020000
0000001c
00000000
00000000
00000000
00000000
00000000
00000000
00000000
00000000
00000000
00000028
00000000
00000000
00000000
00000000
00000009
00000000
00000000
00000000
00000500
00000000
00020000
00141923
00000000
00070411
00000000
00030016
00000000
00000000
00000006
00000043
00000400
00001000
00000000
00000000
00000000
00000000
00000000
0000001e
00000000
00000000
00017200
00000000
00000000
00000001
00000000
00000000
00000e17
00140a0f
00000000
00000000
00000606
00000028
00000409
00000000
00000000
00000000
00000000
00000000
00000000
00000000
00000000
0000000c
00000000
00000000
00000000
00000000
00000801
00010000
0006002a
00000000
00000000
00020000
00000013
00000000
00000008
00000003
00000000
00110000
00160006
00000001
00000000
00000000
00000000
00000012
00000000
00000000
00000000
00000000
00000000
00000000
00000000
00040000
00000010
00000000
00001500
00000008
00000000
0210000c
00000000
00160000
00220003
00000000
00001500
00100000
00000000
00060000
00000100
00070000
00000000
00000003
0000130a
00070400
00000000
000e0000
00000000
00010000
00000000
00000000
00001204
00000000
00000512
00100000
00000000
00000007
00000500
0303fbe9
02fbf7f6
00ff0301
00f71c07
ee0d02fe
00fa2308
e709fb0d
0100e2f7
020003ff
06f50003
0205e320
0807cbef
0302fafe
0d0be002
06fbe915
0304c5f9
040a0807
0108a8fc
e4fa00eb
0805f00c
09fdfcff
0608d3f7
020c07fa
03fed0f7
01feff00
0606d408
0afde11f
0612cbfc
0c0607f5
080ec9f8
ec01f4fa
0bf1fe07
020206fc
03072703
00060a04
03031801
010700f8
14f2fdfe
0e03f3ef
07fcd9ef
04f2150d
e9001400
e3f90bfc
0bd8d903
1404e00e
100dc6eb
0b0804ff
000bebfd
050afeeb
0507ed01
ef15e507
0af12607
0801140a
03fdf800
0a10f6e3
100dddf9
f218fbfd
02f10d0f
0bfc0c08
f9fafe1e
0808fff1
031e20f5
f4fb0afa
04f30a0d
0c02fbf0
0509080e
05fa0216
f0000808
f20f0eee
0cef1904
03fe04f4
0003fffd
01fb0f11
0214e706
f102f9da
01fde6f8
ec040003
06ffa9f7
cff1fefa
10c6dd0e
2500f0f7
0108b9e3
0cf303fa
0f08d701
e2f5fe1c
edfdf00e
020800e0
080e05ec
070bcf27
00fd28ea
00f2fef5
0c1c0a19
37fdebf5
d61d15dc
070205fb
f1fae3fd
effdfb07
04f40705
070300f6
0e1efffb
f20206f0
02f9dafe
e1feff0e
d9eaf7f6
0b0af9fd
00271401
10fbe3ed
201bfc0b
1300faf2
101d021f
10ffeffc
f007d6ee
050400e4
09ebf2fe
06fd021f
e10938ee
f3fde1fa
02254515
090bf4cf
0c170af2
02fcff19
d40d21ea
e6f41012
1ac8e818
01f9e60b
000c09e1
00fd08f6
1ef227f0
00050bf7
0102fef6
0200fff7
010801ff
ecf40307
02ed0114
0502feff
01120818
0803f6e3
080a30ef
0607fef4
e70406f4
0804f6f0
ed2715ef
1903c5fc
1212cf0a
e3fdf0e7
0e24ff2c
12fff607
d9183de3
0304dc10
00f20ff4
d818e1ce
0ef5f5f0
08fde9f6
e13225f4
1003bc04
e8e60d1e
d80a0408
ed0af027
1002f608
051408e4
030ef9f4
20d514f9
0305ed08
000beb04
0ffcfdfe
00f9e8f1
0010eb1c
0bdb32f9
0107dfbe
21f2cee1
11f8e818
0d01c109
d9f91ff6
0ad4cb14
fa0807fd
dd3823f4
df00f4de
0304f4fb
04f1d108
e2261c0d
0c0603e2
0a0d1afd
0a0309eb
1500fb04
14050014
d52e04f8
04fbeddb
0fd8fb06
0904e3d4
0510050c
030a04fc
e00326f1
020506fb
09ff0d0c
06ff03ed
0205f00a
0002dcf4
ec1129ec
e809fbe7
08e6ea07
dff30b00
00ec1207
09fdef1b
f4f40908
0f09f5d4
110de400
0cfcef11
da172807
0aeec1eb
09d5e717
e816f510
de1e0a03
030cf7ea
110408ee
ea0af1f2
02f715f2
f108f4fa
e0edf3fc
12f80501
effdf5fe
f6f5ff03
09142715
07f1dd0a
eb2d09e2
1303c903
0ffe0af5
ca02e103
080f00fc
1003f201
f2fec703
1408e4e6
01f7d3ed
0f07d903
1700fb07
06f00825
c51e0cf9
0109fce3
18c9f80e
0f0ef5df
04360300
08f8fef8
0c11d80b
e3fa00f8
01150419
0208fbd2
1bea20fc
08fe0119
dff01c03
01f7fe07
070afbf8
18fceb0d
021114f1
dbf717f3
06d8f10b
f303f6f5
e6171c0c
010507fa
09010d0e
05ff07f9
00f5f70c
0e00fd00
e71118ed
1d13fae0
05f1f701
ebf8fa1b
000ff010
dfee0af8
051e2010
0c0504f4
0006e5fb
06010908
e901ea0b
0304050a
06e20007
011df3e8
06f30eef
050800de
06f0f2f5
0007090c
01fbcbf1
06f5e9e9
0e0c11fb
eff1db16
0304080c
e3ed0609
0212e703
1803fced
042a0623
1ef4f6ef
0001eeec
0e04effc
e40f1402
e0041e05
020acafd
d522eabd
17deecf5
01fc062a
00edd506
03f20104
00f40c04
080a0013
030af002
0f14fecf
0c04efde
0904ec08
0304dff8
02fbe9ec
100e2ff4
010400ff
00f6d4fb
e915f701
07e70f09
070109f8
eaeaf4e5
0900f31d
e82328f0
100c05f2
0bf808f9
05fe0b02
0b02fa25
000408f8
08030c0e
04fe0400
f2040f01
04010502
f208f9f7
0a0700e7
050ffffe
01ffdff8
f507eb03
e6eb0c13
0eccf321
07020300
ef0d2607
0c06fcfe
01f6f3f4
0a06fef8
0efce3ff
070601ea
02f5ecf3
0110ff0c
02fbdbf2
1301ecec
12e4e1f7
1aff001c
0bfacbf9
050efee3
00fcfb03
0503d7eb
f3072dfe
b70bfbee
00232d18
01fbe1ed
0c07f8ee
0e04be08
00d0f4e8
1b0113f8
0ff9fbdc
1001e6f1
0bf2c3ef
f0f70f07
eefdec01
f11504f2
04fe0a09
15fff6fb
0404f312
0f0cf6df
0afb09eb
0503f8fb
e4271de4
ec10f3f7
dcf2effb
1d10f60a
d92d0d03
0205efe3
1609f4fa
eb04f221
0a14e717
ece8e0f7
06faf3e0
0601fc0a
e0fc1fed
010011f9
02f001fe
07fcff00
06010c0f
03fc0701
f1051703
0202fd06
01fa150f
0202ecd8
02f2fa03
01ff0800
c92d10eb
05ed1010
1ac7f006
d614f3f1
00ee00fa
00fafaea
011120fb
09ff06fa
e3050cef
ee06eefc
f202f402
000eeae7
09181cef
d1eff5e0
06cefb08
1cfee41b
cf260600
030800e6
0e03fc02
02f9dd0d
da2d15f7
04f9ebe1
06fbfe12
e605f602
e8061107
e9fd08fc
e20b01ff
ce1022e3
dfe2ed01
02f91219
ce071de7
090707fb
09fa10fa
ed1110ff
05f41a14
02fb0c07
e1fefbf3
030909f0
0b081ff9
040af0ed
09f106eb
0702f919
e7e415f5
0c07f5df
0d0aef04
14fcd30f
0707c8fa
f3fe0600
07131a0b
0520f7cf
000428f4
10f50215
e6220bfa
f2fe13f8
02e80003
0cfeff05
07000e0e
02fd0700
02dbfa0a
010905f9
00091d01
01030eff
f0e00306
0704fb00
e7260df6
010503ff
0401f9f2
ea06f505
0805120d
e3f506fe
0803ff07
08030c11
ed08e90f
030fe9ed
060904f5
010cf3ce
001900ed
050cdd1e
030ee707
e1fe07e5
17dfcbf9
0503ec11
1a09d9e7
0c09fbf6
02f9d1f6
0803f9f6
00e8e0f1
f5020b0c
f0f41104
000cfffa
030b1fff
0ff00512
f3093401
0a0afae0
05fffd06
0d05fbd5
0bf5fb02
04ed192d
d70113f9
e60f0b0f
1de0f61a
0408f4e7
1d0d0df8
05fee6fc
00ede3fe
f1090002
f0feeb00
ec00d8f2
ecf5f2e9
0ff6e300
cf4025ea
0a01e2e4
02edfffc
0502fef9
06010103
0e04f4f7
0708f6fd
13f615f0
21ea1f08
0d0004fd
07010d0c
eb0c0606
06f2fe0e
ef0703f1
04fdfcfe
0106fb10
ef0c1802
000608f4
0fed0200
1106f6ee
f61b07f0
1b0ffddd
01050706
05e90d1a
f0ee1211
07060bf9
05fffff4
030509ec
1116f2fe
031312f0
01121dfa
f5fbf40f
091b000f
e8f4e4f9
03151319
0514f8f3
d21c21f3
010509fd
eb061aef
ed0700f4
00f607f7
0205f8f2
04f800fb
0a01f1ff
eae5fcfe
040af8f4
020401f2
010900f2
0ee81ae4
0503f209
e3e902f8
0502f8f4
f30101f7
0412f8d4
010d1f03
e11cfaf0
080118ff
05010601
d91305f5
05061200
04f307ff
e311f610
01080dfb
090bfaf1
07ee01e3
01091dff
11ff19ef
01fdfefb
ebf200f1
000202fb
e60aec07
03fb14f9
1bf427ff
040409f8
010703f9
0605fef3
030aeffe
e5f6f800
05e40211
0104edfb
00f802f6
0203faf9
07f211fc
0f0503f3
f70c0900
0a09faf2
00030ef6
f4e9f30d
12e62301
0d07f9ed
07e9f1e9
0509d5ef
02ed35e4
01f3dc18
0d07eefe
0401fdfc
090adaf9
03e61519
ece5e710
e726e4fc
0ff62201
0b03effc
1102f2fe
19f8ed3c
18f7c2f6
f808e305
05dae607
0902001a
c51cf907
db13ffcc
140d08ef
07fddf23
07ffbefc
01f5f40e
16c8ff02
0300e3fb
f111f9ea
0609f9e6
010a01f4
ee170cf9
04eb28f5
0a0303ff
040e0d07
0804fdfc
1003fbf3
0307f9fb
1706f204
f00e03f9
17010fff
ea0d0e0e
da1704f4
00f21c1b
e4ef09fc
1613f7eb
031e1504
09f613e7
080efd04
f01802f3
040cedfd
01ebc834
0115f5f5
0c02c1f8
07ff37f2
dfe9b821
03faca20
f30ce6eb
100230f9
08ff0404
eff304ef
060700e7
fa0f01ea
0101c7f4
ecfc150b
d9fc04e6
09e0d918
e709fbff
dd153bec
d70afcc8
02cbdc05
0903df16
bc2b3dd9
060bf809
0ed6ff03
05f2f30a
031911f4
1107dc0c
0508d106
08ff0be6
02ffdaf4
0518e00e
cde037f7
100c04f1
0927d616
02fefcd9
02f81017
0102e7f7
0714e11e
0904caf0
121aed07
1a04f9fb
0406e227
01f8e8f3
001006dc
03f0e41b
eaed1cea
ed06f200
0a0f1dff
09fff2ed
1004f1e9
0e09fff9
eefe09e3
f5110df9
08e425ed
03faff14
e60e1a03
0203f5f5
1de42201
0705f0e0
0d192905
0704fc00
e60726f7
ed070f11
f51339ff
e3e3b601
0ee6ccf8
0901d0f2
d2153ee8
010401e4
0303edef
0404d005
0d11e8f8
e4e40214
0bcbe419
0d07ffeb
f001ffe0
0801dfee
e60320f9
07ff04f4
16d2e218
060ef7f2
ed0115f2
0103f5f3
0ad80f09
02f5fdff
e81b0905
010100fa
e90afff5
e20e23ea
0306fc0f
0601f207
ef1335e5
f2f5f9e9
02051c05
0206de4c
df043efd
0611e0aa
2ce7bddc
10f0d61c
0f0ed4fe
050e01d6
13ddbf07
01ec0214
0823f409
e5f4f8ee
06eee8ee
030ff1d9
1310edf6
0f00f604
e1190bf5
e6fe07f5
0a08fbee
e80bf10a
dc051c0a
040406f4
0311fff8
0300db03
0413ccfd
e9f4f9fa
06eee00a
fa00f0ea
000b25f8
e7ffe7f1
00dbf109
05f70b07
e502f8ff
0807f8fe
00263afc
01fadfeb
020b3502
0200fd18
cb211af8
f1f6c9e8
01f0e7e5
0cfff801
cc3331e7
01ee100f
12cde612
dd24e9e3
080b0904
0602f703
eff008e5
01fff300
03ebf803
040202f4
00fb0aee
0f00fd08
e5040afa
e0fe0e01
07feeff6
180ef70a
ed0af90d
14030f04
160e1df4
0009030a
0705e909
18fff61b
e600e511
e606fbd2
1a17e8ff
d1fd00e0
0f030312
00f1d70c
cc231cee
1b16ecbd
18104cf2
0901ea17
db2a1cf6
ebfc08e8
021b4500
030ff715
030fd2f0
f4f6eef7
030b0efa
14fcf71b
02f7daec
e9f7100a
020a0000
040302f2
0b1a1e10
0bfdf408
e30b1ee7
03fef9ed
060518f1
ee01fd00
ebf801ec
17ed0610
e7f20ee5
f6030af4
12fc1319
050303f1
02f8e2ff
01e50713
e9e9e605
02fdd523
ec240c07
00fbdbee
0c0fffff
05010407
d5180008
050110ed
16e20ffa
0b13ffe0
06fefaf8
f0010b07
e11b16f2
e30411f2
14e7f00b
ef0ff5fc
e7021ff9
040300f6
00050afc
0808edf4
08f524ff
dc0ffce6
0317ef0f
da0cfcc5
03dcf2f7
11f9e640
b9fc1aea
140ce9e1
01121c00
070df2df
21ede6ea
f912f810
05100617
050ee4e4
0d08fd1c
1201e9e4
08ec17f2
1603f409
ce20fefd
e8fa04fe
22be0a12
01f3d6fe
e60607ef
010307fe
0103fcf7
0404fdf4
001df4fc
01f7fdfa
0b00f0f4
d708f802
04eafd10
0705fbfb
0404f6ee
02081800
e60108e6
11ff0403
e9ff0cec
01ec0c01
0cecf908
fa0801f2
14f20f19
240cf2f5
070c0e06
04db091f
efe1f80c
040000e9
00fcee11
0000030a
0a07dbfc
f1fbe30e
02f8e408
e406fdf0
0e09f2f9
070503fc
eef106ea
09080efe
ef0011eb
0d0a01ef
1fea1102
0803fa02
eef50cee
0008fef3
060009fd
0903fa0c
f8f417f7
03edd109
040dfdf7
1402fd0f
0803d800
eaf3fd0a
0418ff0a
e216fdcb
0d13f6fc
050fe9ee
02f7f80c
0bdff20f
f7e314fb
edeec90c
04eaf912
07fdff14
c80839e7
0d0105f9
00130efd
12fe0003
07003cf7
dbee0cf8
110bfe18
07050801
e1ff0de3
0503eeef
06f8f8f6
0001ff05
e0091cef
ed0005ff
18e4fd0b
e010feec
01f8fcf7
e70b080a
e8ff07fe
040000f5
05f506f3
080206ff
e0ff13e6
f10503f3
20ee0517
0100f5e9
05050105
15e70030
ddf713f9
e50910e6
04121c04
0003e705
d7232ef9
00fef0dd
140c25ea
0004ec17
07fac6f7
e2f7fafa
17dcf403
010a00f6
ec22f203
f20ff6f6
0904e100
05fbf70c
e6060cea
1014f1e1
0301f8f6
e7f60707
edff14fe
e5f2bdf8
f2e8e80b
0308ff15
02012a0a
0507ebde
0d0c1000
120cf2f0
03251e02
03ffffe1
0304030c
e7fae602
e0060909
e5ff1cf4
f40f3402
f304ccf2
d0233ef9
edefb6e7
03274109
05fddefa
0206fe02
01e10f05
02080b08
05050802
e40306e6
02fefdf4
0107fffd
0208f203
e40812e0
0004fcf9
1ee5fdf8
000cf5fb
000515ff
08fdf503
ecf80bee
ee0706f0
eaf705ea
0004fb00
ecf70ce0
000306fa
29e81009
1101000b
ea1e30f8
0fed1510
edfae90a
060a0914
f2fb1503
e10ff9e5
00effeee
02ff01f7
03e20201
110400f8
e625ecef
0cfa05ff
1dda12ff
0715ecd9
0109fae9
07ef040b
0c1fe207
01000705
06252619
0005f2f2
0b041eeb
0205020c
f0ff0cfd
03060000
0ce701fc
0e1adeda
0806d1f2
0e03dcff
1312e304
0e0af7eb
07eeea0d
16feef03
07f3f7f8
0300060d
e4fdf707
020ffcfd
03f40409
0402f50e
f006f2fc
0507f5ef
01ff05f4
0605f1ed
f11b0feb
06dd0f11
0bca0512
00f9c02d
010f05e1
0605d7ec
0c17d508
05f2d11c
040fccfe
0904fef6
050acdf1
000102f9
ecfc08f2
04ff0c01
e7f90af0
100df007
0b031bfb
03f8ffd9
0ef9f2f0
ec0a0efe
08f80a0e
05050bff
f21e2ff7
05000604
040f1707
0303f5f8
06fd06fd
f604fc04
0ff70205
f40df60f
e5f029fe
0609e8ec
0319210a
1305ed0a
06112de6
0406ffdb
19172d03
07f8cf15
cb3027ea
ee00f4e3
06e6e7f7
0605fd00
0d01def9
0b03fdfb
02000cf2
f706f1fd
00f900fc
e116ddca
0f00e006
0901ee04
e61838ec
00f90bea
ece0f900
e9f70f2a
c4fd17fe
07000304
00e6f300
0508f6f7
041214ee
f1f811f4
0afee8f5
0105fdf5
ef05f000
02fee71b
f20f1eed
f9f9f326
0820f00f
06fee6c4
0803c515
1af4a320
0b1896f2
cdf208f2
01d7d6e9
1207f5f9
0f09b8e4
03fe03ff
0805eef7
0c09f903
0c03bcf7
f3fffcf4
190ae5f6
0703fefd
04f9c801
05f81af9
22eb1407
04fdfd10
04001508
07fffef9
00172200
00ff04eb
0204eff6
ed02f30f
e3f4f3fb
02ff011b
f5031cff
cb11e4e1
071b1d03
0b07e0ee
02fed6f3
050104ff
e7f50ae8
0c020502
df3500f9
090affe6
0309f9f6
de0bebfc
06f409fd
000102fe
04dbf304
0aecf71c
e42109f3
0317fcd8
0101ddfc
e2f70f0e
ecff0f06
0efbf804
f4da100c
0b00f313
e10b2b00
ef0ffdea
07f508ff
0717eede
01040cf6
0d00f7fd
0cf8f7ef
05090102
ef0e0106
ef12e4c8
0dfafbf7
0af7ec16
de001903
000316f4
efffe9ec
1ee2c8fb
e14d1ee7
10f7f7f5
0711ec04
e90cefde
0414e80f
120ae8fe
0002cef7
f3eddd0b
0d1008fe
0f0302fe
0f08d1f4
0cf20801
030d0f0c
0a0207ec
0801fef4
0304fefa
032434f9
06f806f5
f002e802
020c0a15
e2ff2ef3
00020601
040217f8
0cfefaf6
06fff8f2
1f08fafc
e7191b00
e2fa1c02
02edfdfe
ef09e628
0002cef5
030300f8
00e5f4ec
13f80a24
07f5cef3
0603ff06
10e8f0ef
ee0df315
d3ff1402
dcf3df11
031b1a18
03ff1406
0d0f34e9
05020d09
01fc0919
ed0c040f
f1e9f710
03050312
ec0ef50c
ef02f7e5
080406f8
0008faef
0bf3e6ff
0200011b
e7e20bf9
02f4e51b
0601e9fd
100bfcd7
0efc27ed
f0db1522
e8f21401
0406f104
031c1ffa
020fddc8
0608e00b
24f60e09
de151ee9
01090de7
0de0eb08
0709f90c
e12f20fd
ec08f9d7
0f051af3
100bdd13
e0303003
0feff7d6
180514f3
07f70001
ef0216f3
ea1aff02
ef0f2500
0cfbfa1e
e4f6f40a
f303e7f5
0af70dfd
04fef5f0
0de5fa09
0704040c
00f9d8f6
1006fdfa
0003fff1
0e04f204
0ef4e5e6
02f3f503
0b05f0f8
050ce104
0507df02
010207f1
0108090a
07020500
d5f00fe1
0307fd14
f40300fd
0310f0e8
200f38f3
0c0df2ea
04f3f607
06fe0105
e0f10aef
15ee1528
eae20f08
0508fcf4
0d0004fe
0205faf1
0dff17f5
000403fb
e600fafb
f610cfee
eff61b04
e4e8a90e
0136341a
0006d704
010f37eb
0cceff05
0109100c
ecfcf9fe
e40ff6f3
e6100602
eafd10f0
01031304
edf003e0
000f0e13
01011efb
0404f9e7
1d00fee3
0104f30c
06f7c5fa
ee04ebdb
06ecebe7
09f1ff0c
08f9d2f6
01ff13fe
13eefb15
11fefc26
eb1b3dfa
06f2faec
0d2a4c0c
0702ede7
12ffe0f2
effc0d0a
e8f10900
f4fdf1fe
e20b1704
02fee0f2
f6fe0df2
01ff0602
ebf801f2
00020ef4
01dfeafc
0104ff07
f5242df1
f5faffde
19010af1
0607eb22
0702b6fc
f604f6d9
18f8f6fd
e80ef0de
060c06fd
0210f5f8
d10615de
f3fc0813
e9e518f9
08f9f615
01f10507
0c06f6e7
080104f8
10fff80e
d70a21e7
080702f9
f4021c05
0108d3e1
ed17fa03
0a20e2cc
03354a0e
0305e8f3
0808e809
f01ef401
08bedc1b
0c030eff
e0110613
00fff9fe
0204fcf5
0407f704
02041413
0105f8ee
13faeff6
030005fb
03f0d306
01000a00
e12df5f6
0a03d4ec
0ae502f9
ebfb0e10
df17130c
eefc16ff
000713fa
0708fafe
022f28f7
f602eff5
02cce20a
08ff08fe
c21010f2
1005ee05
ee001e02
f017faee
0b110308
0504f7fc
f7f60002
0503fc02
09f61206
0708f803
04f815f7
0a01e4d1
0bfafbe9
0403ff1b
0afcd1fc
0b01f7eb
0bf0eeec
0f0af6e9
1eefc2df
f109030e
edf6f306
0508f619
d91b09ef
e800020b
0710eb09
d2fcfbf3
0af1f00d
f615f8f6
11fa0bfc
0af3ff18
d60010f7
060602f8
ef0411fc
f80100fe
f6051bee
df15f6c3
1006eef5
0001f3f7
d9262ddd
06cf091a
0ab8030c
10fceee6
04301c1c
070502fd
071613e9
eafc05ed
10edd202
030df003
02f1edea
e5060023
eaeb21f9
0b16e0de
0cf3ed03
0f03ff11
0cfbddee
0103f8fa
02f702fa
fa010afa
20f41b0b
01fa06ef
0005fd08
12ed0e2f
d5ec1101
e804f20c
00f404ff
01f9e4f2
11eefcff
1305f7f0
06ffdcee
0b0805f5
ee0d1af9
eefa0800
00f5fcff
030000ed
00ffdcf4
ea050603
e8fc0ffa
0102f40e
01fcd6f1
e1fdefda
1300fee9
0ff8ed34
01ffc6f2
05090103
03f10fff
100ffbea
0807fa00
0206f9fd
031418e1
eb0308f7
04100615
e1f50a07
0606f80b
01ff0d0e
de080216
e8fcef02
05fe09fb
0108e7df
f401e8f7
0319f7e1
070e1102
f5f8eb00
060c0fec
fa00dbff
e3f11a0c
d913fee9
02e4ecf7
0301e6e4
e51e31e9
0c0805f8
00fedefd
0317e7f3
0402f7fc
ed08e7fb
02fdd6f9
d10df7e9
01dff206
0e10e9f0
e83212ed
0502faef
02fee4ed
ed0904f6
11f70e04
0cfdf80f
01faf901
02f9020e
02dcf409
0402f9ea
0405f0fc
ecff0f09
02fec5fb
de05fef4
f5e6f8f4
1513f1f6
081324eb
0408f2f4
1b07ea06
0001ec0a
e00be714
0101f409
03fc1903
f7ff01e2
0efbf508
03000726
1008c5fb
da0afbe4
0ddfe8ec
0015ef06
07fdb9f3
090bfeeb
050314f7
010cf6fd
dc0c19de
00fef104
0508f710
0507de10
df0024fa
f60de8fa
01141a11
0805eff7
051b10ed
e807f0f8
0bf21a05
0610e5d2
0e071106
0113fb0a
16f6f401
0bf8061d
d709f0f8
1e1404e0
05191c05
dd0d02f7
04040f05
0f0600fe
07090602
010d0ff0
10fce9ed
04010af2
ed1515fc
010bea18
00e71908
01ff00ef
04dbf1ec
11f60618
01fadaf2
030407fc
2cef0104
00030aff
01050d0d
f105ea03
f711050d
de160af9
ede7f9fc
09030003
ec051ff7
02080600
11d70c00
0e21e6c2
0723ec07
0b0be809
0e14dc09
0bed050c
04272421
010407eb
08131900
f208ed06
04dcf802
09fff509
0301e1f3
0001ffde
1001f8f5
0a0802fe
00051af0
0103fcf7
0eed0bfb
1509edff
02fa0efa
07f3fad8
04cbf1f7
04f9d838
c930fef4
03f8d7db
0d0de3f5
05fbd806
050b0cee
0e0fe9f8
0e1722fd
e303f8d2
0ef9ec0a
07fa032a
c4f21ef3
110ed400
091311fd
170dd6c6
04ef04e0
080acd18
06fad2f8
1103f1e6
0fe5f6df
2908e600
0ffee2f1
0b07bce4
0ae503d8
17f30b0c
0ef3dae2
00fefff7
01f8d7fc
00ff0300
eeffeafe
0a070bf0
07f91df7
0c01030d
eb1923fa
01fb0b01
06ddfc00
020308fe
0505e9fa
060613f7
01f80bf4
0312fb12
0b01ddef
090cf5cd
1febe8f4
06fbd52d
ca203cf2
00ffcfe0
151a45ed
07fefd08
19fbf3ea
0700011f
e20008ec
fcfcffd4
04e7d807
080bfd1f
0e03e1ed
0206f6c5
17f4f6f3
05fcf502
0500defe
e8f2ea29
0901f3fc
f2f30314
101dea06
1502e7e8
0413f3f1
1a07f9f1
03162a0f
c0fd0bf2
0113fe17
0706ea08
0b1207f7
0613fe03
05effd02
f2ffdd1a
e20a071b
e60405d0
081800f8
e0fe0f01
d8fb19ec
ecf914f8
04fceb00
effa0ffb
1d0c03e7
e0f2f61d
e60cedfb
e5fa14fc
0106ecf8
e3fdec0e
d4f9f201
18070302
e6fcf8ef
0b08fee5
f60302f6
e4f31e04
11011912
020c0cfc
0e011a05
eb0efeed
10e2fa08
1708f3fb
030806f8
0903d2f6
08f3f5ec
04fe06fb
070efbfb
0d09f21a
d70910ec
ebeef404
00ffeefc
e1fa15eb
f80bfe08
ddfcec03
d2fd0402
f1fef802
f70401f9
f210e0f9
03f22100
0803f0f6
06fae4f3
0302f6ec
08ece8ec
02fefc09
d61721f1
02ffe1f5
0e0206fe
06f7f220
eb0d3001
080807e8
0130421a
1207eef9
02191dfd
000afafd
030006f6
000903e0
08030000
01f3ee19
e10011f4
00e607fc
14c6f20f
120706ef
0709f6fc
1000e318
ef2212f3
ddfa05e9
06f4f808
e304f111
cd2a0e06
e4f7e30d
01e6e801
e6fc0f12
e50934f9
f00c04f9
01ec0e05
07fff701
14f41d01
1107e6de
08ef0d07
070204f5
11022d08
0e10ece8
071f0dfc
01fbeef6
0ff2fc11
ea0a0803
02fffa01
e20f1105
e3ff12fb
de0ef003
e5d9fd07
130af109
db1b2dfa
0505fcf2
16f00001
f10bf0f9
01fc0d02
1100f10e
01f21d01
0cfff5f3
13060102
1103f6fa
ec2e0200
0806e402
05f7daf5
e3fe1d1d
dd0d1700
d510e6e7
0706f7f3
0513decf
01fc19fd
050edef2
e0fa18f6
0d18f3f2
0bf3d10b
020ef0ee
0313e906
00ffe3ed
0cfdf9fc
12ffebe2
12fefaf9
17fdf109
c62e0ef6
1105c601
04e10a1a
0c04fc0a
05e9ff18
1afaeb16
082319e4
05fefb01
0cf8e5fb
0606ff2a
f012fc14
0604fced
14f9fcfd
170be801
01173601
e8f5f0e2
0c0bf200
0102fbfb
f20e0d05
ed06f800
04fb0bf6
f012f7f1
ebfdef09
0f1df5d6
022210fe
e7f50600
05f3eb21
e901f912
e7f00f16
0d020d03
e8f830fe
03030318
fa003107
d8faebe4
07dbf1f1
0df1e015
1108d9f8
0300fa01
f31127e6
e8ea06ee
00e2e30d
07fc0505
0308e9fa
17ff03f7
f4f9f9ea
0c080a03
03fce8ed
0c010ceb
070607fb
0b0cf7e5
04ffd4ff
e3fb0bf4
01f7f708
01ef0134
e1e9100b
01ecba18
0a3c250d
0e09e3df
102624ef
e6fcf120
02fde6fd
f01efc0e
d5e92dfd
1813e6ed
0325101c
12eff0e9
02061bff
0200eaf9
020af314
1000fdd9
08050dfb
0408e611
d30c45dd
1007ddea
191422ee
1802d4f2
210ae9f3
07efe622
050ef1f7
0901fb01
0504d3ed
eefa0e01
ee0e0f10
0402fdfe
f3093003
f6f30804
1cf52112
0813ffd0
072015fa
0601ee13
040df112
e4f6150f
f4deda0f
e702ee09
020cf006
ee08e1dd
0203f6fa
0800d206
0cfec5f3
c10bf9f1
02e2eaf8
0a02f7fe
cd272de4
0700f4eb
03f70909
dd00e812
eb051205
d609e2f6
00d702ff
00f8f511
07060ae7
ec01e7f2
0900d2f4
0104dde8
f108f606
20f8ecfa
06efeeeb
dbf80434
eaee0409
c718e7d2
16e3f50f
09f5e60a
cd282adc
0c04ec01
d6e4e7ee
d0f30832
f6f01dfe
cd10d2cb
08e4f005
00fdf5f8
0707df01
ee07f80e
ec09fd01
ce17e7eb
01e701f8
0501ea03
d92a17f6
e613e8be
040bf1f5
e0f9fc1b
c00a24e7
c40ef8eb
00d8e5f2
0315d208
ca2439e2
02fee4f9
07ceeaf8
f0ff0001
f20502f3
f2f8080a
0bef2206
030c00d5
02f706fe
0001fa0d
cc152be3
38f914f8
04f6f421
190818fb
030b101c
f006f1f9
00ebfe05
0102ff06
e9fdfefc
0efeebe2
04ff1d18
09120ee9
06060408
29030c09
f5f8ecfb
19ff1cf2
01fdf600
0c031a0c
f705ec05
e9fde7fc
03081005
1a0a0300
ed292cf6
ee0413f6
05dfef0b
00020915
d7fb13fa
0904f0fd
0b0b0c18
0307dff3
00051d1b
00070906
e2021304
0b07fafb
f0f60ffd
0301f208
080b0fec
031416dc
0203021f
1510071d
d42324f4
31030fec
05061af5
19081602
010a1b04
effff6f4
01030b0d
151dfdf7
ebf91afb
320a0b0c
e9ff10fb
04f8efe4
03fe1719
f1fbf0ee
03fd100e
050500fb
00fa02fe
1f0b06e6
09fa07f7
11ec1f05
04061c05
061b0108
00080cf6
0c010101
03f7f6ff
090b00ff
05fe0308
112bfcfb
060ef908
101afe0f
061be8ff
0b120a04
0113effb
0901fd0d
0130fbfd
00fa011f
00060bfc
031b10fe
0104f809
04ff021a
013bd407
050c01fd
01f01003
0c090508
0034d21c
0cfbff0d
001ff4fe
00fb0520
05f8fd07
070e0102
071ce2fc
0bfcfc08
01fbf6f3
0e04ff05
06060505
0f1e0901
0701fe0b
05030411
0029e5fd
0500fe09
00fa01e6
12121206
0205e814
090eec17
0018e5fd
040a050a
030aeb09
10ff09ff
021edc01
05fa0f04
0b1df706
0c160910
00ed1dff
1520fc08
0b05e314
09030d04
040ce90d
05070a11
030704e8
141df607
0403f009
12070f0d
0212ee0e
0e100508
0304f406
0a030601
0707f1fc
0d0205f6
050debf7
060c08fc
011af0f0
10080203
000710fb
100106ff
06f6fb11
0f1deff4
022ff903
06fb110f
002ee8f2
011def07
ee52c90a
070cfbfc
00ecf3f1
03080f0e
01002602
1708fafd
0a07e604
071002fa
0dfbf206
14170c0d
0743def8
d3fafc3a
ea54e7f8
030408fc
0704f3ef
0c030401
0112f410
03ff0115
0108e7f8
0c0ef7f4
030e04ff
0c07f8ff
0917f0ee
0d03f8fa
0b07f201
1705082f
0616c113
f4f9f711
0227daf4
021bf5f1
e90b15ea
e6e7160b
01fd10f9
0707eaf3
0d2303fd
03fe110b
0617db09
001afdfc
0d01ff13
e70d1afa
01f017f3
01210d02
11dd04f8
0c1a0106
0203e2fb
050dfcf8
06f30400
06190cf6
040ae9fc
030a06ff
01ff03f3
0afb0803
00fdf4fa
021615ed
01030def
070cfe03
f324d8ff
04fd0404
03fa09fa
0712fbfe
03fc0f09
0206faf8
020be9fa
03f51012
0328ce00
1236e8ee
ead518ea
f1261208
02e503fe
03051204
0204dcff
0611f602
fe3109ff
01fbeefd
03d815dd
0e04f911
08d92d06
2040ebf9
0419de05
041e0008
011be609
fcf90507
0616e8ee
0706fcf5
06f3f9fa
04fa06ef
0810d906
02f90bfe
0605e21a
ee0be0fb
f54a1df8
02c40d16
eebb1ff1
0423ebfc
06ff010d
0a1efaf8
0120dc07
02071108
001c06fc
02fd06fe
03f4e704
03020dfa
09f80002
0609f6f3
f10f00ed
0d12f91d
0708c30f
02080402
0a11f2eb
0410fdf2
ebf924d1
f4130cfb
0afee40f
000f09f9
0300020a
180f0205
0919fb04
0dee060a
0409de09
03f70c03
040ffd0e
03f9fe09
f2f713fd
09070c0c
02f7e10e
0208f1ec
082b1500
04d60318
02fbedf8
0f13f601
04e3e1fa
2a13f00d
0403ea04
1c030c18
091ef409
0e03f9f6
021df0f1
0509e2f5
0c24e403
01050812
0d03ebf4
091cfa07
0500e9e4
031501ec
06ed190d
022216f4
0218cc13
0ffe0717
f62ed70a
f7fe0bf9
0006f7ee
00050523
0a04fbfb
faf4e6f9
f1fc14f3
1511fc12
00f3db02
0a31f013
071ff721
0f0ff4fc
01100bef
eb2b14e9
04e52afb
0afd030a
070fe50e
18031805
0a110ff6
0201fd00
0506e3fb
0316ece7
080301f9
05f90201
02d01a05
0004e3f7
0f14fa05
00fbfaee
0df3e107
0b06ff09
04ff010a
0211f3f5
0516f903
05f1f208
0002dee4
160c0308
0426e10d
06f60b18
061dd407
0519f102
02f007f9
000a09f7
f4edfffe
0e01f40b
0009de06
0809eb12
0415e20e
140cf50c
0807ff0b
01f20223
f61b1cfc
01f407f7
000adc09
0510efff
05ffe4fd
0c09fb10
03fdf5ee
f21013f7
051adaf7
e8ff110e
00e5fff2
e4e2021d
06eff2f2
03f7f412
07f9e6f4
1ffc0909
0be9de35
11ff0a2e
0647f403
02eb0a00
06f7eeee
0024040e
01ece603
030d0d08
00dbff12
ec0ff2eb
01300c0d
e2e300f8
fd12e602
0315e9fe
031d1101
01fffb07
03f508ff
0d180203
040ae204
00070214
ed1efd03
edf807fe
0f12de03
001209fc
051ae0fb
12f9fef9
03f7ea04
0d0bfd09
0507edff
071002f6
03fbeffe
0b000f03
01fd0406
0709fef9
0924ec08
03e90c1b
0319dff9
130b0411
01f1080c
030b060b
030fec08
000c010c
01e90afb
03ff0209
0bfdfaf7
030501f8
02fd00f1
11fe0720
011ae303
07ff022a
0024f6eb
020af8ee
02c90af3
06f70d1f
0b24c210
05f80819
06db2aeb
0d1cfffc
f21cf11a
001b02fb
0303f30b
1105f935
0616f3ea
defaed13
022400e3
06ea12fd
f9b831dc
0903fa23
0806e805
0319f805
fafae607
0525fa0b
06edf8f5
effc0ff3
01e5fcf9
0218fefa
01fc0dfc
0807e7f9
09010006
0206f3fa
0d12b20b
0502ee07
0521f1fa
14fe06f3
07e5f816
06110ffe
001e0b07
001b0804
f2f302fb
0606f4f1
02f3eb02
080d09fd
0306e804
0514fdf8
04fdf1ff
0b0e00f8
09f40408
070cf0f3
03190703
0eec0208
020ce005
0608000b
0809e8f9
020006fb
00030811
f801f9fc
0407f101
090400f7
06ebedfd
01090b03
01f4f711
12060411
00160501
f501010a
dcf945f0
00edfafc
0309b70f
02070900
00fbef07
0eff010a
050be1fc
0ff7040e
09100c0b
010af302
05e210de
0012fc00
0ad4290d
1503fd2d
f306ef02
0816f634
0019a7f9
0308f20c
0421e0f2
060bea11
01e61fdd
131d040e
05e9050d
06120efa
050fe408
000c00fa
0411f4fc
0afffd0d
011adc01
0812e4f1
0029eaf9
03ea0a01
04dd11e8
0214f0fb
0045c521
010606f4
05021d05
17070807
0703e004
0804f5f1
0214ed1d
090d0bfd
00f60df1
09fe0404
03f4f2fe
0d000600
0af90106
09fe0214
0504ff05
0006f421
040fcdfc
041101ff
0bf60af8
01f41000
04fa00f5
03fafdfa
02f614fd
0c030af9
02f9eeff
fb0311ff
0504f402
0405f8f2
f82e04f3
08e21514
01e3eceb
0241eff7
071dfe0e
0a140aed
f5f11400
01fee1ff
0023f002
01d1f017
04f601ee
0f04020e
140bd50a
0913efff
0c4db203
0b0110fc
0effeafe
060bfafd
0dfa0601
01fb0cff
01e30ffd
0d03fb0c
0901d40b
1232f70b
0148c42d
011afb00
000e22ed
040601fc
f5fcf9f9
0a02fcfc
0205ec07
0307eaec
ec17f909
0620fb21
04edd702
0ffffc19
012ff924
05fbfd02
0008fb00
0000f6f0
060ff900
09ff0401
08fc0106
050c07fc
01fc0af6
08ff0706
021bd916
090c0905
03fe0b02
070006f5
02f7f710
0224ee05
04fcfef9
f9e8f506
01fcfbf4
06fff3fb
09090304
03f4ffff
01fbdbfd
0815faed
00ecf903
e71a1bcd
04fb040e
02f4fce4
0d1fe40e
0bf0fc1f
0021dd01
07f4f7fc
f50111f9
040cf214
0a06f5f2
01eb0e0b
03e61212
080a01f4
0418db12
14040510
000bf601
05fd1006
000bebfa
0502fb1b
f20bf214
080b0702
0c13eff9
00fa0712
00f8e6f8
07180110
1101e00a
020ef414
0b081111
0df4f604
f3f31cde
1508fd10
08fdf209
0602f6f9
0922da1b
1600090a
0110e416
031bf507
04f910f4
0bfefb0b
08f914ea
03f009fc
04fbe2f5
0bff030a
00f9e9fe
0b120afc
0a02f705
0904f717
00f903f2
06fb08fb
0316e615
04fa030a
010af9ef
0319fafd
01f9fcf5
00fb0401
0700e405
0204fbf0
04f8edf4
edfd1005
0317ec04
df2c1fe6
00ea0afe
f4f719ff
01ef09f2
d9201dd6
071ed60b
e1f41c19
02fa0bf7
0aee0002
01c52bda
06f5fd1a
02f4dafe
0d1c07fa
031bdb21
e601ec00
0230f7f4
09fffcfe
fac409e1
04fef502
ef13eeef
1afcf603
0af9cc12
0b0f0afb
0239eb11
04f30ef4
040cf4fb
f806f602
f500fffe
0710eb16
0beaf0fd
08f81103
0204080b
00f30407
01f60afb
0208f5ee
05ffe705
03fef8f5
0a040100
0100faf5
04f2090a
03f90401
f8ef22fc
110601f3
00f8f1fe
03fff7fa
0121be1d
01001803
0126d91c
081a0df0
08ec12ff
0107fb19
f3ff1000
0f11fd06
0812f707
06f10b0a
05dd13eb
0618f2fd
0b11f212
f9060f15
0613e40d
0306fbf5
03f2e2fa
040aeeef
0c19ff07
05f5fd08
07d918f4
081beafd
0508080f
00300ad8
0b0cd718
f50adfe6
e841f315
02ec0207
05fdd8fb
01fff41f
013fe30a
01f4f209
002610fa
02eb140f
f1b73ce4
001bf1d6
0a35cf03
00ec051c
08c61af8
09ff141d
0c2fbc46
eeecfb14
01f448f0
06fafae1
0a1cd10d
ea3721db
00f815f4
031bfe08
f215df0d
de050a00
0506fb03
08120af9
f5f508e5
f00aeafd
f029f80b
f30e04ef
0705ff00
0ffafb11
0008f608
05060c08
0620e2f7
01fff0f5
0d01e8fa
021714f2
05020ffb
030ce9f3
02210701
f2f81807
04f201fe
11f41710
06db0c10
0135ebe3
0937f103
01ec0c07
0325d211
0919ecfa
01f1fafe
0bfc170d
04d921de
0a15fcfb
0400e4fc
0108eaef
01ef00ff
00e70c1e
07eee7e9
05f20b06
052cdc20
0300f8fb
0e02eeec
0104f7f6
0a020b03
0005f012
00fa0c00
0b0b08f6
02d61415
00f60929
0b21fc17
09f8f302
0814d901
0f29fdf3
16111605
00281cf6
00f0e209
d62fdefb
02e33df9
ec2f0ac9
f210e509
0023e403
1c31ee18
07e71218
07d118da
f124e803
ef2ee91c
e7f9f0fb
ef0024e3
05e70902
0407de00
00260901
09041a03
190d0205
01f10303
0c03120d
0702f60a
07f41603
0123df0a
00fdff10
0108f70b
02f6110c
00f30a08
072602f0
03f6f8f3
040ef505
0805e304
06f80114
0af802df
061505f8
05e2f6f2
1119fcef
08e3f906
f21eeff8
03210506
0cea0c12
03d900d9
0409fbfd
0524e329
03ff0dff
0215fb0c
07ffff0d
0516f0f8
f8fafc03
0bf9fefa
0102eff3
01fef7fa
0101f9f6
00fee800
0f1f0108
011fe2f7
000ef714
051cd709
e6f1ff02
092309f8
08de0210
04e61ae3
04ff0718
0b01b03c
0706ff10
11080902
04f7f4f9
deeb47fc
09f0fe02
05f5d50a
000ff006
030afe10
082401e2
0710dcff
02f50818
07f407f6
1612f7f6
0e19e30e
0a21e500
0254d812
03fefc05
02f0f9f4
141a0612
042be70c
00fc0e10
01e913f7
041a0107
06f4eaf5
0312fc02
0522f30f
120b0205
030efce0
0304eefb
09fffe03
0002f3e8
0908f50a
0c000303
020b0a09
0301f109
0119e3f8
0a0d0509
040fdd02
060f0805
020e1502
0e00ef0c
00f2f0ef
0403f7ff
0814f205
05f40c06
060a0c00
01fef8fa
030adf09
11030616
03fdf908
0101fbf5
0011e609
0107f0ef
0331d509
00f5111b
04d6120a
07fe09f8
f9ef0122
ecfae6eb
e2241bf5
01dbf907
f2f0cdea
e808e90b
0330fa08
02eb010b
02fffcfb
010f0611
05daddfa
0e010bf3
00f8ff04
e4f0fd04
