@30006000
53e05220
00004f40
00000000
00000000
00000000
00000000
00000000
00000000
54505280
00005000
00000000
00000000
00000000
00000000
00000000
00000000
54d05380
00005100
00000000
00000000
00000000
00000000
00000000
00000000
547051c0
00005020
00000000
00000000
00000000
00000000
00000000
00000000
54105040
00005040
00000000
00000000
00000000
00000000
00000000
00000000
54905000
00005120
00000000
00000000
00000000
00000000
00000000
00000000
52a00000
00004a80
00000000
00000000
00000000
00000000
00000000
00000000
54004980
00004e40
00000000
00000000
00000000
00000000
00000000
00000000
56605340
00005490
00000000
00000000
00000000
00000000
00000000
00000000
53004900
00004ec0
00000000
00000000
00000000
00000000
00000000
00000000
55704e00
000051e0
00000000
00000000
00000000
00000000
00000000
00000000
54f04980
000050c0
00000000
00000000
00000000
00000000
00000000
00000000
54704800
000050e0
00000000
00000000
00000000
00000000
00000000
00000000
53c04600
00005020
00000000
00000000
00000000
00000000
00000000
00000000
54804d80
000050c0
00000000
00000000
00000000
00000000
00000000
00000000
54a04f00
000050c0
00000000
00000000
00000000
00000000
00000000
00000000
54804fc0
00005120
00000000
00000000
00000000
00000000
00000000
00000000
55505040
000051e0
00000000
00000000
00000000
00000000
00000000
00000000
55104a80
00004e80
00000000
00000000
00000000
00000000
00000000
00000000
57205040
00005220
00000000
00000000
00000000
00000000
00000000
00000000
5a8057d0
00005860
00000000
00000000
00000000
00000000
00000000
00000000
56504f80
00005180
00000000
00000000
00000000
00000000
00000000
00000000
52604400
00004c80
00000000
00000000
00000000
00000000
00000000
00000000
54304ec0
00005140
00000000
00000000
00000000
00000000
00000000
00000000
54604d00
00005100
00000000
00000000
00000000
00000000
00000000
00000000
57d054e0
000055d0
00000000
00000000
00000000
00000000
00000000
00000000
52804d40
00004e40
00000000
00000000
00000000
00000000
00000000
00000000
52604d00
00004d80
00000000
00000000
00000000
00000000
00000000
00000000
58305520
00005610
00000000
00000000
00000000
00000000
00000000
00000000
55404e00
00005180
00000000
00000000
00000000
00000000
00000000
00000000
54f04e80
00005100
00000000
00000000
00000000
00000000
00000000
00000000
56605260
00005400
00000000
00000000
00000000
00000000
00000000
00000000
54005200
00004f80
00000000
00000000
00000000
00000000
00000000
00000000
548052e0
000050c0
00000000
00000000
00000000
00000000
00000000
00000000
546051c0
00005060
00000000
00000000
00000000
00000000
00000000
00000000
54a05180
000050e0
00000000
00000000
00000000
00000000
00000000
00000000
56005360
00005400
00000000
00000000
00000000
00000000
00000000
00000000
54004cc0
00004fc0
00000000
00000000
00000000
00000000
00000000
00000000
58385500
00005600
00000000
00000000
00000000
00000000
00000000
00000000
55904f40
00005220
00000000
00000000
00000000
00000000
00000000
00000000
54e04e00
00005120
00000000
00000000
00000000
00000000
00000000
00000000
57905400
00005530
00000000
00000000
00000000
00000000
00000000
00000000
55e04e40
00005260
00000000
00000000
00000000
00000000
00000000
00000000
55604cc0
00005220
00000000
00000000
00000000
00000000
00000000
00000000
58c05610
00005828
00000000
00000000
00000000
00000000
00000000
00000000
52e04600
000050e0
00000000
00000000
00000000
00000000
00000000
00000000
54404c80
000050c0
00000000
00000000
00000000
00000000
00000000
00000000
55205020
00005180
00000000
00000000
00000000
00000000
00000000
00000000
55005080
00005180
00000000
00000000
00000000
00000000
00000000
00000000
54b04dc0
00005060
00000000
00000000
00000000
00000000
00000000
00000000
56b050e0
00005280
00000000
00000000
00000000
00000000
00000000
00000000
57e05200
00005410
00000000
00000000
00000000
00000000
00000000
00000000
56304d40
000050c0
00000000
00000000
00000000
00000000
00000000
00000000
58585460
00005580
00000000
00000000
00000000
00000000
00000000
00000000
54704cc0
00005040
00000000
00000000
00000000
00000000
00000000
00000000
54004c00
00005060
00000000
00000000
00000000
00000000
00000000
00000000
55704f80
00005220
00000000
00000000
00000000
00000000
00000000
00000000
57905450
00005540
00000000
00000000
00000000
00000000
00000000
00000000
53004cc0
00004e00
00000000
00000000
00000000
00000000
00000000
00000000
53404e00
00004ec0
00000000
00000000
00000000
00000000
00000000
00000000
58c05650
00005730
00000000
00000000
00000000
00000000
00000000
00000000
56705160
000053e0
00000000
00000000
00000000
00000000
00000000
00000000
54804a00
00004fc0
00000000
00000000
00000000
00000000
00000000
00000000
57d05410
00005540
00000000
00000000
00000000
00000000
00000000
00000000
53805140
00004dc0
00000000
00000000
00000000
00000000
00000000
00000000
540050c0
00004f00
00000000
00000000
00000000
00000000
00000000
00000000
55705240
000052e0
00000000
00000000
00000000
00000000
00000000
00000000
54704ec0
00005140
00000000
00000000
00000000
00000000
00000000
00000000
54404d80
000050e0
00000000
00000000
00000000
00000000
00000000
00000000
55004ec0
000051e0
00000000
00000000
00000000
00000000
00000000
00000000
55d05000
000052e0
00000000
00000000
00000000
00000000
00000000
00000000
599056d0
00005838
00000000
00000000
00000000
00000000
00000000
00000000
55404880
00005020
00000000
00000000
00000000
00000000
00000000
00000000
575050a0
00005400
00000000
00000000
00000000
00000000
00000000
00000000
57705100
00005440
00000000
00000000
00000000
00000000
00000000
00000000
56d05140
000054e0
00000000
00000000
00000000
00000000
00000000
00000000
58c05710
00005900
00000000
00000000
00000000
00000000
00000000
00000000
5b405a28
00005b90
00000000
00000000
00000000
00000000
00000000
00000000
55e05160
00005430
00000000
00000000
00000000
00000000
00000000
00000000
55104e40
000050c0
00000000
00000000
00000000
00000000
00000000
00000000
55205040
00005100
00000000
00000000
00000000
00000000
00000000
00000000
54904d00
00004f40
00000000
00000000
00000000
00000000
00000000
00000000
56004f00
00005160
00000000
00000000
00000000
00000000
00000000
00000000
56e05060
00005300
00000000
00000000
00000000
00000000
00000000
00000000
54600000
00004e00
00000000
00000000
00000000
00000000
00000000
00000000
5b585938
00005a10
00000000
00000000
00000000
00000000
00000000
00000000
58285460
000055d0
00000000
00000000
00000000
00000000
00000000
00000000
57b05360
00005510
00000000
00000000
00000000
00000000
00000000
00000000
56f05100
000053a0
00000000
00000000
00000000
00000000
00000000
00000000
578052e0
00005470
00000000
00000000
00000000
00000000
00000000
00000000
554050a0
000051a0
00000000
00000000
00000000
00000000
00000000
00000000
559051c0
00005280
00000000
00000000
00000000
00000000
00000000
00000000
57705460
00005510
00000000
00000000
00000000
00000000
00000000
00000000
55f050a0
000052c0
00000000
00000000
00000000
00000000
00000000
00000000
55b04cc0
00005180
00000000
00000000
00000000
00000000
00000000
00000000
595055d0
00005770
00000000
00000000
00000000
00000000
00000000
00000000
52a04fc0
00004c80
00000000
00000000
00000000
00000000
00000000
00000000
52804dc0
00004cc0
00000000
00000000
00000000
00000000
00000000
00000000
56105300
00005450
00000000
00000000
00000000
00000000
00000000
00000000
56405220
00005480
00000000
00000000
00000000
00000000
00000000
00000000
57805440
000055a0
00000000
00000000
00000000
00000000
00000000
00000000
54904c00
00005100
00000000
00000000
00000000
00000000
00000000
00000000
54304500
00004fc0
00000000
00000000
00000000
00000000
00000000
00000000
58a05500
000056b0
00000000
00000000
00000000
00000000
00000000
00000000
58005240
000054b0
00000000
00000000
00000000
00000000
00000000
00000000
57204f80
00005300
00000000
00000000
00000000
00000000
00000000
00000000
56204c80
000051a0
00000000
00000000
00000000
00000000
00000000
00000000
58485480
000056f0
00000000
00000000
00000000
00000000
00000000
00000000
58a85740
00005948
00000000
00000000
00000000
00000000
00000000
00000000
59005828
000059d0
00000000
00000000
00000000
00000000
00000000
00000000
57305420
00005650
00000000
00000000
00000000
00000000
00000000
00000000
55a05040
000052e0
00000000
00000000
00000000
00000000
00000000
00000000
587055b0
00005680
00000000
00000000
00000000
00000000
00000000
00000000
56605200
00005360
00000000
00000000
00000000
00000000
00000000
00000000
55704dc0
00005120
00000000
00000000
00000000
00000000
00000000
00000000
56f051a0
00005460
00000000
00000000
00000000
00000000
00000000
00000000
59e05800
00005920
00000000
00000000
00000000
00000000
00000000
00000000
59805720
000058c0
00000000
00000000
00000000
00000000
00000000
00000000
58385410
000055f0
00000000
00000000
00000000
00000000
00000000
00000000
54900000
00004d80
00000000
00000000
00000000
00000000
00000000
00000000
59285560
000056c0
00000000
00000000
00000000
00000000
00000000
00000000
57f052c0
00005470
00000000
00000000
00000000
00000000
00000000
00000000
57b05410
000054b0
00000000
00000000
00000000
00000000
00000000
00000000
58105500
00005580
00000000
00000000
00000000
00000000
00000000
00000000
54a04e40
00005080
00000000
00000000
00000000
00000000
00000000
00000000
583854e0
00005600
00000000
00000000
00000000
00000000
00000000
00000000
592855b0
00005750
00000000
00000000
00000000
00000000
00000000
00000000
596055a0
00005780
00000000
00000000
00000000
00000000
00000000
00000000
52204f00
00004e00
00000000
00000000
00000000
00000000
00000000
00000000
51c04cc0
00004d00
00000000
00000000
00000000
00000000
00000000
00000000
54204ec0
00005100
00000000
00000000
00000000
00000000
00000000
00000000
55e05180
00005400
00000000
00000000
00000000
00000000
00000000
00000000
589855b0
00005700
00000000
00000000
00000000
00000000
00000000
00000000
55804ec0
00005280
00000000
00000000
00000000
00000000
00000000
00000000
55804fc0
000052e0
00000000
00000000
00000000
00000000
00000000
00000000
560050c0
000053a0
00000000
00000000
00000000
00000000
00000000
00000000
55704e40
00005120
00000000
00000000
00000000
00000000
00000000
00000000
54a04700
00004dc0
00000000
00000000
00000000
00000000
00000000
00000000
55804b00
00005080
00000000
00000000
00000000
00000000
00000000
00000000
58e055c0
000057f0
00000000
00000000
00000000
00000000
00000000
00000000
58305610
000058d0
00000000
00000000
00000000
00000000
00000000
00000000
58c057b0
000059b8
00000000
00000000
00000000
00000000
00000000
00000000
58b056d0
000058c8
00000000
00000000
00000000
00000000
00000000
00000000
54404cc0
00005280
00000000
00000000
00000000
00000000
00000000
00000000
55e05120
00005430
00000000
00000000
00000000
00000000
00000000
00000000
58885580
00005700
00000000
00000000
00000000
00000000
00000000
00000000
58e85610
000057e0
00000000
00000000
00000000
00000000
00000000
00000000
57d05450
000056a0
00000000
00000000
00000000
00000000
00000000
00000000
59405780
00005960
00000000
00000000
00000000
00000000
00000000
00000000
58c05640
000058c0
00000000
00000000
00000000
00000000
00000000
00000000
56c05120
000054d0
00000000
00000000
00000000
00000000
00000000
00000000
53400000
00004700
00000000
00000000
00000000
00000000
00000000
00000000
58585340
00005520
00000000
00000000
00000000
00000000
00000000
00000000
586853a0
00005520
00000000
00000000
00000000
00000000
00000000
00000000
59c05710
000057f0
00000000
00000000
00000000
00000000
00000000
00000000
58d855c0
00005690
00000000
00000000
00000000
00000000
00000000
00000000
562051a0
00005360
00000000
00000000
00000000
00000000
00000000
00000000
55304f40
00005200
00000000
00000000
00000000
00000000
00000000
00000000
580853e0
00005570
00000000
00000000
00000000
00000000
00000000
00000000
57805200
000054a0
00000000
00000000
00000000
00000000
00000000
00000000
51e04ec0
00004f00
00000000
00000000
00000000
00000000
00000000
00000000
52204dc0
00004e80
00000000
00000000
00000000
00000000
00000000
00000000
53404dc0
00005000
00000000
00000000
00000000
00000000
00000000
00000000
54504dc0
00005100
00000000
00000000
00000000
00000000
00000000
00000000
57e05440
000055b0
00000000
00000000
00000000
00000000
00000000
00000000
57e05410
000055a0
00000000
00000000
00000000
00000000
00000000
00000000
54704b00
000050c0
00000000
00000000
00000000
00000000
00000000
00000000
55104ec0
000051c0
00000000
00000000
00000000
00000000
00000000
00000000
54004980
00004e00
00000000
00000000
00000000
00000000
00000000
00000000
54404880
00004e00
00000000
00000000
00000000
00000000
00000000
00000000
56104f00
00005280
00000000
00000000
00000000
00000000
00000000
00000000
54404500
00005140
00000000
00000000
00000000
00000000
00000000
00000000
581055a0
000058a0
00000000
00000000
00000000
00000000
00000000
00000000
58485680
00005950
00000000
00000000
00000000
00000000
00000000
00000000
5a0058d8
00005aa0
00000000
00000000
00000000
00000000
00000000
00000000
57a054c0
00005808
00000000
00000000
00000000
00000000
00000000
00000000
57c05490
00005780
00000000
00000000
00000000
00000000
00000000
00000000
55c050e0
00005520
00000000
00000000
00000000
00000000
00000000
00000000
53004700
00005200
00000000
00000000
00000000
00000000
00000000
00000000
595857e0
00005970
00000000
00000000
00000000
00000000
00000000
00000000
59d058a8
00005a80
00000000
00000000
00000000
00000000
00000000
00000000
596057f0
000059c8
00000000
00000000
00000000
00000000
00000000
00000000
56d05140
00005500
00000000
00000000
00000000
00000000
00000000
00000000
55b04880
000050c0
00000000
00000000
00000000
00000000
00000000
00000000
58805360
00005560
00000000
00000000
00000000
00000000
00000000
00000000
59485530
000056d0
00000000
00000000
00000000
00000000
00000000
00000000
59a85650
00005780
00000000
00000000
00000000
00000000
00000000
00000000
59c85710
00005820
00000000
00000000
00000000
00000000
00000000
00000000
58105440
000055a0
00000000
00000000
00000000
00000000
00000000
00000000
55804ec0
00005280
00000000
00000000
00000000
00000000
00000000
00000000
58485470
00005600
00000000
00000000
00000000
00000000
00000000
00000000
55c04dc0
00005220
00000000
00000000
00000000
00000000
00000000
00000000
52404f00
00005000
00000000
00000000
00000000
00000000
00000000
00000000
51c04d40
00004e80
00000000
00000000
00000000
00000000
00000000
00000000
52a04e40
00004f80
00000000
00000000
00000000
00000000
00000000
00000000
52e04c00
00004f40
00000000
00000000
00000000
00000000
00000000
00000000
57605400
00005580
00000000
00000000
00000000
00000000
00000000
00000000
573052c0
00005510
00000000
00000000
00000000
00000000
00000000
00000000
56105080
000053a0
00000000
00000000
00000000
00000000
00000000
00000000
55404e80
00005220
00000000
00000000
00000000
00000000
00000000
00000000
55504f00
000051e0
00000000
00000000
00000000
00000000
00000000
00000000
55304e00
000051a0
00000000
00000000
00000000
00000000
00000000
00000000
55904d40
000052c0
00000000
00000000
00000000
00000000
00000000
00000000
59185640
00005878
00000000
00000000
00000000
00000000
00000000
00000000
569053a0
00005760
00000000
00000000
00000000
00000000
00000000
00000000
57405500
00005890
00000000
00000000
00000000
00000000
00000000
00000000
592057d0
00005a20
00000000
00000000
00000000
00000000
00000000
00000000
595857f0
00005a50
00000000
00000000
00000000
00000000
00000000
00000000
59985818
00005a78
00000000
00000000
00000000
00000000
00000000
00000000
59e85880
00005ac0
00000000
00000000
00000000
00000000
00000000
00000000
59d858c8
00005a98
00000000
00000000
00000000
00000000
00000000
00000000
59205848
000059f0
00000000
00000000
00000000
00000000
00000000
00000000
59a058c0
00005a98
00000000
00000000
00000000
00000000
00000000
00000000
59e85898
00005a50
00000000
00000000
00000000
00000000
00000000
00000000
589854f0
00005740
00000000
00000000
00000000
00000000
00000000
00000000
56304a00
00005160
00000000
00000000
00000000
00000000
00000000
00000000
57904f40
000053c0
00000000
00000000
00000000
00000000
00000000
00000000
586051e0
000054f0
00000000
00000000
00000000
00000000
00000000
00000000
56804c80
00005180
00000000
00000000
00000000
00000000
00000000
00000000
59e856c0
00005830
00000000
00000000
00000000
00000000
00000000
00000000
570050a0
00005440
00000000
00000000
00000000
00000000
00000000
00000000
57505160
000054b0
00000000
00000000
00000000
00000000
00000000
00000000
584053a0
000055c0
00000000
00000000
00000000
00000000
00000000
00000000
570050a0
00005420
00000000
00000000
00000000
00000000
00000000
00000000
52604e80
00004fc0
00000000
00000000
00000000
00000000
00000000
00000000
51604c80
00004dc0
00000000
00000000
00000000
00000000
00000000
00000000
51a04d80
00004dc0
00000000
00000000
00000000
00000000
00000000
00000000
52604cc0
00004ec0
00000000
00000000
00000000
00000000
00000000
00000000
52203c00
00004dc0
00000000
00000000
00000000
00000000
00000000
00000000
55504f40
00005300
00000000
00000000
00000000
00000000
00000000
00000000
55705000
000052c0
00000000
00000000
00000000
00000000
00000000
00000000
57205380
000054f0
00000000
00000000
00000000
00000000
00000000
00000000
54904d80
000050e0
00000000
00000000
00000000
00000000
00000000
00000000
52800000
00004d80
00000000
00000000
00000000
00000000
00000000
00000000
55b05000
000053e0
00000000
00000000
00000000
00000000
00000000
00000000
5a285868
000059c0
00000000
00000000
00000000
00000000
00000000
00000000
55f05260
000056c0
00000000
00000000
00000000
00000000
00000000
00000000
582055e0
00005910
00000000
00000000
00000000
00000000
00000000
00000000
58005590
00005930
00000000
00000000
00000000
00000000
00000000
00000000
58e05720
00005a30
00000000
00000000
00000000
00000000
00000000
00000000
59985820
00005af8
00000000
00000000
00000000
00000000
00000000
00000000
58a056a0
000059f8
00000000
00000000
00000000
00000000
00000000
00000000
58985770
000059e0
00000000
00000000
00000000
00000000
00000000
00000000
58c85810
000059f8
00000000
00000000
00000000
00000000
00000000
00000000
599858d0
00005a98
00000000
00000000
00000000
00000000
00000000
00000000
5b805a30
00005bb8
00000000
00000000
00000000
00000000
00000000
00000000
57005160
000054f0
00000000
00000000
00000000
00000000
00000000
00000000
55200000
00004ec0
00000000
00000000
00000000
00000000
00000000
00000000
57904f80
00005410
00000000
00000000
00000000
00000000
00000000
00000000
57c05060
00005440
00000000
00000000
00000000
00000000
00000000
00000000
57004f40
00005320
00000000
00000000
00000000
00000000
00000000
00000000
57d051c0
000054a0
00000000
00000000
00000000
00000000
00000000
00000000
57405080
00005450
00000000
00000000
00000000
00000000
00000000
00000000
56e04fc0
00005420
00000000
00000000
00000000
00000000
00000000
00000000
57505100
00005490
00000000
00000000
00000000
00000000
00000000
00000000
582852e0
00005560
00000000
00000000
00000000
00000000
00000000
00000000
52404e00
00004e80
00000000
00000000
00000000
00000000
00000000
00000000
51804d40
00004d80
00000000
00000000
00000000
00000000
00000000
00000000
51604dc0
00004e00
00000000
00000000
00000000
00000000
00000000
00000000
51804cc0
00004e00
00000000
00000000
00000000
00000000
00000000
00000000
51003c00
00004cc0
00000000
00000000
00000000
00000000
00000000
00000000
52c04800
00004fc0
00000000
00000000
00000000
00000000
00000000
00000000
55905160
00005380
00000000
00000000
00000000
00000000
00000000
00000000
57305470
00005540
00000000
00000000
00000000
00000000
00000000
00000000
52c04a80
00004dc0
00000000
00000000
00000000
00000000
00000000
00000000
53a04d00
00005040
00000000
00000000
00000000
00000000
00000000
00000000
565052e0
00005520
00000000
00000000
00000000
00000000
00000000
00000000
585855d0
00005828
00000000
00000000
00000000
00000000
00000000
00000000
583855f0
000058d0
00000000
00000000
00000000
00000000
00000000
00000000
57505520
000058b8
00000000
00000000
00000000
00000000
00000000
00000000
58f057d0
00005a28
00000000
00000000
00000000
00000000
00000000
00000000
58e85760
00005a20
00000000
00000000
00000000
00000000
00000000
00000000
58f85710
00005a40
00000000
00000000
00000000
00000000
00000000
00000000
594857e0
00005aa0
00000000
00000000
00000000
00000000
00000000
00000000
587056d0
000059d8
00000000
00000000
00000000
00000000
00000000
00000000
58805730
000059a8
00000000
00000000
00000000
00000000
00000000
00000000
590057f0
000059a0
00000000
00000000
00000000
00000000
00000000
00000000
57c054f0
00005790
00000000
00000000
00000000
00000000
00000000
00000000
55f04ec0
00005380
00000000
00000000
00000000
00000000
00000000
00000000
57205060
000053e0
00000000
00000000
00000000
00000000
00000000
00000000
57705080
00005400
00000000
00000000
00000000
00000000
00000000
00000000
57e051c0
00005490
00000000
00000000
00000000
00000000
00000000
00000000
56c050e0
000053e0
00000000
00000000
00000000
00000000
00000000
00000000
55304b00
00005100
00000000
00000000
00000000
00000000
00000000
00000000
56f05020
00005400
00000000
00000000
00000000
00000000
00000000
00000000
58485320
000055a0
00000000
00000000
00000000
00000000
00000000
00000000
58205320
00005580
00000000
00000000
00000000
00000000
00000000
00000000
58185300
00005570
00000000
00000000
00000000
00000000
00000000
00000000
52404dc0
00004e00
00000000
00000000
00000000
00000000
00000000
00000000
52004cc0
00004dc0
00000000
00000000
00000000
00000000
00000000
00000000
54005080
00005180
00000000
00000000
00000000
00000000
00000000
00000000
52004a80
00004f00
00000000
00000000
00000000
00000000
00000000
00000000
53804c40
000050e0
00000000
00000000
00000000
00000000
00000000
00000000
54104c80
00005160
00000000
00000000
00000000
00000000
00000000
00000000
55705100
000053a0
00000000
00000000
00000000
00000000
00000000
00000000
57005400
00005540
00000000
00000000
00000000
00000000
00000000
00000000
52004000
00004cc0
00000000
00000000
00000000
00000000
00000000
00000000
53204900
00004fc0
00000000
00000000
00000000
00000000
00000000
00000000
51400000
00004e00
00000000
00000000
00000000
00000000
00000000
00000000
59185760
00005900
00000000
00000000
00000000
00000000
00000000
00000000
58485640
000058e8
00000000
00000000
00000000
00000000
00000000
00000000
58a85740
000059b0
00000000
00000000
00000000
00000000
00000000
00000000
567054c0
00005860
00000000
00000000
00000000
00000000
00000000
00000000
58e057f0
00005a08
00000000
00000000
00000000
00000000
00000000
00000000
59d858a8
00005ae8
00000000
00000000
00000000
00000000
00000000
00000000
5a0858d0
00005b38
00000000
00000000
00000000
00000000
00000000
00000000
58505670
000059b0
00000000
00000000
00000000
00000000
00000000
00000000
59205800
00005a50
00000000
00000000
00000000
00000000
00000000
00000000
58785690
00005908
00000000
00000000
00000000
00000000
00000000
00000000
55f05180
00005580
00000000
00000000
00000000
00000000
00000000
00000000
56004ec0
000053e0
00000000
00000000
00000000
00000000
00000000
00000000
57d05160
000054c0
00000000
00000000
00000000
00000000
00000000
00000000
56b04d80
000052e0
00000000
00000000
00000000
00000000
00000000
00000000
56904dc0
00005300
00000000
00000000
00000000
00000000
00000000
00000000
56a05040
00005400
00000000
00000000
00000000
00000000
00000000
00000000
57705200
000054f0
00000000
00000000
00000000
00000000
00000000
00000000
58985440
00005680
00000000
00000000
00000000
00000000
00000000
00000000
590054f0
00005730
00000000
00000000
00000000
00000000
00000000
00000000
57605180
000054c0
00000000
00000000
00000000
00000000
00000000
00000000
58585440
00005630
00000000
00000000
00000000
00000000
00000000
00000000
52c04e40
00004f40
00000000
00000000
00000000
00000000
00000000
00000000
52604b00
00004e40
00000000
00000000
00000000
00000000
00000000
00000000
570053c0
00005580
00000000
00000000
00000000
00000000
00000000
00000000
55404e80
00005360
00000000
00000000
00000000
00000000
00000000
00000000
565050c0
000054b0
00000000
00000000
00000000
00000000
00000000
00000000
56105040
00005470
00000000
00000000
00000000
00000000
00000000
00000000
56705140
000054d0
00000000
00000000
00000000
00000000
00000000
00000000
59105650
00005840
00000000
00000000
00000000
00000000
00000000
00000000
57605260
00005590
00000000
00000000
00000000
00000000
00000000
00000000
57d05300
00005620
00000000
00000000
00000000
00000000
00000000
00000000
56805140
00005560
00000000
00000000
00000000
00000000
00000000
00000000
581054f0
000057e0
00000000
00000000
00000000
00000000
00000000
00000000
56b05420
000057a0
00000000
00000000
00000000
00000000
00000000
00000000
56205420
000057f0
00000000
00000000
00000000
00000000
00000000
00000000
5ac05a10
00005bd8
00000000
00000000
00000000
00000000
00000000
00000000
596858d0
00005a70
00000000
00000000
00000000
00000000
00000000
00000000
5b105a60
00005bd8
00000000
00000000
00000000
00000000
00000000
00000000
56f05540
00005848
00000000
00000000
00000000
00000000
00000000
00000000
59885880
00005ac0
00000000
00000000
00000000
00000000
00000000
00000000
592057d0
00005a50
00000000
00000000
00000000
00000000
00000000
00000000
59c05878
00005a78
00000000
00000000
00000000
00000000
00000000
00000000
55a05080
000055a0
00000000
00000000
00000000
00000000
00000000
00000000
56304dc0
00005430
00000000
00000000
00000000
00000000
00000000
00000000
58c853c0
00005680
00000000
00000000
00000000
00000000
00000000
00000000
57504d00
00005430
00000000
00000000
00000000
00000000
00000000
00000000
57504d40
00005460
00000000
00000000
00000000
00000000
00000000
00000000
57904f80
000054c0
00000000
00000000
00000000
00000000
00000000
00000000
57c050c0
00005540
00000000
00000000
00000000
00000000
00000000
00000000
58485280
00005630
00000000
00000000
00000000
00000000
00000000
00000000
582852a0
00005600
00000000
00000000
00000000
00000000
00000000
00000000
56304f00
00005420
00000000
00000000
00000000
00000000
00000000
00000000
58b05530
00005760
00000000
00000000
00000000
00000000
00000000
00000000
582855a0
000056a0
00000000
00000000
00000000
00000000
00000000
00000000
53604800
00005000
00000000
00000000
00000000
00000000
00000000
00000000
57405220
00005590
00000000
00000000
00000000
00000000
00000000
00000000
55d04c80
00005410
00000000
00000000
00000000
00000000
00000000
00000000
58705430
00005720
00000000
00000000
00000000
00000000
00000000
00000000
57505160
00005590
00000000
00000000
00000000
00000000
00000000
00000000
56604fc0
000054b0
00000000
00000000
00000000
00000000
00000000
00000000
58705430
00005720
00000000
00000000
00000000
00000000
00000000
00000000
57f05160
00005620
00000000
00000000
00000000
00000000
00000000
00000000
584852a0
000056d0
00000000
00000000
00000000
00000000
00000000
00000000
58505430
00005760
00000000
00000000
00000000
00000000
00000000
00000000
58185490
000057e0
00000000
00000000
00000000
00000000
00000000
00000000
583055a0
00005898
00000000
00000000
00000000
00000000
00000000
00000000
59085808
000059c0
00000000
00000000
00000000
00000000
00000000
00000000
594858a0
00005a40
00000000
00000000
00000000
00000000
00000000
00000000
597058e0
00005a58
00000000
00000000
00000000
00000000
00000000
00000000
59e85958
00005aa0
00000000
00000000
00000000
00000000
00000000
00000000
4dc00000
00005220
00000000
00000000
00000000
00000000
00000000
00000000
5a505928
00005b80
00000000
00000000
00000000
00000000
00000000
00000000
58d85700
00005a10
00000000
00000000
00000000
00000000
00000000
00000000
5af85998
00005bf0
00000000
00000000
00000000
00000000
00000000
00000000
58485520
00005890
00000000
00000000
00000000
00000000
00000000
00000000
58905430
00005770
00000000
00000000
00000000
00000000
00000000
00000000
59905530
00005828
00000000
00000000
00000000
00000000
00000000
00000000
59985490
00005820
00000000
00000000
00000000
00000000
00000000
00000000
594053c0
00005790
00000000
00000000
00000000
00000000
00000000
00000000
58204fc0
00005570
00000000
00000000
00000000
00000000
00000000
00000000
59105420
000057a0
00000000
00000000
00000000
00000000
00000000
00000000
58c053c0
00005750
00000000
00000000
00000000
00000000
00000000
00000000
58f854a0
000057f0
00000000
00000000
00000000
00000000
00000000
00000000
58c054a0
00005790
00000000
00000000
00000000
00000000
00000000
00000000
58785440
000056f0
00000000
00000000
00000000
00000000
00000000
00000000
56f051a0
00005520
00000000
00000000
00000000
00000000
00000000
00000000
57b052a0
000055d0
00000000
00000000
00000000
00000000
00000000
00000000
58285300
00005690
00000000
00000000
00000000
00000000
00000000
00000000
56c04e80
000054f0
00000000
00000000
00000000
00000000
00000000
00000000
58a05400
00005770
00000000
00000000
00000000
00000000
00000000
00000000
58b85420
00005770
00000000
00000000
00000000
00000000
00000000
00000000
580851c0
00005610
00000000
00000000
00000000
00000000
00000000
00000000
582851c0
00005640
00000000
00000000
00000000
00000000
00000000
00000000
582050a0
00005620
00000000
00000000
00000000
00000000
00000000
00000000
58305140
00005690
00000000
00000000
00000000
00000000
00000000
00000000
58a85490
00005818
00000000
00000000
00000000
00000000
00000000
00000000
584854b0
00005818
00000000
00000000
00000000
00000000
00000000
00000000
555050c0
000055d0
00000000
00000000
00000000
00000000
00000000
00000000
55605240
00005660
00000000
00000000
00000000
00000000
00000000
00000000
59205850
000059e0
00000000
00000000
00000000
00000000
00000000
00000000
59b858f0
00005a88
00000000
00000000
00000000
00000000
00000000
00000000
58805720
00005958
00000000
00000000
00000000
00000000
00000000
00000000
5a2058f8
00005b30
00000000
00000000
00000000
00000000
00000000
00000000
58685620
000059c0
00000000
00000000
00000000
00000000
00000000
00000000
58785600
000059d8
00000000
00000000
00000000
00000000
00000000
00000000
5aa05940
00005be8
00000000
00000000
00000000
00000000
00000000
00000000
59805780
00005a18
00000000
00000000
00000000
00000000
00000000
00000000
5a305790
00005988
00000000
00000000
00000000
00000000
00000000
00000000
59085400
00005750
00000000
00000000
00000000
00000000
00000000
00000000
59f05510
00005880
00000000
00000000
00000000
00000000
00000000
00000000
59505340
000057b0
00000000
00000000
00000000
00000000
00000000
00000000
58204f80
000055a0
00000000
00000000
00000000
00000000
00000000
00000000
58a852a0
00005700
00000000
00000000
00000000
00000000
00000000
00000000
58e85400
000057e0
00000000
00000000
00000000
00000000
00000000
00000000
58f85430
00005810
00000000
00000000
00000000
00000000
00000000
00000000
597054f0
00005860
00000000
00000000
00000000
00000000
00000000
00000000
58c05300
00005730
00000000
00000000
00000000
00000000
00000000
00000000
58585410
000056f0
00000000
00000000
00000000
00000000
00000000
00000000
58405360
000056c0
00000000
00000000
00000000
00000000
00000000
00000000
584052c0
000056b0
00000000
00000000
00000000
00000000
00000000
00000000
58605300
000056f0
00000000
00000000
00000000
00000000
00000000
00000000
587852a0
000056c0
00000000
00000000
00000000
00000000
00000000
00000000
58405220
00005660
00000000
00000000
00000000
00000000
00000000
00000000
584052a0
00005680
00000000
00000000
00000000
00000000
00000000
00000000
591854c0
00005810
00000000
00000000
00000000
00000000
00000000
00000000
588051e0
000056e0
00000000
00000000
00000000
00000000
00000000
00000000
58a852a0
00005770
00000000
00000000
00000000
00000000
00000000
00000000
58205240
000056e0
00000000
00000000
00000000
00000000
00000000
00000000
58c85580
00005880
00000000
00000000
00000000
00000000
00000000
00000000
57e05510
00005810
00000000
00000000
00000000
00000000
00000000
00000000
58185640
00005890
00000000
00000000
00000000
00000000
00000000
00000000
59205850
000059a8
00000000
00000000
00000000
00000000
00000000
00000000
54905220
000055f0
00000000
00000000
00000000
00000000
00000000
00000000
59f85908
00005ac0
00000000
00000000
00000000
00000000
00000000
00000000
5a0058e0
00005af0
00000000
00000000
00000000
00000000
00000000
00000000
583855e0
00005970
00000000
00000000
00000000
00000000
00000000
00000000
59185790
00005a80
00000000
00000000
00000000
00000000
00000000
00000000
5a4858f0
00005bd0
00000000
00000000
00000000
00000000
00000000
00000000
59e85838
00005ae0
00000000
00000000
00000000
00000000
00000000
00000000
594055f0
00005900
00000000
00000000
00000000
00000000
00000000
00000000
59685530
00005878
00000000
00000000
00000000
00000000
00000000
00000000
58a05100
000056a0
00000000
00000000
00000000
00000000
00000000
00000000
59a05460
00005850
00000000
00000000
00000000
00000000
00000000
00000000
58b85280
00005710
00000000
00000000
00000000
00000000
00000000
00000000
58405140
00005660
00000000
00000000
00000000
00000000
00000000
00000000
589852c0
00005760
00000000
00000000
00000000
00000000
00000000
00000000
59405460
00005850
00000000
00000000
00000000
00000000
00000000
00000000
594053e0
00005818
00000000
00000000
00000000
00000000
00000000
00000000
58d85200
00005740
00000000
00000000
00000000
00000000
00000000
00000000
58105410
000056c0
00000000
00000000
00000000
00000000
00000000
00000000
58b85500
000057d0
00000000
00000000
00000000
00000000
00000000
00000000
57405080
00005570
00000000
00000000
00000000
00000000
00000000
00000000
58f85490
000057d0
00000000
00000000
00000000
00000000
00000000
00000000
58585200
00005640
00000000
00000000
00000000
00000000
00000000
00000000
58005120
000055a0
00000000
00000000
00000000
00000000
00000000
00000000
575051a0
00005570
00000000
00000000
00000000
00000000
00000000
00000000
571050e0
00005550
00000000
00000000
00000000
00000000
00000000
00000000
58505200
000056c0
00000000
00000000
00000000
00000000
00000000
00000000
583850c0
00005670
00000000
00000000
00000000
00000000
00000000
00000000
58405220
000056e0
00000000
00000000
00000000
00000000
00000000
00000000
586854a0
000057e0
00000000
00000000
00000000
00000000
00000000
00000000
57805550
000057c0
00000000
00000000
00000000
00000000
00000000
00000000
593858a0
000059b0
00000000
00000000
00000000
00000000
00000000
00000000
58385730
000058c0
00000000
00000000
00000000
00000000
00000000
00000000
58c05818
00005938
00000000
00000000
00000000
00000000
00000000
00000000
59c85930
00005a30
00000000
00000000
00000000
00000000
00000000
00000000
5b605ab0
00005bf0
00000000
00000000
00000000
00000000
00000000
00000000
59785898
00005a68
00000000
00000000
00000000
00000000
00000000
00000000
5ab05998
00005bf0
00000000
00000000
00000000
00000000
00000000
00000000
59685800
00005b00
00000000
00000000
00000000
00000000
00000000
00000000
5a405890
00005b88
00000000
00000000
00000000
00000000
00000000
00000000
59685710
000059e8
00000000
00000000
00000000
00000000
00000000
00000000
58285340
000057d0
00000000
00000000
00000000
00000000
00000000
00000000
584050c0
000056a0
00000000
00000000
00000000
00000000
00000000
00000000
593053e0
00005808
00000000
00000000
00000000
00000000
00000000
00000000
58c05410
000057c0
00000000
00000000
00000000
00000000
00000000
00000000
58a85410
000057c0
00000000
00000000
00000000
00000000
00000000
00000000
58b05340
00005790
00000000
00000000
00000000
00000000
00000000
00000000
58685120
000056a0
00000000
00000000
00000000
00000000
00000000
00000000
59205360
000057f0
00000000
00000000
00000000
00000000
00000000
00000000
58c85180
00005720
00000000
00000000
00000000
00000000
00000000
00000000
58185420
000056d0
00000000
00000000
00000000
00000000
00000000
00000000
58c85520
000057f0
00000000
00000000
00000000
00000000
00000000
00000000
58085280
00005650
00000000
00000000
00000000
00000000
00000000
00000000
57f05160
000055d0
00000000
00000000
00000000
00000000
00000000
00000000
56c04cc0
00005450
00000000
00000000
00000000
00000000
00000000
00000000
58205200
00005610
00000000
00000000
00000000
00000000
00000000
00000000
57b052c0
00005600
00000000
00000000
00000000
00000000
00000000
00000000
58105360
00005670
00000000
00000000
00000000
00000000
00000000
00000000
58485280
00005690
00000000
00000000
00000000
00000000
00000000
00000000
587052c0
00005700
00000000
00000000
00000000
00000000
00000000
00000000
58785360
00005760
00000000
00000000
00000000
00000000
00000000
00000000
58b85570
00005858
00000000
00000000
00000000
00000000
00000000
00000000
585856b0
00005880
00000000
00000000
00000000
00000000
00000000
00000000
58805800
000058e8
00000000
00000000
00000000
00000000
00000000
00000000
58385760
000058a0
00000000
00000000
00000000
00000000
00000000
00000000
59185888
00005970
00000000
00000000
00000000
00000000
00000000
00000000
5b605ad0
00005bb8
00000000
00000000
00000000
00000000
00000000
00000000
5ba85b00
00005bf8
00000000
00000000
00000000
00000000
00000000
00000000
5b205a68
00005bf0
00000000
00000000
00000000
00000000
00000000
00000000
5ac059c8
00005bf8
00000000
00000000
00000000
00000000
00000000
00000000
594057d0
00005ac8
00000000
00000000
00000000
00000000
00000000
00000000
59e85858
00005b58
00000000
00000000
00000000
00000000
00000000
00000000
59f85838
00005ac0
00000000
00000000
00000000
00000000
00000000
00000000
58985500
000058b0
00000000
00000000
00000000
00000000
00000000
00000000
57a05040
00005620
00000000
00000000
00000000
00000000
00000000
00000000
57e05000
000055c0
00000000
00000000
00000000
00000000
00000000
00000000
58205220
000056b0
00000000
00000000
00000000
00000000
00000000
00000000
583852a0
00005700
00000000
00000000
00000000
00000000
00000000
00000000
585851c0
000056c0
00000000
00000000
00000000
00000000
00000000
00000000
58605100
00005690
00000000
00000000
00000000
00000000
00000000
00000000
58405020
00005630
00000000
00000000
00000000
00000000
00000000
00000000
57f04d40
00005580
00000000
00000000
00000000
00000000
00000000
00000000
58905480
00005760
00000000
00000000
00000000
00000000
00000000
00000000
584053a0
000056c0
00000000
00000000
00000000
00000000
00000000
00000000
58705430
00005720
00000000
00000000
00000000
00000000
00000000
00000000
57905180
000055d0
00000000
00000000
00000000
00000000
00000000
00000000
57905180
000055d0
00000000
00000000
00000000
00000000
00000000
00000000
57505100
00005590
00000000
00000000
00000000
00000000
00000000
00000000
58785410
00005700
00000000
00000000
00000000
00000000
00000000
00000000
574050c0
00005550
00000000
00000000
00000000
00000000
00000000
00000000
59b856c0
000058b8
00000000
00000000
00000000
00000000
00000000
00000000
57f052a0
00005630
00000000
00000000
00000000
00000000
00000000
00000000
58205340
00005720
00000000
00000000
00000000
00000000
00000000
00000000
58c055a0
00005890
00000000
00000000
00000000
00000000
00000000
00000000
57805530
00005800
00000000
00000000
00000000
00000000
00000000
00000000
581056c0
00005870
00000000
00000000
00000000
00000000
00000000
00000000
59185888
00005950
00000000
00000000
00000000
00000000
00000000
00000000
59185880
00005958
00000000
00000000
00000000
00000000
00000000
00000000
5a5859a8
00005ae8
00000000
00000000
00000000
00000000
00000000
00000000
5b205a50
00005be0
00000000
00000000
00000000
00000000
00000000
00000000
5a485958
00005b30
00000000
00000000
00000000
00000000
00000000
00000000
59f858d8
00005b18
00000000
00000000
00000000
00000000
00000000
00000000
593057d0
00005a98
00000000
00000000
00000000
00000000
00000000
00000000
59f85870
00005b38
00000000
00000000
00000000
00000000
00000000
00000000
5a5858b8
00005b10
00000000
00000000
00000000
00000000
00000000
00000000
56e051c0
000056f0
00000000
00000000
00000000
00000000
00000000
00000000
58285340
00005700
00000000
00000000
00000000
00000000
00000000
00000000
57a05100
000055d0
00000000
00000000
00000000
00000000
00000000
00000000
57805080
000055c0
00000000
00000000
00000000
00000000
00000000
00000000
58405260
000056c0
00000000
00000000
00000000
00000000
00000000
00000000
58385140
00005680
00000000
00000000
00000000
00000000
00000000
00000000
58185080
00005610
00000000
00000000
00000000
00000000
00000000
00000000
58004f80
000055c0
00000000
00000000
00000000
00000000
00000000
00000000
58d05300
00005760
00000000
00000000
00000000
00000000
00000000
00000000
57205160
00005570
00000000
00000000
00000000
00000000
00000000
00000000
57205100
00005560
00000000
00000000
00000000
00000000
00000000
00000000
56c05060
00005520
00000000
00000000
00000000
00000000
00000000
00000000
582853a0
000056e0
00000000
00000000
00000000
00000000
00000000
00000000
58505470
00005750
00000000
00000000
00000000
00000000
00000000
00000000
56204f00
000054b0
00000000
00000000
00000000
00000000
00000000
00000000
576050c0
00005590
00000000
00000000
00000000
00000000
00000000
00000000
57505080
00005540
00000000
00000000
00000000
00000000
00000000
00000000
591855d0
00005820
00000000
00000000
00000000
00000000
00000000
00000000
57d05360
00005640
00000000
00000000
00000000
00000000
00000000
00000000
58405460
000057c0
00000000
00000000
00000000
00000000
00000000
00000000
58485500
00005840
00000000
00000000
00000000
00000000
00000000
00000000
58d05770
00005920
00000000
00000000
00000000
00000000
00000000
00000000
58705780
000058d0
00000000
00000000
00000000
00000000
00000000
00000000
5a105990
00005a48
00000000
00000000
00000000
00000000
00000000
00000000
5aa05a08
00005ae0
00000000
00000000
00000000
00000000
00000000
00000000
5b405a80
00005bf0
00000000
00000000
00000000
00000000
00000000
00000000
599058a0
00005a78
00000000
00000000
00000000
00000000
00000000
00000000
59f858f0
00005b00
00000000
00000000
00000000
00000000
00000000
00000000
59e058b8
00005b10
00000000
00000000
00000000
00000000
00000000
00000000
59985848
00005af0
00000000
00000000
00000000
00000000
00000000
00000000
5a3058b8
00005b60
00000000
00000000
00000000
00000000
00000000
00000000
5a8858e0
00005b30
00000000
00000000
00000000
00000000
00000000
00000000
568051a0
000056a0
00000000
00000000
00000000
00000000
00000000
00000000
5b685960
00005ae8
00000000
00000000
00000000
00000000
00000000
00000000
57205120
00005580
00000000
00000000
00000000
00000000
00000000
00000000
57b051c0
00005600
00000000
00000000
00000000
00000000
00000000
00000000
578050e0
000055d0
00000000
00000000
00000000
00000000
00000000
00000000
57e05140
00005610
00000000
00000000
00000000
00000000
00000000
00000000
57304f00
00005520
00000000
00000000
00000000
00000000
00000000
00000000
58685280
000056c0
00000000
00000000
00000000
00000000
00000000
00000000
57e05080
000055b0
00000000
00000000
00000000
00000000
00000000
00000000
579053c0
00005640
00000000
00000000
00000000
00000000
00000000
00000000
55c04f00
00005460
00000000
00000000
00000000
00000000
00000000
00000000
57d05320
00005660
00000000
00000000
00000000
00000000
00000000
00000000
588854e0
000057c0
00000000
00000000
00000000
00000000
00000000
00000000
59005660
00005870
00000000
00000000
00000000
00000000
00000000
00000000
56c051e0
00005580
00000000
00000000
00000000
00000000
00000000
00000000
57605180
000055c0
00000000
00000000
00000000
00000000
00000000
00000000
58085280
00005650
00000000
00000000
00000000
00000000
00000000
00000000
583053e0
000056b0
00000000
00000000
00000000
00000000
00000000
00000000
58885500
000057b0
00000000
00000000
00000000
00000000
00000000
00000000
58605500
00005808
00000000
00000000
00000000
00000000
00000000
00000000
58805620
00005888
00000000
00000000
00000000
00000000
00000000
00000000
58785720
000058c0
00000000
00000000
00000000
00000000
00000000
00000000
59c05940
00005a28
00000000
00000000
00000000
00000000
00000000
00000000
5a4859e8
00005a98
00000000
00000000
00000000
00000000
00000000
00000000
5a5859c8
00005ab0
00000000
00000000
00000000
00000000
00000000
00000000
5a305948
00005ad8
00000000
00000000
00000000
00000000
00000000
00000000
59a85880
00005a88
00000000
00000000
00000000
00000000
00000000
00000000
59485830
00005a58
00000000
00000000
00000000
00000000
00000000
00000000
59c858a8
00005b08
00000000
00000000
00000000
00000000
00000000
00000000
59f858a8
00005b60
00000000
00000000
00000000
00000000
00000000
00000000
59f85880
00005b28
00000000
00000000
00000000
00000000
00000000
00000000
5ad85930
00005b78
00000000
00000000
00000000
00000000
00000000
00000000
58a055b0
000058a8
00000000
00000000
00000000
00000000
00000000
00000000
56e05220
00005600
00000000
00000000
00000000
00000000
00000000
00000000
59285640
00005878
00000000
00000000
00000000
00000000
00000000
00000000
571051a0
000055a0
00000000
00000000
00000000
00000000
00000000
00000000
588054c0
00005790
00000000
00000000
00000000
00000000
00000000
00000000
56c05140
00005530
00000000
00000000
00000000
00000000
00000000
00000000
58e85580
00005810
00000000
00000000
00000000
00000000
00000000
00000000
57605160
000055a0
00000000
00000000
00000000
00000000
00000000
00000000
58485320
000056a0
00000000
00000000
00000000
00000000
00000000
00000000
56c052c0
000055b0
00000000
00000000
00000000
00000000
00000000
00000000
56d05240
00005590
00000000
00000000
00000000
00000000
00000000
00000000
57c05360
00005670
00000000
00000000
00000000
00000000
00000000
00000000
58105430
000056e0
00000000
00000000
00000000
00000000
00000000
00000000
57a05440
00005690
00000000
00000000
00000000
00000000
00000000
00000000
58f85650
00005868
00000000
00000000
00000000
00000000
00000000
00000000
58c05500
00005808
00000000
00000000
00000000
00000000
00000000
00000000
58685400
00005720
00000000
00000000
00000000
00000000
00000000
00000000
56a05000
00005500
00000000
00000000
00000000
00000000
00000000
00000000
57505220
000055e0
00000000
00000000
00000000
00000000
00000000
00000000
58985570
00005840
00000000
00000000
00000000
00000000
00000000
00000000
58f85700
000058e8
00000000
00000000
00000000
00000000
00000000
00000000
58185680
00005868
00000000
00000000
00000000
00000000
00000000
00000000
58b85838
00005920
00000000
00000000
00000000
00000000
00000000
00000000
5a3859d8
00005a88
00000000
00000000
00000000
00000000
00000000
00000000
5a305998
00005a98
00000000
00000000
00000000
00000000
00000000
00000000
59e858e0
00005a88
00000000
00000000
00000000
00000000
00000000
00000000
59705838
00005a50
00000000
00000000
00000000
00000000
00000000
00000000
59d058b0
00005af0
00000000
00000000
00000000
00000000
00000000
00000000
5a0858d0
00005b40
00000000
00000000
00000000
00000000
00000000
00000000
58c056d0
00005a18
00000000
00000000
00000000
00000000
00000000
00000000
5ad85958
00005bf8
00000000
00000000
00000000
00000000
00000000
00000000
5b4859b0
00005bc8
00000000
00000000
00000000
00000000
00000000
00000000
58505510
00005848
00000000
00000000
00000000
00000000
00000000
00000000
56005040
00005500
00000000
00000000
00000000
00000000
00000000
00000000
57f053e0
00005690
00000000
00000000
00000000
00000000
00000000
00000000
58585480
00005760
00000000
00000000
00000000
00000000
00000000
00000000
58205430
000056f0
00000000
00000000
00000000
00000000
00000000
00000000
58185480
000056e0
00000000
00000000
00000000
00000000
00000000
00000000
57e05400
00005660
00000000
00000000
00000000
00000000
00000000
00000000
57305180
00005590
00000000
00000000
00000000
00000000
00000000
00000000
56b05000
000054f0
00000000
00000000
00000000
00000000
00000000
00000000
58a855e0
00005830
00000000
00000000
00000000
00000000
00000000
00000000
57305320
00005610
00000000
00000000
00000000
00000000
00000000
00000000
576052e0
00005620
00000000
00000000
00000000
00000000
00000000
00000000
57c053a0
00005680
00000000
00000000
00000000
00000000
00000000
00000000
58585500
00005770
00000000
00000000
00000000
00000000
00000000
00000000
55104c80
000053a0
00000000
00000000
00000000
00000000
00000000
00000000
578051c0
00005600
00000000
00000000
00000000
00000000
00000000
00000000
57005020
00005550
00000000
00000000
00000000
00000000
00000000
00000000
582052e0
00005690
00000000
00000000
00000000
00000000
00000000
00000000
57b05260
00005640
00000000
00000000
00000000
00000000
00000000
00000000
58305450
00005770
00000000
00000000
00000000
00000000
00000000
00000000
58285510
000057e0
00000000
00000000
00000000
00000000
00000000
00000000
56a054a0
000056f0
00000000
00000000
00000000
00000000
00000000
00000000
58d05830
00005928
00000000
00000000
00000000
00000000
00000000
00000000
59f85968
00005a50
00000000
00000000
00000000
00000000
00000000
00000000
5a085950
00005a80
00000000
00000000
00000000
00000000
00000000
00000000
58f857e0
00005990
00000000
00000000
00000000
00000000
00000000
00000000
59c05880
00005a88
00000000
00000000
00000000
00000000
00000000
00000000
5a0858e8
00005b28
00000000
00000000
00000000
00000000
00000000
00000000
5a385908
00005b88
00000000
00000000
00000000
00000000
00000000
00000000
594857d0
00005a90
00000000
00000000
00000000
00000000
00000000
00000000
5b2059a8
00005bf8
00000000
00000000
00000000
00000000
00000000
00000000
5b3059b0
00005b90
00000000
00000000
00000000
00000000
00000000
00000000
59e85838
000059c0
00000000
00000000
00000000
00000000
00000000
00000000
59385690
000058b8
00000000
00000000
00000000
00000000
00000000
00000000
582853e0
000056e0
00000000
00000000
00000000
00000000
00000000
00000000
579051c0
00005630
00000000
00000000
00000000
00000000
00000000
00000000
57d05280
00005670
00000000
00000000
00000000
00000000
00000000
00000000
58a05530
000057e0
00000000
00000000
00000000
00000000
00000000
00000000
58185410
000056a0
00000000
00000000
00000000
00000000
00000000
00000000
58a854e0
000057b0
00000000
00000000
00000000
00000000
00000000
00000000
577051a0
000055d0
00000000
00000000
00000000
00000000
00000000
00000000
58785580
00005800
00000000
00000000
00000000
00000000
00000000
00000000
54e04d00
00005380
00000000
00000000
00000000
00000000
00000000
00000000
57d05420
00005690
00000000
00000000
00000000
00000000
00000000
00000000
59205660
00005870
00000000
00000000
00000000
00000000
00000000
00000000
58005420
000056a0
00000000
00000000
00000000
00000000
00000000
00000000
58205430
000056e0
00000000
00000000
00000000
00000000
00000000
00000000
57a05200
00005620
00000000
00000000
00000000
00000000
00000000
00000000
579051a0
00005610
00000000
00000000
00000000
00000000
00000000
00000000
58305380
000056c0
00000000
00000000
00000000
00000000
00000000
00000000
576051c0
000055f0
00000000
00000000
00000000
00000000
00000000
00000000
58405420
00005770
00000000
00000000
00000000
00000000
00000000
00000000
56a05220
00005610
00000000
00000000
00000000
00000000
00000000
00000000
58305600
00005840
00000000
00000000
00000000
00000000
00000000
00000000
59485868
00005980
00000000
00000000
00000000
00000000
00000000
00000000
59f85938
00005a58
00000000
00000000
00000000
00000000
00000000
00000000
59505880
000059c0
00000000
00000000
00000000
00000000
00000000
00000000
590057f0
00005980
00000000
00000000
00000000
00000000
00000000
00000000
59885868
00005a48
00000000
00000000
00000000
00000000
00000000
00000000
59605840
00005a80
00000000
00000000
00000000
00000000
00000000
00000000
59685830
00005aa0
00000000
00000000
00000000
00000000
00000000
00000000
58785640
000059b0
00000000
00000000
00000000
00000000
00000000
00000000
5b1059b0
00005bf8
00000000
00000000
00000000
00000000
00000000
00000000
5b985a28
00005bd8
00000000
00000000
00000000
00000000
00000000
00000000
59485760
00005908
00000000
00000000
00000000
00000000
00000000
00000000
58105440
00005700
00000000
00000000
00000000
00000000
00000000
00000000
57e05300
00005670
00000000
00000000
00000000
00000000
00000000
00000000
571050c0
000055b0
00000000
00000000
00000000
00000000
00000000
00000000
58605410
00005760
00000000
00000000
00000000
00000000
00000000
00000000
58a85540
00005800
00000000
00000000
00000000
00000000
00000000
00000000
59385660
00005888
00000000
00000000
00000000
00000000
00000000
00000000
59505610
00005880
00000000
00000000
00000000
00000000
00000000
00000000
57e05220
00005630
00000000
00000000
00000000
00000000
00000000
00000000
56e052e0
000055d0
00000000
00000000
00000000
00000000
00000000
00000000
56a05240
00005570
00000000
00000000
00000000
00000000
00000000
00000000
577053a0
000055f0
00000000
00000000
00000000
00000000
00000000
00000000
585054e0
00005720
00000000
00000000
00000000
00000000
00000000
00000000
57905360
00005610
00000000
00000000
00000000
00000000
00000000
00000000
567050a0
000054e0
00000000
00000000
00000000
00000000
00000000
00000000
576051c0
000055f0
00000000
00000000
00000000
00000000
00000000
00000000
56c05080
00005550
00000000
00000000
00000000
00000000
00000000
00000000
56305040
000054d0
00000000
00000000
00000000
00000000
00000000
00000000
58b85560
00005808
00000000
00000000
00000000
00000000
00000000
00000000
54500000
00005220
00000000
00000000
00000000
00000000
00000000
00000000
57105260
00005630
00000000
00000000
00000000
00000000
00000000
00000000
58205570
00005808
00000000
00000000
00000000
00000000
00000000
00000000
59185800
00005938
00000000
00000000
00000000
00000000
00000000
00000000
59d05900
00005a30
00000000
00000000
00000000
00000000
00000000
00000000
59a058d0
00005a10
00000000
00000000
00000000
00000000
00000000
00000000
59a858d8
00005a28
00000000
00000000
00000000
00000000
00000000
00000000
59885890
00005a30
00000000
00000000
00000000
00000000
00000000
00000000
59205818
00005a28
00000000
00000000
00000000
00000000
00000000
00000000
59685840
00005a98
00000000
00000000
00000000
00000000
00000000
00000000
58f85760
00005a00
00000000
00000000
00000000
00000000
00000000
00000000
5b685a08
00005bf8
00000000
00000000
00000000
00000000
00000000
00000000
5be05a78
00005bf8
00000000
00000000
00000000
00000000
00000000
00000000
57105380
00005640
00000000
00000000
00000000
00000000
00000000
00000000
58805530
000057c0
00000000
00000000
00000000
00000000
00000000
00000000
56c05160
00005560
00000000
00000000
00000000
00000000
00000000
00000000
58085380
000056c0
00000000
00000000
00000000
00000000
00000000
00000000
579052c0
00005640
00000000
00000000
00000000
00000000
00000000
00000000
54e04c40
00005340
00000000
00000000
00000000
00000000
00000000
00000000
56805100
00005520
00000000
00000000
00000000
00000000
00000000
00000000
56e05080
00005540
00000000
00000000
00000000
00000000
00000000
00000000
57a05160
000055f0
00000000
00000000
00000000
00000000
00000000
00000000
576053c0
00005630
00000000
00000000
00000000
00000000
00000000
00000000
576053a0
00005610
00000000
00000000
00000000
00000000
00000000
00000000
561050e0
00005490
00000000
00000000
00000000
00000000
00000000
00000000
55604f00
000053a0
00000000
00000000
00000000
00000000
00000000
00000000
56005020
00005460
00000000
00000000
00000000
00000000
00000000
00000000
58185420
000056a0
00000000
00000000
00000000
00000000
00000000
00000000
58005380
00005690
00000000
00000000
00000000
00000000
00000000
00000000
58185420
000056e0
00000000
00000000
00000000
00000000
00000000
00000000
58f85640
00005858
00000000
00000000
00000000
00000000
00000000
00000000
57605320
00005620
00000000
00000000
00000000
00000000
00000000
00000000
567050e0
00005540
00000000
00000000
00000000
00000000
00000000
00000000
565050e0
00005570
00000000
00000000
00000000
00000000
00000000
00000000
56c05300
00005650
00000000
00000000
00000000
00000000
00000000
00000000
56905400
000056c0
00000000
00000000
00000000
00000000
00000000
00000000
59205830
00005978
00000000
00000000
00000000
00000000
00000000
00000000
59d85910
00005a58
00000000
00000000
00000000
00000000
00000000
00000000
5a285970
00005aa0
00000000
00000000
00000000
00000000
00000000
00000000
598058a8
00005a20
00000000
00000000
00000000
00000000
00000000
00000000
58a85740
000059b0
00000000
00000000
00000000
00000000
00000000
00000000
58d85750
000059f0
00000000
00000000
00000000
00000000
00000000
00000000
59805840
00005a68
00000000
00000000
00000000
00000000
00000000
00000000
5ac05980
00005b58
00000000
00000000
00000000
00000000
00000000
00000000
5b905a48
00005ba0
00000000
00000000
00000000
00000000
00000000
00000000
57f054f0
00005730
00000000
00000000
00000000
00000000
00000000
00000000
55d05040
00005490
00000000
00000000
00000000
00000000
00000000
00000000
56e051a0
00005590
00000000
00000000
00000000
00000000
00000000
00000000
56b05120
00005580
00000000
00000000
00000000
00000000
00000000
00000000
57505280
00005650
00000000
00000000
00000000
00000000
00000000
00000000
563050a0
00005510
00000000
00000000
00000000
00000000
00000000
00000000
56004fc0
000054b0
00000000
00000000
00000000
00000000
00000000
00000000
56a05040
00005540
00000000
00000000
00000000
00000000
00000000
00000000
572050c0
000055a0
00000000
00000000
00000000
00000000
00000000
00000000
57705400
00005640
00000000
00000000
00000000
00000000
00000000
00000000
55905000
00005440
00000000
00000000
00000000
00000000
00000000
00000000
55204e00
00005340
00000000
00000000
00000000
00000000
00000000
00000000
570052c0
00005580
00000000
00000000
00000000
00000000
00000000
00000000
55104e40
00005340
00000000
00000000
00000000
00000000
00000000
00000000
54c04cc0
000052e0
00000000
00000000
00000000
00000000
00000000
00000000
57705340
00005630
00000000
00000000
00000000
00000000
00000000
00000000
57b05410
00005690
00000000
00000000
00000000
00000000
00000000
00000000
573053c0
00005650
00000000
00000000
00000000
00000000
00000000
00000000
57e05490
00005700
00000000
00000000
00000000
00000000
00000000
00000000
591856a0
000058a0
00000000
00000000
00000000
00000000
00000000
00000000
55204dc0
00005440
00000000
00000000
00000000
00000000
00000000
00000000
563051a0
000055c0
00000000
00000000
00000000
00000000
00000000
00000000
564052e0
00005670
00000000
00000000
00000000
00000000
00000000
00000000
57f055e0
00005870
00000000
00000000
00000000
00000000
00000000
00000000
58a857b0
00005930
00000000
00000000
00000000
00000000
00000000
00000000
59d85938
00005a60
00000000
00000000
00000000
00000000
00000000
00000000
583856f0
000058d8
00000000
00000000
00000000
00000000
00000000
00000000
580855d0
000058f8
00000000
00000000
00000000
00000000
00000000
00000000
58c056f0
000059c8
00000000
00000000
00000000
00000000
00000000
00000000
58b05710
00005990
00000000
00000000
00000000
00000000
00000000
00000000
5ad059c8
00005b68
00000000
00000000
00000000
00000000
00000000
00000000
5a485940
00005a60
00000000
00000000
00000000
00000000
00000000
00000000
57a05510
00005720
00000000
00000000
00000000
00000000
00000000
00000000
57b05460
000056d0
00000000
00000000
00000000
00000000
00000000
00000000
54304400
00005260
00000000
00000000
00000000
00000000
00000000
00000000
55504b00
00005450
00000000
00000000
00000000
00000000
00000000
00000000
579051c0
000056b0
00000000
00000000
00000000
00000000
00000000
00000000
582053a0
00005740
00000000
00000000
00000000
00000000
00000000
00000000
55f04e40
000054e0
00000000
00000000
00000000
00000000
00000000
00000000
56405060
00005540
00000000
00000000
00000000
00000000
00000000
00000000
56d051c0
000055d0
00000000
00000000
00000000
00000000
00000000
00000000
56905260
00005580
00000000
00000000
00000000
00000000
00000000
00000000
55f05120
000054e0
00000000
00000000
00000000
00000000
00000000
00000000
55004e40
000053a0
00000000
00000000
00000000
00000000
00000000
00000000
55304f00
00005400
00000000
00000000
00000000
00000000
00000000
00000000
55305060
00005410
00000000
00000000
00000000
00000000
00000000
00000000
54704e00
000052e0
00000000
00000000
00000000
00000000
00000000
00000000
59d85848
00005978
00000000
00000000
00000000
00000000
00000000
00000000
567052a0
000055d0
00000000
00000000
00000000
00000000
00000000
00000000
57405450
000056b0
00000000
00000000
00000000
00000000
00000000
00000000
57e054f0
00005750
00000000
00000000
00000000
00000000
00000000
00000000
56605280
000055c0
00000000
00000000
00000000
00000000
00000000
00000000
57505420
000056d0
00000000
00000000
00000000
00000000
00000000
00000000
56f053c0
000056d0
00000000
00000000
00000000
00000000
00000000
00000000
57105440
00005750
00000000
00000000
00000000
00000000
00000000
00000000
57d05590
00005878
00000000
00000000
00000000
00000000
00000000
00000000
57d05620
00005890
00000000
00000000
00000000
00000000
00000000
00000000
588057c0
00005910
00000000
00000000
00000000
00000000
00000000
00000000
56f05570
00005818
00000000
00000000
00000000
00000000
00000000
00000000
56d05490
00005858
00000000
00000000
00000000
00000000
00000000
00000000
58e85740
000059e8
00000000
00000000
00000000
00000000
00000000
00000000
5a485940
00005b18
00000000
00000000
00000000
00000000
00000000
00000000
5b485a58
00005be0
00000000
00000000
00000000
00000000
00000000
00000000
55505320
000055c0
00000000
00000000
00000000
00000000
00000000
00000000
53004e00
000052e0
00000000
00000000
00000000
00000000
00000000
00000000
561052a0
000055a0
00000000
00000000
00000000
00000000
00000000
00000000
55104f00
00005480
00000000
00000000
00000000
00000000
00000000
00000000
55f05060
00005570
00000000
00000000
00000000
00000000
00000000
00000000
55504d80
000054c0
00000000
00000000
00000000
00000000
00000000
00000000
57b05380
00005720
00000000
00000000
00000000
00000000
00000000
00000000
59205690
000058e0
00000000
00000000
00000000
00000000
00000000
00000000
587055b0
00005830
00000000
00000000
00000000
00000000
00000000
00000000
57405450
000056b0
00000000
00000000
00000000
00000000
00000000
00000000
55d05160
00005510
00000000
00000000
00000000
00000000
00000000
00000000
54604d00
00005340
00000000
00000000
00000000
00000000
00000000
00000000
54804e00
00005380
00000000
00000000
00000000
00000000
00000000
00000000
53a04b80
00005220
00000000
00000000
00000000
00000000
00000000
00000000
53a04d80
000052a0
00000000
00000000
00000000
00000000
00000000
00000000
52c04c80
00005200
00000000
00000000
00000000
00000000
00000000
00000000
58a056c0
00005878
00000000
00000000
00000000
00000000
00000000
00000000
54304ec0
00005410
00000000
00000000
00000000
00000000
00000000
00000000
556051c0
00005550
00000000
00000000
00000000
00000000
00000000
00000000
57e05560
000057d0
00000000
00000000
00000000
00000000
00000000
00000000
573054b0
00005710
00000000
00000000
00000000
00000000
00000000
00000000
582855d0
00005820
00000000
00000000
00000000
00000000
00000000
00000000
56b05450
000056f0
00000000
00000000
00000000
00000000
00000000
00000000
58a856e0
000058f0
00000000
00000000
00000000
00000000
00000000
00000000
58405660
000058f8
00000000
00000000
00000000
00000000
00000000
00000000
59585868
00005a20
00000000
00000000
00000000
00000000
00000000
00000000
55c05440
00005700
00000000
00000000
00000000
00000000
00000000
00000000
58705760
00005920
00000000
00000000
00000000
00000000
00000000
00000000
58385620
00005918
00000000
00000000
00000000
00000000
00000000
00000000
591057a0
000059f8
00000000
00000000
00000000
00000000
00000000
00000000
5ae859f8
00005bc0
00000000
00000000
00000000
00000000
00000000
00000000
5ba05ad8
00005bf8
00000000
00000000
00000000
00000000
00000000
00000000
59a058e0
00005a00
00000000
00000000
00000000
00000000
00000000
00000000
5b305a60
00005b60
00000000
00000000
00000000
00000000
00000000
00000000
5a005908
00005a18
00000000
00000000
00000000
00000000
00000000
00000000
5ab859a8
00005ab8
00000000
00000000
00000000
00000000
00000000
00000000
5a405938
00005a58
00000000
00000000
00000000
00000000
00000000
00000000
5ae859e0
00005b00
00000000
00000000
00000000
00000000
00000000
00000000
5ab859a0
00005ad8
00000000
00000000
00000000
00000000
00000000
00000000
5ac859c0
00005ae0
00000000
00000000
00000000
00000000
00000000
00000000
5ae85a08
00005af0
00000000
00000000
00000000
00000000
00000000
00000000
5b485a78
00005b48
00000000
00000000
00000000
00000000
00000000
00000000
552050c0
000054b0
00000000
00000000
00000000
00000000
00000000
00000000
54c05040
00005450
00000000
00000000
00000000
00000000
00000000
00000000
54704fc0
00005420
00000000
00000000
00000000
00000000
00000000
00000000
548050c0
00005470
00000000
00000000
00000000
00000000
00000000
00000000
54805120
00005470
00000000
00000000
00000000
00000000
00000000
00000000
59785898
00005980
00000000
00000000
00000000
00000000
00000000
00000000
59205848
00005940
00000000
00000000
00000000
00000000
00000000
00000000
59b858d0
000059d8
00000000
00000000
00000000
00000000
00000000
00000000
59b858b8
000059e0
00000000
00000000
00000000
00000000
00000000
00000000
58a05740
000058c8
00000000
00000000
00000000
00000000
00000000
00000000
58905710
000058a8
00000000
00000000
00000000
00000000
00000000
00000000
579055b0
000057e0
00000000
00000000
00000000
00000000
00000000
00000000
58705720
000058a8
00000000
00000000
00000000
00000000
00000000
00000000
58805730
000058f0
00000000
00000000
00000000
00000000
00000000
00000000
587056e0
00005928
00000000
00000000
00000000
00000000
00000000
00000000
59105820
000059d8
00000000
00000000
00000000
00000000
00000000
00000000
55b05430
000056f0
00000000
00000000
00000000
00000000
00000000
00000000
56d05540
00005808
00000000
00000000
00000000
00000000
00000000
00000000
588856e0
00005958
00000000
00000000
00000000
00000000
00000000
00000000
59605848
00005a30
00000000
00000000
00000000
00000000
00000000
00000000
5b905ac0
00005bf8
00000000
00000000
00000000
00000000
00000000
00000000
59e05938
00005a88
00000000
00000000
00000000
00000000
00000000
00000000
59e05938
00005a58
00000000
00000000
00000000
00000000
00000000
00000000
5a5859b8
00005ab0
00000000
00000000
00000000
00000000
00000000
00000000
5a6859b0
00005aa8
00000000
00000000
00000000
00000000
00000000
00000000
5b005a48
00005b40
00000000
00000000
00000000
00000000
00000000
00000000
5a985a00
00005ad0
00000000
00000000
00000000
00000000
00000000
00000000
5ad85a40
00005b18
00000000
00000000
00000000
00000000
00000000
00000000
5a5859c0
00005ac0
00000000
00000000
00000000
00000000
00000000
00000000
59e85948
00005a40
00000000
00000000
00000000
00000000
00000000
00000000
59c05960
00005a10
00000000
00000000
00000000
00000000
00000000
00000000
59d05978
00005a10
00000000
00000000
00000000
00000000
00000000
00000000
552051e0
000054e0
00000000
00000000
00000000
00000000
00000000
00000000
57e055e0
000057d0
00000000
00000000
00000000
00000000
00000000
00000000
58985780
000058b8
00000000
00000000
00000000
00000000
00000000
00000000
59285868
00005958
00000000
00000000
00000000
00000000
00000000
00000000
595858a8
00005988
00000000
00000000
00000000
00000000
00000000
00000000
58385740
00005878
00000000
00000000
00000000
00000000
00000000
00000000
58d05848
00005918
00000000
00000000
00000000
00000000
00000000
00000000
58f05868
00005938
00000000
00000000
00000000
00000000
00000000
00000000
588857d0
000058e0
00000000
00000000
00000000
00000000
00000000
00000000
581856d0
00005870
00000000
00000000
00000000
00000000
00000000
00000000
588857a0
000058c8
00000000
00000000
00000000
00000000
00000000
00000000
59405898
00005980
00000000
00000000
00000000
00000000
00000000
00000000
59a85928
00005a08
00000000
00000000
00000000
00000000
00000000
00000000
58305730
000058a8
00000000
00000000
00000000
00000000
00000000
00000000
583056e0
000058f0
00000000
00000000
00000000
00000000
00000000
00000000
59105848
000059e0
00000000
00000000
00000000
00000000
00000000
00000000
55305360
00005670
00000000
00000000
00000000
00000000
00000000
00000000
57105570
00005810
00000000
00000000
00000000
00000000
00000000
00000000
58885720
00005930
00000000
00000000
00000000
00000000
00000000
00000000
59a858b0
00005a50
00000000
00000000
00000000
00000000
00000000
00000000
5b105a60
00005ba0
00000000
00000000
00000000
00000000
00000000
00000000
5bb05b30
00005bf8
00000000
00000000
00000000
00000000
00000000
00000000
584057a0
000058d0
00000000
00000000
00000000
00000000
00000000
00000000
58285750
000058a8
00000000
00000000
00000000
00000000
00000000
00000000
5a205988
00005a88
00000000
00000000
00000000
00000000
00000000
00000000
59c85928
00005a20
00000000
00000000
00000000
00000000
00000000
00000000
589857e0
000058d8
00000000
00000000
00000000
00000000
00000000
00000000
5a105970
00005a68
00000000
00000000
00000000
00000000
00000000
00000000
5a285988
00005ab0
00000000
00000000
00000000
00000000
00000000
00000000
5ae05a60
00005b68
00000000
00000000
00000000
00000000
00000000
00000000
5ae85aa0
00005b50
00000000
00000000
00000000
00000000
00000000
00000000
5ac05a90
00005b18
00000000
00000000
00000000
00000000
00000000
00000000
56405470
00005610
00000000
00000000
00000000
00000000
00000000
00000000
59085840
00005918
00000000
00000000
00000000
00000000
00000000
00000000
596858c0
000059a8
00000000
00000000
00000000
00000000
00000000
00000000
597858f0
000059e0
00000000
00000000
00000000
00000000
00000000
00000000
597858f0
000059e0
00000000
00000000
00000000
00000000
00000000
00000000
58c05838
00005928
00000000
00000000
00000000
00000000
00000000
00000000
58805810
000058e0
00000000
00000000
00000000
00000000
00000000
00000000
5a2059b0
00005a80
00000000
00000000
00000000
00000000
00000000
00000000
597858f8
000059e0
00000000
00000000
00000000
00000000
00000000
00000000
594858b8
000059a0
00000000
00000000
00000000
00000000
00000000
00000000
57e056b0
00005830
00000000
00000000
00000000
00000000
00000000
00000000
57d056a0
00005828
00000000
00000000
00000000
00000000
00000000
00000000
57f056e0
00005840
00000000
00000000
00000000
00000000
00000000
00000000
598058f8
000059e8
00000000
00000000
00000000
00000000
00000000
00000000
5aa85a18
00005b60
00000000
00000000
00000000
00000000
00000000
00000000
59d05928
00005a80
00000000
00000000
00000000
00000000
00000000
00000000
52c05000
00005480
00000000
00000000
00000000
00000000
00000000
00000000
58705770
000058e8
00000000
00000000
00000000
00000000
00000000
00000000
5aa059d8
00005b20
00000000
00000000
00000000
00000000
00000000
00000000
5be85b30
00005bf8
00000000
00000000
00000000
00000000
00000000
00000000
59905908
000059f8
00000000
00000000
00000000
00000000
00000000
00000000
5a1059a8
00005a90
00000000
00000000
00000000
00000000
00000000
00000000
59f85998
00005a88
00000000
00000000
00000000
00000000
00000000
00000000
58e85878
00005978
00000000
00000000
00000000
00000000
00000000
00000000
5a5059d0
00005ad0
00000000
00000000
00000000
00000000
00000000
00000000
58385730
00005890
00000000
00000000
00000000
00000000
00000000
00000000
59305898
00005970
00000000
00000000
00000000
00000000
00000000
00000000
59085868
00005960
00000000
00000000
00000000
00000000
00000000
00000000
5b405ab0
00005bc8
00000000
00000000
00000000
00000000
00000000
00000000
5a7059f0
00005af8
00000000
00000000
00000000
00000000
00000000
00000000
5b385ae0
00005ba8
00000000
00000000
00000000
00000000
00000000
00000000
5b005ac0
00005b68
00000000
00000000
00000000
00000000
00000000
00000000
53204fc0
00005320
00000000
00000000
00000000
00000000
00000000
00000000
596858a0
00005978
00000000
00000000
00000000
00000000
00000000
00000000
598858e8
000059e0
00000000
00000000
00000000
00000000
00000000
00000000
59105878
00005988
00000000
00000000
00000000
00000000
00000000
00000000
58d05838
00005948
00000000
00000000
00000000
00000000
00000000
00000000
59d05938
00005a48
00000000
00000000
00000000
00000000
00000000
00000000
58d85850
00005940
00000000
00000000
00000000
00000000
00000000
00000000
58e05860
00005948
00000000
00000000
00000000
00000000
00000000
00000000
596058e0
000059c8
00000000
00000000
00000000
00000000
00000000
00000000
58e05860
00005940
00000000
00000000
00000000
00000000
00000000
00000000
581056f0
00005848
00000000
00000000
00000000
00000000
00000000
00000000
571055b0
00005770
00000000
00000000
00000000
00000000
00000000
00000000
582056a0
00005850
00000000
00000000
00000000
00000000
00000000
00000000
58105690
00005860
00000000
00000000
00000000
00000000
00000000
00000000
5a6859d8
00005af0
00000000
00000000
00000000
00000000
00000000
00000000
5aa05a18
00005b38
00000000
00000000
00000000
00000000
00000000
00000000
53005060
00005470
00000000
00000000
00000000
00000000
00000000
00000000
58505760
000058a8
00000000
00000000
00000000
00000000
00000000
00000000
5b085a78
00005b60
00000000
00000000
00000000
00000000
00000000
00000000
5bc05b48
00005bf8
00000000
00000000
00000000
00000000
00000000
00000000
592058c0
00005970
00000000
00000000
00000000
00000000
00000000
00000000
5aa85a48
00005b08
00000000
00000000
00000000
00000000
00000000
00000000
5a3859c8
00005ac8
00000000
00000000
00000000
00000000
00000000
00000000
59a05920
00005a28
00000000
00000000
00000000
00000000
00000000
00000000
598858f0
000059f0
00000000
00000000
00000000
00000000
00000000
00000000
59f85968
00005a50
00000000
00000000
00000000
00000000
00000000
00000000
5b205a90
00005b58
00000000
00000000
00000000
00000000
00000000
00000000
5a105988
00005a58
00000000
00000000
00000000
00000000
00000000
00000000
594858d8
000059d8
00000000
00000000
00000000
00000000
00000000
00000000
59b85938
00005a40
00000000
00000000
00000000
00000000
00000000
00000000
5a005980
00005a68
00000000
00000000
00000000
00000000
00000000
00000000
5af05a68
00005b38
00000000
00000000
00000000
00000000
00000000
00000000
52a04f40
000052a0
00000000
00000000
00000000
00000000
00000000
00000000
59205870
00005948
00000000
00000000
00000000
00000000
00000000
00000000
58f05840
00005948
00000000
00000000
00000000
00000000
00000000
00000000
59405898
000059b8
00000000
00000000
00000000
00000000
00000000
00000000
598058e0
00005a08
00000000
00000000
00000000
00000000
00000000
00000000
595858b0
000059d0
00000000
00000000
00000000
00000000
00000000
00000000
597858f8
000059f8
00000000
00000000
00000000
00000000
00000000
00000000
59105888
00005978
00000000
00000000
00000000
00000000
00000000
00000000
59985918
00005a00
00000000
00000000
00000000
00000000
00000000
00000000
59e05960
00005a40
00000000
00000000
00000000
00000000
00000000
00000000
59c05928
000059f8
00000000
00000000
00000000
00000000
00000000
00000000
58c85800
000058e8
00000000
00000000
00000000
00000000
00000000
00000000
59805898
000059a0
00000000
00000000
00000000
00000000
00000000
00000000
5a205940
00005a58
00000000
00000000
00000000
00000000
00000000
00000000
59a05908
00005a18
00000000
00000000
00000000
00000000
00000000
00000000
586057c0
000058e8
00000000
00000000
00000000
00000000
00000000
00000000
59305898
00005998
00000000
00000000
00000000
00000000
00000000
00000000
58b85810
000058f8
00000000
00000000
00000000
00000000
00000000
00000000
58d05870
00005920
00000000
00000000
00000000
00000000
00000000
00000000
5ac05a68
00005b00
00000000
00000000
00000000
00000000
00000000
00000000
5b405af0
00005b78
00000000
00000000
00000000
00000000
00000000
00000000
5af85aa8
00005b48
00000000
00000000
00000000
00000000
00000000
00000000
5a3059b8
00005ab0
00000000
00000000
00000000
00000000
00000000
00000000
5a4859c8
00005ad0
00000000
00000000
00000000
00000000
00000000
00000000
59e05948
00005a48
00000000
00000000
00000000
00000000
00000000
00000000
59f05958
00005a30
00000000
00000000
00000000
00000000
00000000
00000000
5a6059d0
00005a98
00000000
00000000
00000000
00000000
00000000
00000000
5a085990
00005a50
00000000
00000000
00000000
00000000
00000000
00000000
59e85970
00005a68
00000000
00000000
00000000
00000000
00000000
00000000
59105890
00005998
00000000
00000000
00000000
00000000
00000000
00000000
598058f0
000059d8
00000000
00000000
00000000
00000000
00000000
00000000
5a7059c8
00005ab0
00000000
00000000
00000000
00000000
00000000
00000000
00000000
33703991
350e0000
00003fba
3b9a34b8
00002d86
435235fa
00000000
328038bd
30020000
30ae2a63
00003e45
3b2038ae
00002f56
3f3e0000
00000000
35be3ada
290b0000
35192e34
00003e07
3c323985
00003269
3fb73514
00000000
37c13a85
32273a83
34b22c72
00003c90
36a13be7
00003603
00003c04
000034c4
00003b26
00002be1
2fd82b9f
00003c76
38053f58
00003789
3e320000
0000346c
00003dd7
3b690000
3bef214d
00003d53
3fd53b62
00003925
00003b33
000036a1
00000000
3342337d
00000000
00003023
38fe4227
00003968
37620000
00003b11
00000000
3d460000
3bad0000
000041ef
3b273c0e
00003870
3bbc0000
00000000
36633ace
36dd0000
3c922c2b
00003f0d
40513c24
1d373a03
40cd1765
00000000
32230000
00000000
00002ebd
0000390f
000040f0
00003b52
00000000
00003a79
00003a7c
3af60000
3c2a2b43
0000401f
40283afb
20043a4d
3ea00000
00000000
35753845
3c160000
3b9a0000
28c03daa
40dc3c85
00003c2f
00000000
0000391d
00003c8d
00000000
00002b09
0000336e
3c7e4298
284a3915
40110000
000039c6
00003443
3c480000
3d3a2ced
0000411d
3eae3c9c
00003b95
00003725
000033b6
3412387e
36480000
39d10000
00003fb5
3f443916
0df03aed
3cb034ee
000031c4
00000000
00003651
38022df0
00003e4f
35ef3d8a
000039cd
0000371a
00003344
28603a16
36eb0000
38232927
00003f25
3a2c3d85
0000394a
3c933013
00002f51
324a3aff
36f00000
39bf2944
00003e68
40203a86
00003992
36883c8b
00003178
00000000
000038b0
34bd1bf7
00003e80
387c406d
00003981
00000000
0000357a
00000000
39190000
35ac308f
00004450
3c453dad
000037b8
3e960000
00000000
39be3c98
00000000
3dc03813
00004130
42293e90
2caf3a14
44223ff4
00000000
3e18412c
00000000
000037a8
00000000
0000445b
00003cf9
00003610
00003dd5
00000000
3b4a0000
3ab32a31
00003ee1
3deb38cf
00003a72
00000000
0000386d
00003860
38dc0000
3b6f0000
0000400b
3f34394b
00003a01
3e4e317f
00002cf6
00000000
39d30000
372d0000
00004192
34ce341b
00003a2c
0000380a
00000000
35f43dae
00000000
37e1342e
00003c75
3dbf40d8
32993969
44b10000
00000000
3c874037
33200000
00003d53
00003b19
3ad03d26
00003b2b
0000374c
00003a94
00000000
3ca60000
38d30000
2cb34256
3e4f39be
000037f8
00002fbd
00000000
0000377a
00000000
308a3323
00003c55
3d3b422a
000031b4
457d0000
00000000
38b34047
35c40000
00003e15
000035c5
30ca407b
00003ba6
00000000
00003919
00000000
3a390000
3b6229c5
00004130
40223b0c
00003a60
000026ce
00002d6a
38254034
00000000
341730b4
00000000
3d2c3af0
32a53c98
43e72414
0000372f
00000000
37d20000
3a160000
00003f9f
3be60000
00002c94
415b3abe
361a0000
00003855
261d0000
2d803c55
00000000
3cc437ae
00003653
00003dcb
2ec23a8a
00003a99
00000000
3a0d3095
000039d9
32f53ef9
0000388b
3b002207
29533b7c
00003994
363d0000
3c4e3185
00003f3e
360e3572
000039d6
3cf63bdd
00003922
00003c63
00000000
3cae3179
00003bd1
3ed83b7e
00003b1b
40363ca6
00003968
0000325b
00003595
00000000
00003f27
00000000
00003bad
00003c0c
000036e7
0000318b
0000380f
3d5b32b7
00003ea1
422f3c9c
00003ace
427f35d9
00000000
00003ce3
00000000
00003462
00000000
00003c6c
00003bba
00000000
00003e3b
00002717
3c860000
3fb935a4
0000409a
3e1f3634
00003a6c
00000000
00002cc0
000038c9
2c7d0000
306d0000
00003c67
41b13c62
00003c4b
42fb3972
00003918
00003d2d
00000000
00003872
00000000
3d363473
00003c88
00003512
00003b46
00000000
3cd30000
3c4932c5
000040a4
3f3c3981
00003c62
00000000
0000358b
00003851
0000323b
3c80377e
00000000
41be400a
00000000
42fe0000
00000000
000039a8
00000000
00003925
00000000
00003ecf
00003cb0
00000000
00004039
00003818
3f990000
3f05358c
00004071
3faa362c
0000368e
38090000
00000000
00003b3b
381f0000
333e0000
00003d11
40a732ee
000032ac
3c6238be
00003842
00003c11
0000269e
34e9326a
00000000
38c83530
00003a3c
00003ef9
00003a23
00000000
36ce0000
3c393024
00003cc6
380d0000
00003a19
00003b62
2d29381a
00000000
000038d8
38b90000
00003e6e
3edb0000
00003a06
3ecf3ae6
2d8237c5
000036db
00002d6e
00002f78
00000000
3a1134c8
00003abb
00003f42
380d3d15
00000000
3c160000
41183626
00003a58
43a139ec
0000391b
00003ce6
3927393b
000033db
00000000
2ec538a6
00000000
406f4444
000038af
46530000
00003e3e
00004014
3cef0000
00003d82
00003017
000030bf
00003ba0
00000000
00003e80
0000378d
3d340000
3b562f30
00003ad2
40a23683
00000000
30270000
0000320d
00000000
3cd30000
00000000
00004056
00000000
000039e5
3a9022af
0000394f
00003fb7
00000000
3e483792
00000000
414b38e0
00000000
3b2a0000
000032c6
2e1b400c
0000318e
00003cd7
0000177f
402637cb
00003c8f
000039f5
00003eec
00000000
3d8e0000
00000000
000041e5
00000000
00003752
2de934b4
0000389c
00003a31
00000000
3e5837f9
00003c09
40cb389a
207a382c
442f38e7
1fc10000
00004107
00000000
00003c2e
00000000
3fc0407d
00003da6
00003d0e
00003e55
00000000
3c440000
3bcb2c18
00003e2e
40680000
00003bee
00003838
00003c36
000041ac
00000000
3c04373e
00000000
40753bef
00000000
451c0000
0000364a
00000000
379c0000
3abb0000
00003ed1
3c240000
000030fc
40ff3b90
381e2efe
00000000
38c00000
26793526
00003e31
3d66398c
00003815
000040a5
34b33982
00003819
00000000
3ab32eee
00003900
3f4f380e
000039cb
4054395b
00003ae4
000039dc
392f38ec
00003a0c
00000000
36d93915
00003b66
0000336f
00003d82
00003a5b
39c80000
3b9c33cb
000034ec
3d383fe5
000034f2
3b370000
00003a67
00000000
3a350000
0000377b
00003c36
3a220000
00003c1a
3e113d61
00003c79
00000000
38700000
3ece3315
000041de
3d662ea2
00002ce4
00003d3a
38fa0000
00003d51
00000000
3bfe38ae
00000000
429b3d8a
31173385
46253a89
00003781
00003e20
00000000
00003db3
00000000
00000000
00003d47
00002dcf
00003f76
00003aad
38300000
3ee834cb
00003d59
4294345c
00000000
3ab00000
00002ebe
00003a03
000038dc
3d8436d1
00003c6c
42e13b61
00003d4b
00004339
00003a60
00000000
00003c6e
30123479
00003f90
00003713
00003d00
00003592
00003b34
00000000
336c0000
3da03c1d
00004353
35543f0d
00000000
3f9727f8
00000000
402c41e7
00000000
37453e25
00000000
3d7741e9
39413f85
483b380b
00002ec7
3fc94310
00000000
00003c2d
00000000
000036d2
00003f35
00003917
00003fd7
00000000
3b7c0000
3c8632cf
00003a99
40ec37c0
00003b5e
00002ed5
00003bf4
00003c22
00002d5b
38183201
00000000
408f4036
00000000
3e890000
00003c0d
00000000
3c620000
358a37b1
00003890
3a913689
0000394b
364a0000
00003bca
00000000
3a960000
3d9f2c86
00003d53
416f38d8
00000000
00003928
25bf38d8
000039e2
354f3de2
3e3732cf
00000000
439d3a6b
00003bf3
00003475
00003c9f
00000000
3eec3cc0
000031c4
000040cf
00000000
00003abc
00000000
00003c2a
00003d3b
00000000
40713c17
0000405a
40ad421a
00000000
48170000
00000000
3af7428c
00000000
00003c74
00000000
00003cd2
00003f0c
00003cb6
00003de2
00003bc4
00003f36
3d7c3686
00003eb4
421f3ae6
00003ca0
00003b71
00003899
00002901
0000297d
00003361
00000000
34983037
00003b73
00003583
00003c5b
00003f8a
38350000
3eab387e
00003656
421e3aa1
00003a8e
30a40000
00000000
00003cef
39140000
2c043940
0000369c
3ed43b41
00003bc0
343b308b
00003d63
00000000
3b5c0000
34f12cdd
0000371c
00000000
000031f0
3e2d0000
00003b20
00003c4c
373e0000
405a3762
00003c01
4043361d
00003991
00003b17
295f29a5
00003572
00000000
0000383c
00000000
40d94362
00003cf6
35a03866
00003e65
00000000
3e133871
317c350e
00003def
3a600000
00003a5d
00000000
00003c06
0000439c
00000000
3edf3a58
00000000
40f93d05
00000000
457d0000
00000000
0000275f
38190000
3aa60000
00003d86
3c6c0000
00003435
40b63ac5
35f50000
00000000
39590000
00000000
00003fb6
00002e10
0000388b
00003e1f
36af3958
00002cf7
32030000
3d602fd9
00003ece
40003636
000039cb
40903ccc
36310000
00000000
0000367e
0000344c
00003d91
3bfa3d78
00003c41
000041f1
00003829
00003db3
00000000
365836f1
00000000
3c49409a
2bc33bc9
41fe2945
00000000
00003ff3
39170000
3c15353f
00000000
3e9c0000
00003c8c
00003522
00003010
00000000
3c9b0000
00000000
00004068
00000000
00003b57
00003a1d
35934609
00003bb1
00000000
40763892
00003ce9
40b83e70
00000000
3f0a0000
3c040000
00003f3d
00000000
00003c06
00003631
3ea038cb
00003e38
3ca344ab
38503dc3
00003cd3
00000000
3d1133c5
00003471
3eec38af
00003c5c
00003e49
36d139d3
00000000
391f0000
3d7e3074
00003d42
3dee376c
00003be7
00003cfb
379339ef
00000000
00003b10
3b4f3461
00003a54
3d69387a
2e6d3cc4
4163376a
00000000
00000000
00003aef
00000000
000039b7
00000000
2ec63e64
00003c3c
00003939
0000412b
00000000
3f423ea2
00000000
3826445b
00003b67
00003482
34823571
35504218
00000000
0000414e
00000000
000043d5
000045a3
412e39e8
000040b2
00000000
36e60000
33dd0000
0000416f
3a7b388f
00003d1f
000039a1
000038a3
00003740
00000000
3d0e3642
00003dc3
41763c16
00003bd8
41683b48
00002ddf
00003c2d
0000327a
00000000
00000000
34893959
00003c5c
0000248d
00003e36
00003939
3ce23a32
38363503
00000000
3fe53850
00003887
00000000
00003b8a
00000000
3daf0000
3dbb37be
00004260
412c3d2a
00000000
339d0000
00000000
00000000
000038e6
35043728
00003ed4
354f0000
00000000
45482450
00003948
000040fd
00000000
3e4d3d77
00000000
00003b1f
2b693dd1
000038d3
00002b67
265e43dd
00000000
00003737
00000000
3f46410a
00004029
3c63446e
38a2408a
00000000
38070000
3beb0000
00003f68
3dcb0000
00003d42
00003ea8
39803c51
00000000
00000000
3d093496
00003cc3
4308385e
00000000
44ea3b41
381f30ec
00003c58
00000000
00003d3e
00003040
3d4d3a47
00003c65
00003750
00003c30
00000000
000038a2
366a3838
00003879
37ab3ce9
00003a4e
3d8c0000
00003b97
00003fbe
380d0000
3b3e3896
00000000
3b9f1f4d
000039c6
3e230000
00000000
00000000
38b60000
00003217
00003cc9
00003697
00003b72
0000397f
00003a63
00000000
2ee70000
3e2436bd
000041ee
419d3ab0
00000000
42543caf
32670000
00000000
00000000
000036e9
00003f1f
00000000
00003c6f
2cdc40e3
00003751
0000449b
00000000
3f093c38
00000000
3ff50000
32213d77
00003ec2
0000343b
00002e15
353f368b
3a860000
00003d31
3c770000
000035b3
40eb3a22
329c3163
00000000
377e0000
00003662
00000000
2e3a0000
00003904
00003ea9
00004360
0000283a
38880000
3cf40000
00003d92
3e1239c8
00003951
00000000
3970352a
00000000
38210000
2ff52f63
000040e2
3b0c0000
00003b78
00004143
3a34351a
00003cbb
00000000
3cfc38c1
00000000
41733c55
2b333c40
42683b19
251431d6
00004071
00000000
00003e9c
00000000
00003a61
00003d89
0000385d
00003da9
00000000
39ac0000
3c8a2a38
00003ee8
3d9a0000
00003bc9
3833399c
00003302
00003c15
00000000
3db63356
00002f5e
34bd3907
00003b6f
00003e0f
3b873713
00003f06
00000000
3dce347f
00000000
3dcc3bc0
00003cd6
00004335
3cb03d0a
00000000
32e84000
3d2e2c1c
00003142
4058378f
00003c2d
00003d59
3a8c3c6e
00000000
39540000
00000000
00003ff0
00003c16
00003b68
3ce63c81
2fbf429f
00000000
34140000
40d03475
000041bb
3ead38c0
2ece3d00
0000431b
3ad60000
00000000
00000000
2b373818
00003a3f
2ce5344d
20cc429c
00004100
3b5a3a85
00000000
00000000
3cce380e
00003c60
1edd41c1
3570404f
3d463a64
00000000
000044cf
00000000
30863da2
00000000
33ec44fa
000035dd
42f90000
00003ab1
00002bc2
3c920000
00003840
00000000
0000287f
00003eee
00000000
000040af
00000000
3ad20000
3daa379b
00003fc9
3ede36bf
00000000
3afa0000
00003306
00003b3f
00000000
3db20000
00004208
40103c7a
2ebe3dab
442d3d2b
2c190000
39da34f7
00000000
3dca38e9
0000402f
40ec3d61
00003e8f
000045fe
0000380f
00000000
00003d39
0000373b
0000399c
00000000
00003dfa
0000370a
00003d6b
00003440
38d80000
3db83c51
00003a42
35cf3c02
2eab0000
00000000
0000343e
00004286
00000000
000038ca
00000000
344442a8
0000448b
3ea735f3
00003da9
00004420
00000000
3a000000
00000000
41a73d96
00003fa5
00003a84
00000000
00000000
3cb80000
00000000
00003ee1
35620000
00003cfa
00003a2a
0000463b
00000000
3a450000
3f0f3291
00003cc5
407f38e6
00000000
399d0000
32280000
00000000
00000000
00003888
00003e07
0000399f
00003c58
331c2a1c
00003b48
00003685
2b503623
3ca83a45
00003d22
407b3dc1
00003acf
406821b3
0000371b
00004146
00000000
3a323c47
00000000
3c0a3fda
00003c7c
000039f0
00003c29
00004038
307838f1
000039b7
00000000
31af0000
00003cde
00003401
00003ff1
00000000
3c6a0000
3e1e3231
00003de9
3a110000
00000000
000032f0
30423b17
0000376a
30640000
3d4a3692
000034cb
400d3b52
00000000
41673c3d
3cab3ac2
0000447f
00000000
40573ae5
00000000
410a33ca
00003e15
000041f2
38dc3be8
00000000
38080000
3a380000
00003d4f
3c0c0000
00003688
411439dd
318e2d47
00003991
38060000
36043925
00000000
3d782b36
0000395e
3aa63f2e
00003999
000036b4
00000000
3b0c0000
00000000
3e0a0000
00003973
3c603c16
000033b4
00000000
3b840000
348e0000
0000402e
34900000
00003a43
00003cc9
39ab394d
0000314a
21010000
3d98370d
00003b27
40a7419c
00003b34
40ee3ba3
397e0000
0000405b
00000000
00003e00
00000000
3e6b4002
00003db0
3f764039
00003d12
00003c4e
344d3c5f
39fc34c2
00001cc7
3b330000
00003cda
000038dc
00003d51
00003d41
38080000
3d9430b5
00003698
40b838a5
00003bb6
3c3538cf
223d3a4a
00000000
38110000
00000000
0000300a
37c739cf
00003beb
33e93919
00003c5c
00000000
38873c7f
36d50000
00002e65
3f4237db
0000345c
3a8a3739
00003a21
00000000
378540d1
3db60000
00000000
41c50000
00000000
00003c5a
00003d24
00000000
3d9b0000
00000000
00003316
00003b07
00003517
00000000
2c7d45b8
00000000
3b950000
40cd3904
000041a1
38543d51
00000000
4366388c
302f0000
00000000
00000000
00003378
0000410e
00003b45
365f406f
00004206
37be32e1
280343dc
00000000
3cef3e6b
00003535
3c9a419b
38b13367
444d395c
00003124
3e913c0e
000031f2
00003900
00002433
2e674287
329640e1
00000000
0000400e
00000000
3cb73be2
388b3a01
00000000
00003cb4
000037d1
30e70000
00003dd2
00003e48
3f290000
3ad3399f
00000000
36a43ef6
00000000
00000000
00004080
00000000
41060000
00000000
00003d51
00003c03
000039c3
00000000
00003d3b
00000000
3dee0000
3efc3ace
00004390
3a223d0f
00000000
45eb0000
00000000
000038f7
00000000
000032e8
00000000
00003e1d
35283f73
00003ae7
0000311e
340742d6
00000000
36ef38f7
00000000
000044d1
00004340
3fb13165
00003c7d
00004220
00000000
0000389e
00000000
3cb54153
00003fbd
00002ded
00003eb8
00000000
3b570000
3a390000
000040aa
40120000
00003c51
0000362f
00003ce1
00000000
350c0000
3e563302
000040b0
3d9f0000
00003aa2
3a2a3a89
24150000
00002441
00000000
00003849
00000000
00000000
00003ce6
3d51422e
39e53932
00003021
00000000
40343a86
00004017
3e460000
00003d2b
00004026
3a04355b
00003f42
00000000
350f39dc
00000000
3d094260
00003dfd
41d03df0
35ef3bfe
000041da
00000000
3d0f3b3c
00000000
41623bca
00003e61
00003c09
00003e0e
00000000
00003df0
00000000
00003cd8
35990000
00003cfe
0000396a
00003d1c
00003c4e
31ac0000
3dbf36f2
00000000
40a53941
00000000
40d435ab
00000000
00004413
00000000
302d3c12
00000000
3ce22f38
00003de2
000040e1
00003d9a
00003049
36c1233e
3a5f0000
00003d28
3be10000
00003710
415e3a2f
32cf2cb2
00003b12
366c0000
00003ac7
00000000
3c1b3589
000039aa
00003f1a
2b50394d
00003a06
34d533fa
3b590000
0000314b
3e2d1e39
0000396d
3d793c39
332838a5
00000000
38950000
00002ec0
0000402d
00000000
000039e6
37fa3e2f
390542ff
00000000
00000000
3f5e3114
00004018
3f263838
00003b3c
3d2b3e17
3ce20000
00003db0
00000000
00003c1d
00000000
3f9e4207
00003dc5
00004426
3b553955
00003896
00003c60
3ab03b85
00003579
40593c20
00003d65
38693c50
00003ce9
00000000
00000000
38fe3429
00003094
36ea39eb
00003b99
3980354a
0000394c
00003ded
349e0000
3bd50000
00003cfb
405d3752
00003baa
3d763944
00002cf3
000037f8
00003a1a
3cbe1c6f
00000000
412b3323
00003c1c
000041c9
00003926
00000000
3b114098
3c872e14
000040a0
41a03b1b
00003972
0000382b
00000000
00000000
00000000
0000389d
00000000
31413ec3
00000000
46550000
00000000
00003c2c
3a110000
3c7f2f58
00003cb3
00000000
2f233f30
0000368a
00002cd7
00000000
364b0000
00000000
00003fb0
000037df
000040cd
3d7e3be5
39363a9b
0000361e
00000000
400a3d95
00004037
29764244
396640ad
00003651
34dc0000
37b10000
00000000
00004076
00003f2a
0000430e
000043c7
41183c01
00003ae3
00003bb9
00000000
38513e66
0000400f
000041de
3a804105
3fdf32c0
00000000
3cca3adb
00000000
39dd3ea9
000041d1
00004414
39d240f8
409f3676
00000000
406d2d07
00000000
00003107
00002ffd
00003a80
38374082
3fb53906
00003971
00000000
00000000
392b3d3f
00003d9b
00000000
34873fa2
00000000
00003429
00000000
00000000
00000000
00003bd3
00004107
000042ed
00002e59
000038d0
00004291
00000000
30f83fee
00000000
35c244e3
368b4029
441f0000
000039d3
376644a1
00000000
00003c0f
00000000
3a69419e
0000401a
2f913f3a
00003d7c
00003c09
2fe20000
3a8d34c7
00003a18
417b0000
00003e10
00003d86
00003e47
00000000
37360000
3d642dae
00000000
3caa0000
00003c10
00000000
3a073975
00003c7f
30410000
3f1f35f4
00000000
40f63852
00003d17
00003ad2
3bdb3d3e
00000000
389e0000
00000000
00003e8e
00000000
00003d44
00003df1
3dd63d3b
00003d60
00000000
40e339ca
00003787
43853f13
00000000
447b3ebf
3d933537
00004080
00000000
00003b2d
00000000
38753bc1
00003f58
00003efa
36433eee
00000000
34dc3ee6
3c6834ed
00003e96
3f1033c9
00003d62
3c623bc8
2e1b3c12
00003c64
00000000
3e42384e
00003816
40c732fc
00003cd0
00003c97
000034ac
000043aa
00000000
36dd3c9d
00000000
3d822fbf
0000426d
3e6940d8
00003d9a
000032db
376c0000
3aca0000
00003cad
3c4b0000
000036de
41163a64
34022af1
00003be0
27360000
00003c78
00003a90
3ad93846
00003993
00004025
2ad13a14
00003aa7
372d0000
3b290000
00003b13
3d222fd7
000038f9
3cc03c7f
308c385d
00003894
00003b29
3a870000
00000000
29f70000
000039e0
3cac4043
34b141ae
00000000
38e40000
3da80000
00003baa
000038c8
00003af5
00003dca
3cba38b2
0000365a
33fb0000
3eaa2cf3
00003c26
41053d69
00003c74
3fa33e4c
3d343863
00003216
00003a9d
00003574
00003b6c
392f3b08
00003c58
00003e95
35cc3962
00003e22
00000000
3a0e35ed
00002c38
3c7d38a7
00003b34
42cd38b9
00000000
00004056
32310000
3cc6347d
00000000
3cab336e
00003c4b
00003c55
00003c5f
00000000
39963d35
3c0c0000
00003a49
40b93178
00003827
00003b7b
34583b0c
00000000
3cf941bd
00000000
00004337
00000000
00003a9b
3c873868
00004668
00003965
00000000
400c3ac0
00002ad4
3fab3cde
2b6f0000
42a70000
00000000
2c643d00
00000000
00003e21
00000000
00003c12
0000472c
00003b8c
00003f29
00000000
39b80000
3e0e3a14
00003faf
32de3b6c
00000000
3f7e34b7
00000000
00000000
349e0000
00000000
00003ac5
00003a08
00003fe0
277a0000
000039d2
00000000
31f60000
3db93d72
00003fa7
00003ddd
3824321b
400538ab
000037c4
00003ab1
00000000
3dde3e11
000034ca
2b963ea0
3a0441a4
00003e01
00003b0f
00003cc7
00000000
3a360000
00003423
00003dba
323944d1
000035ef
202e3de9
00003c4f
00000000
3e603e03
00003d73
00003db8
3738414f
34023cd1
31e33be1
243d0000
00000000
38213ae4
00003fa8
00003d47
353f40f1
3e203d40
34de3b96
00000000
00000000
2dce0000
000041bf
000034bf
00003f7b
40de3e9a
39150000
39e14391
00000000
3f2d3fcb
00000000
31dc423c
374e40a4
422f4229
39f733f1
3d12443c
00000000
00003a7e
00000000
39e4414c
00004106
00004110
368e4127
00000000
00003f7a
397d33b2
00003502
401a30ee
00003d8c
00003a0c
31d33e5d
00000000
3a250000
3def3018
00003c3c
40f50000
00003b10
3ccc3513
00000000
00003d3e
00000000
3c4d0000
00000000
3fb90000
00003c80
3577394c
00000000
000037aa
0000399a
000030cc
00000000
00000000
00003cb7
38b33c1c
0000421c
00003c9f
25b80000
40913756
00003806
413a3ce0
00003c54
00003ddc
3bd430fc
00003ba7
000037e3
0000388e
00002c67
3e483b1b
00003e4c
3c133daf
39c03e1f
00000000
00003978
3be834e0
00003439
3b8c3513
00003cd0
00000000
00003c5c
00000000
38a30000
3da237b2
00003a83
3fd43435
00003c60
00000000
000038a0
000043cd
00000000
3d9e3996
00000000
41503d19
00003b3c
43013bd7
00003ada
0000324a
37fe0000
3ab50000
00003ccb
3c910000
00003688
40d03a34
33ae2c2c
00003acf
2e6d3286
2c173569
00003b18
3dcf321b
00003976
0000410f
00003a2a
00003ad6
0000353d
398e0000
0000397e
39f53bb6
00003925
3e5038f2
000039be
00003ca9
39150000
3c600000
00003a19
3ea9349f
00003a29
38b8408c
0000394e
00000000
00003c17
0000354b
000039ab
2f473752
00003b31
39b73936
00003bf7
00000000
3b500000
3cc30000
00003dda
38ce32c1
00000000
00002271
00000000
00000000
394a0000
3a940000
00003f86
39d70000
00003150
3d4f3b17
328e36c3
00004028
00000000
3c5937cd
00000000
3dea3d69
26f73ba3
3c3a3921
20003793
00004082
305b0000
00003cb7
00003605
350c36d8
00003d14
00003d35
00003d34
00000000
35a60000
3a5a0000
00003fea
3e2c3ced
00003b53
3eff3cf3
36a10000
00000000
3a1b42a6
3e080000
00004268
33ba0000
00003ba8
00003dec
38ff368e
00000000
00000000
3cd23a33
00000000
0000429d
36cb3d5a
3d390000
39740000
00003c05
00000000
00004150
00003afe
0000405a
3483405e
413237bf
000037e0
00000000
306e0000
39473c3b
00003d44
00003cbf
327c3fd3
2d130000
00003424
00000000
00000000
3e853ca2
00004111
00003d73
38113bd4
40a23c1d
00002c0f
00000000
00000000
35950000
00000000
00003b1d
32834103
00003ff3
000039f6
00000000
302c0000
3a4b0000
0000378b
00003fc4
000040e4
00000000
0000388e
00003e1f
00000000
3ae73e88
00000000
00004017
35e13e5c
41f22c84
00000000
00003888
2a720000
0000333d
00003cfc
00003e8c
0000416c
0000385b
00003c1c
00003710
00000000
3a133d35
00003c98
00003bc3
00003cc2
3d8439d2
00003c29
00003df7
00000000
389d0000
00000000
00000000
00003e50
000035da
3a023dbf
00004387
00000000
406a3e01
00000000
3c8c400d
1fc1408e
00004073
3eab3ca8
00000000
00000000
00000000
0000309e
3c7041e2
00004043
3ca23ee3
3bec3fda
0000386d
00003b39
39d333a6
00003bbe
39c12efd
00003cb7
400b3802
000036e6
000039b7
34670000
3d5c34b3
00003c75
38a40000
00003c2e
000039e0
00003699
00003c2d
00000000
3da135f2
000038a9
404b39a2
00003ce4
000041f7
330b3941
00003cf1
00003d1d
3c9634ba
00000000
40c230a1
00003d15
000041e8
00003d45
00000000
3a4b3ebb
3a1831eb
00002c28
3b4534e7
00003c7a
00003511
00003cba
00000000
3c4a0000
3cbb34db
00003bed
3da7384f
00000000
3cd30000
00003240
00003916
00000000
3b620000
00000000
3fab0000
00003c59
40370000
00000000
00003b71
00000000
0000330e
00003553
3cc10000
00003ce6
00003810
000039b0
000043ee
00000000
3cdb3a14
00000000
4097381c
00003780
39283cb6
00003a93
0000305c
38560000
3a510000
00003cfa
3cb50000
000036da
40dd398d
31cc303f
00000000
3b250000
00000000
00003ddf
3df938c5
000039e6
0000408e
000039bb
000039c5
00000000
38660fdc
000035a6
3d99409a
25a73a38
40f10000
00003a38
000039a7
3c440000
00003ab6
00003c5c
3a063761
00003bd1
00000000
00003ae7
00000000
3b990000
3a770000
00003c44
400838e5
0000303b
3dcd0000
00000000
00000000
3c340000
00003314
00003e40
383f0000
00003b1e
36670000
000039af
00000000
3cb30000
3ced2cda
00003f68
377e0000
0000360c
000028fb
000038e4
00003fc1
00000000
3c003869
00000000
40094218
00000000
40e80000
00003195
00003977
3d4b0000
00003dca
00000000
365a3a61
00003d5d
00000000
00004015
000039c5
3e700000
3c0a0000
00003548
3ffa30f4
00000000
3c2a0000
00003c61
00000000
40260000
38e80000
0000423a
00000000
0000394e
00000000
00003936
00000000
345e0000
3fec386b
00004139
3c4c3ed2
00000000
45e3390a
33070000
00003b4a
00000000
00003e6d
00003bff
00004112
36c3406d
0000456d
32ad3781
37042fda
00004210
3dc13b97
00003a5f
384e3d9e
34434270
000044ca
00003c3d
00000000
00003a0c
00003c7f
00000000
00003d0c
00003f7d
00000000
00003d08
00000000
3d5d0000
3e293d9e
00004099
00003ef3
00000000
40ce0000
00002b5a
0000399f
00000000
0000356d
00003a4f
00003ef2
2de93b67
44460000
00003060
1f67466a
00000000
40213f4c
00003cff
2d22402b
367d410c
0000426a
000033d3
317f0000
00000000
00000000
00000000
00003fc8
000044b8
00003c13
00003d62
00003994
301e0000
3cd63db3
00003ca9
00003eba
32763905
3fa92cc4
00000000
000043ad
00000000
00000000
00000000
000041bc
00004146
00003858
00003d7a
0000405a
00000000
00000000
000035a9
3a833fc0
0000405a
00003abe
00000000
00003809
370c0000
00000000
00003d46
3ceb383e
00003377
309c3a4a
00003ca1
00003aa1
00000000
3b723591
000032cf
3ddb30d2
00000000
3f2b3149
00003a6b
00003d80
388d0000
381e39b2
00000000
3cd5355f
00003d91
00003766
00003cea
00003799
37790000
3e3c3438
00003980
4064398c
00003d1b
0000394f
2ea03bff
00000000
35f40000
3c671e31
00003c72
3fc037ef
000037ed
3921387d
000039e8
00000000
00003c13
3c2c3568
00003fca
3a620000
00003d3e
3c82371c
00000000
00000000
0000315e
39840000
00003f58
00000000
00003cf6
3c363851
000033de
00003e10
00000000
3d1539c7
00000000
3c423954
27e33dd6
000040cf
000038f7
00000000
2fd30000
3c81390f
00003b0d
3d240000
00003e4f
00003d13
00003ca1
00004394
00000000
3c903a24
00000000
40e53d55
259b3a46
44203a28
00003a3c
00000000
28130000
27350000
000031a9
3b464004
2f3d3604
43610000
000034c7
00000000
3e090000
00002eba
000041ec
33263645
00003a4f
00002033
000037cc
000037f0
2e790000
3c4c3274
00003cf3
40453ae5
00000000
436a3560
000026aa
00003a44
00002fba
00003ccf
00003ddd
2c573408
00003de2
00003585
00003bb9
00003265
00000000
391c3402
00003b0c
3d7c4092
00000000
3e3b0000
0000263b
00003b81
390c0000
369938ca
00000000
3c070000
28a53d42
00003546
0000386e
00000000
39aa0000
3c390000
000041ec
2a650000
00003d12
000037d5
00003451
00003c84
00000000
3d9c3a35
00003913
400741f8
30190000
43003861
00000000
38a43dd9
00000000
00003be4
00003cd6
00003df0
280f3f61
000037fb
00003caa
00003b88
0000389f
3b153800
00003c40
41163e2d
34313dd2
396f0000
00000000
00000000
00003adf
00002f2f
00000000
00000000
000041a0
00000000
00003d1e
0000342c
39060000
3f6f38d5
00003b29
2d273940
00000000
00000000
00002f68
000039a0
39360000
00000000
00000000
000040d6
00004254
000038fa
26673eaf
00000000
3c1b0000
3a710000
00004157
00003d71
00003d1c
00000000
000025b5
00000000
00000000
3c9e3d74
00004216
00003f83
00000000
479b31b0
00000000
36ff0000
00000000
00002dfd
0000360e
00000000
00004471
00003b1d
0000357c
000041f8
00000000
3a193f9a
00000000
00003d18
00000000
45b12d2c
32b53695
00000000
00000000
35ae3b8f
00003f6e
00003a18
0000419e
000041cd
398b3cde
00000000
00000000
308e3cb3
000035dc
00003ee5
00000000
467e3ce3
3bda39c1
00003634
00000000
00003934
00003ef2
0000366c
3140416b
00000000
00003824
32664440
00000000
36b73f03
00000000
3924463a
00003a3b
446f0000
00003c68
0000431e
370d0000
00003e7b
00000000
31db4078
000040a4
00000000
00004039
00000000
3d0a0000
3abb3711
00003eb2
3ee434c7
00003666
00000000
00003b25
00003b62
39ad0000
3d7238b4
0000309c
42593a74
00000000
400b0000
00000000
00003b48
00000000
00003781
00000000
38d03d20
00003e5d
00000000
00003e12
00000000
3c010000
3c6d0000
00003838
3dce3824
000034ec
34f70000
00003438
00000000
3bac0000
3d4f0000
000039e5
3d390000
00003504
00000000
00003b09
00000000
28e739dd
3c533632
00003a88
346a3358
0000344a
00000000
00003c1f
00003891
39c60000
3e463887
00003753
3d680000
00003e06
00000000
00003bc1
00003ed4
35910000
3e143a03
00000000
41d83f0f
00003db3
3043313e
00003cf1
00000000
3b570000
000038a5
00003c46
00000000
00003e35
0000292f
00003ddb
0000441c
00000000
3f783af0
00000000
40f13d4f
00000000
44ad35c7
00000000
00000000
000037fe
3c37295d
00003d3a
3fc43a85
366f38fd
45e533dc
00000000
00000000
00003950
00003709
00003a4b
00000000
00003d65
00002d56
00003ed3
00003ad0
39ad0000
3e8c356b
00003bb2
411a3941
00000000
40810000
00002cdf
00000000
3a3f0000
00003a6c
00003f7a
00000000
00003eaf
000036b8
00003c01
0000359b
34970000
3d053774
00003c50
40933f8e
345f0000
40e72201
0000340e
00003e0e
00000000
00003bbb
00002d5a
33d839a0
2d773eb0
00001e0e
00003cbd
00000000
3b670000
3c5f3589
00003ec5
31810000
00003e0a
00003271
00003c8e
00003b07
30320000
3ff03940
00003bad
400d3e22
00000000
38e60000
335f3316
00003c1f
26b10000
00003bb9
00003b37
0000397e
2eb4401f
000041fa
2cde3d56
000031d6
31e00000
3e0f3917
00003d35
3e703cc3
32833f4d
00000000
00003883
0000368b
2cbb2fec
3bd1391f
00003c3b
3a1e34bc
2abf4051
3c6d36ff
00003b8f
00003bf1
00000000
37f13254
00003cdc
00003778
35cb3f2f
39ef392b
00000000
00003813
00000000
3cc50000
000041ca
322b40fc
36714017
